fffff
00090
003c8
003c6
00012
00012
002f6
000cf
00040
0008f
0001c
002b8
00394
00209
002a1
0004b
00276
00360
000b6
002b9
00034
0019e
003a4
0005d
003a4
00094
003fb
001a4
0010b
001dd
ffff8
00050
001d2
00464
000e8
fff4c
00270
00016
001a3
ffeb9
00120
ffe3d
00018
0026a
002d8
000d6
0000b
000b7
0030f
fffed
fffe6
00040
002b5
002de
000ae
002dc
00347
00221
0033c
00351
00324
002cd
003b9
ffecf
ffeb7
000ae
fff90
ffdcb
ff776
ffc8d
ffbde
ffa26
ffbbd
fff2a
00111
00301
003e7
00240
003ad
000fe
00165
0027d
00027
001bb
0034e
002f9
00126
001df
001f0
00007
0027b
ffdcd
ffcca
ffe3f
ff8a9
ff750
ff224
ff2c7
ff368
ff0b8
ff5cc
ffae8
000c0
001a2
002f5
0045c
00124
0012a
0043e
00413
00143
00264
0041f
002bc
00314
002fd
001c7
00360
ffd78
fff70
ffad5
ffba1
ff392
ff42d
fefd4
ff292
fef83
ff1e3
ff924
ff9e8
ffc5a
00382
004d5
00585
00541
006f8
001ee
003ea
000ff
000a5
00431
0012c
002f6
000f8
002b7
0008c
001eb
ffdac
000a0
ffd4f
ff6e9
ff9fb
ff5ac
ff32e
ff709
ff89a
ffec3
00123
ffe3a
002fc
003a9
004f2
00b87
00d02
00714
fff4f
0012a
000b4
003e4
0044e
00148
00362
003af
00306
002ff
fffc3
fff52
ffc6e
ff8ca
ff350
fecc7
fe946
fe844
feb66
feae4
ff3a0
ff336
ffa3f
ffc37
fffb6
01081
01156
006ac
0053b
003bd
00029
001d7
000f6
00153
00258
00158
00322
ffe10
fffa6
ffdda
ffb21
ff3b0
feccd
fe70f
fee60
fe9f6
fe9cb
fe92a
ff171
ff116
ff59e
ff3ff
ffa86
00a32
00dcb
0075c
00425
003e3
0024f
003bf
00325
00423
000cd
0013f
001b5
00125
fff01
ff6b8
ffb47
ff9d5
ff398
fedd5
ff463
fe5ac
fe4f4
feafa
ff2d5
ff42f
ffc47
ff8ca
ff8e9
004b2
0073a
00583
00119
0017c
002b3
00474
003bf
0037f
000bc
ffdae
00011
ffa46
ffbe4
ffd55
fff1f
ffcd2
ffc2e
ffc10
ff586
fda0c
fe39b
ff91d
ffae9
ffe6d
000d7
ffc03
ffc1b
001f7
00072
ffb7b
ffb4c
ffdf6
00302
00260
001ae
001b3
00077
001c4
ffae4
ff78d
ffbe5
00139
00ad1
0068c
004e5
005dc
ff17c
fd7ec
ff3c9
00166
ffe33
ffea1
0016b
ff800
ffab7
fff01
ff74b
ffb11
ffcdf
0027f
0041f
002c6
002e4
00271
ffe78
fff6f
ffd25
ffcfa
0028f
0082f
00dca
01301
00c17
00da5
fe9c4
fe1d2
003eb
00f9b
002a1
fff19
ffd7f
ff776
ff8b4
ffc47
ff93f
ff87f
fff94
fffbf
00109
00319
002b7
0014a
001dc
fffcf
ffd36
00807
00d3b
0147f
011f5
01dde
021d7
01ffd
fff78
ff016
00c85
01455
0024f
000db
002c7
fff83
00099
fff18
ffb84
ffbfe
ffedf
0046b
0028e
0007c
002e9
00067
00138
0036f
009af
013b4
016dd
01a49
015f6
019a1
029c3
01fa8
0007a
ffb81
00eab
00f11
010bc
00b8a
00531
00b8f
00882
0040e
ffda3
ffded
0003c
0038c
0028a
00073
003a0
0004a
00444
00892
01142
017fd
01a41
0139d
012bf
01697
01b60
013ee
001a7
ffd19
0054c
010c8
01b93
012bb
01137
0099c
00676
0021a
00130
fff51
00127
00229
00105
002fe
0044b
002c2
0038d
007c0
008ca
00da9
00c94
0143e
01164
00c1a
008ca
00a62
0020d
00854
00ba6
0182f
0157d
00f5c
00919
ffd8d
00360
0061b
000a5
ffc53
001ef
0007f
00138
00154
00007
00028
fff78
0021b
00530
00874
00ec2
0157c
00f4f
00419
fff71
00435
00540
013b8
01b44
01c15
01754
00fcb
001fb
006a0
00968
00233
ffe73
fff93
000ea
001b2
001c8
00194
0019d
00337
ffff3
ffdbf
ffb5c
002bf
00bb4
01693
01392
00717
00594
00813
0135d
01ffd
01951
0152d
0068b
00103
ff8ea
0021f
000c7
ffbab
ffe23
ffd2e
ffe63
002d9
0037b
001bf
002ac
00256
00059
ffd46
ffa44
ff957
fffdf
005c6
00152
ffb4c
ffd38
00762
00852
00e0f
00c07
00648
ff645
ff6c9
ff27c
ff7fc
ff7af
ff4ed
ff76b
ffdc3
ffed0
00107
00024
001b0
00320
00130
000b7
ff9d0
ff850
ff5d8
ff0be
feeca
feda9
fea5c
feb4d
fedac
ff542
ffccf
002ca
ff7ab
ff8d4
ff72a
ff3cf
ff25f
ff372
ff33e
ff75f
ffdba
001b5
00305
002c3
0047f
0042a
00134
000b7
ffafb
ff769
ff386
febb1
fe7dc
fe66c
fe5f4
fecee
ff095
feec3
ff52b
ffa5b
ffe0d
ffee9
ffb86
ff64c
ff97a
ff89e
ff717
ffb6e
ffb9d
00053
0010f
00302
000d5
0014f
00058
00099
ffff3
ffb1b
ff3b5
feec6
ff07f
fee5e
ff0a7
ff49a
ff685
ff738
ff5f1
ffb59
ff9cc
0011e
ffe26
00056
fff31
ff9f6
ffae3
fff0f
fffd6
001dc
0027f
00268
0022b
00285
00101
002c2
fff5a
ffd64
ffaed
ff7a0
ff4af
ff920
ff8eb
ffb16
ffad2
ffb8d
ffa72
ffc96
ffcba
0012e
00505
00831
00649
0041f
ffd46
ffd52
fffe6
001cc
00049
00161
00167
00019
0013e
00274
00163
001b4
ffd4c
ffcff
ffbef
001e5
ffba0
000b5
ffb7a
ffc72
ffc87
fffbe
00128
0030f
0096c
00932
007d6
0037e
ffeb5
00110
00214
002d8
000ee
0038a
002ad
003d3
001cf
00308
000b6
00252
000e2
ffbb1
ffb9a
ffe99
ffb56
fff3d
ffca6
ffce9
ffa50
ff99e
ffd3f
ffe92
00080
004f4
0039e
ffe85
fff93
001ea
00326
00081
000d1
002ba
00401
003e2
0038c
000cb
00392
0002b
ffd73
ffbd9
ff9c1
ff96e
ff536
ff3d4
ff481
ff491
ff649
ff5b7
ff2b1
ff0d5
ff261
ff889
ff92c
ffd89
00027
0029d
00032
003a1
00174
00151
001df
002b3
0009c
001cc
fffd2
fff62
00115
000c8
fff2d
ffc39
ff6e4
ff80d
ff6e8
ff3a6
ff281
ff57f
ff40a
ff5d8
ff7a9
ffb08
ffe2e
002b1
002ab
00056
001c0
00049
0044b
001e1
0029b
00062
00094
00420
0018c
00370
00195
00435
ffffe
001d0
000ee
fff6a
fff92
00027
ffe40
00356
fff25
fff06
fffab
001c2
0015a
00158
0016d
00270
00255
00314
00235
00177
