ffdee
0012f
fff5b
fffb3
00164
fffdb
ffeb0
ffe99
fffae
fff4f
0018d
fffe1
000b6
ffdfc
fffe3
ffd3a
ffdb2
fff62
ffda0
0018b
ffdae
fff42
ffd81
fffc0
000c5
fff73
fffe2
fffec
000e1
00115
0005b
ffd91
ffd72
00022
ffdfb
fff70
ffe6f
ffd25
ffe2d
00026
001bd
ffd9e
ffeb6
000c1
ffe06
ffd4f
00081
00134
ffded
00090
ffe3f
ffdc6
fff8f
00026
fff4c
00180
ffd69
ffe68
ffe42
000bc
00033
ffd53
fff5c
0016e
fff23
ffe15
ffe27
ffcd7
ffca3
ffed7
ffc84
ffb87
ffcbd
fff25
ffd3a
ffc6e
fff63
00114
00032
ffe07
00159
ffd28
fff4f
000a6
ffd57
fff60
00181
ffd6a
ffe25
00138
0007d
0000e
00032
fff51
fff1a
ffc7a
ffb2c
ffd44
ffc39
ffbba
000b6
00058
ffb3d
ffbec
ffa2a
ffbdb
ffb00
ffc87
ffd97
000ea
000e2
ffe9f
00059
ffd4d
ffe1a
ffd5c
ffd04
fff9c
fff30
ffd54
fff19
fff6c
ffbac
ffbb8
ffbca
ffbfb
ffee7
fff92
ffcaf
ffce3
ffccb
ffb85
ffe2d
ffa3d
ffdc2
fffb0
ffd7d
ffede
ffe86
fffc2
000b5
ffeba
ffff0
ffda1
fff5b
ffed8
fff28
ffe35
fff30
ffcc5
ffe8b
000f4
003c8
0082a
009de
009c2
00af9
00bcf
00c7f
00467
000c8
00208
ffefe
fffdc
ffaab
ffc20
fffba
ffdf0
ffeed
fff80
0004a
fff1d
0000b
00022
0004e
fffe1
ffd53
ffb73
0027d
fff9c
006c4
005fe
005b8
0087d
00a58
00ea9
00da4
00ba1
00b38
00cce
00741
00298
ffa71
ffa36
ffc16
00096
00157
00038
fffb9
ffc97
ffab7
fff88
ffddf
0000a
ffd85
fff45
00079
004d5
00a0f
00943
003cc
005e8
0086f
00fbe
00b96
00a23
00425
007f4
008be
00478
ffc9c
ffa6f
ffb00
fffb1
00182
0008d
fff5c
ffff9
ffc1f
ffcfd
ffd86
ffcf5
ffe64
ffe50
004c6
00505
00293
00114
001c9
00715
014a6
0106f
00f43
004cc
00409
003b1
0090d
00fc6
ffe43
ffac0
fff7a
ffd3f
fff93
fffbd
00077
00058
ffb21
ffc87
ffb05
ffd25
ffd2f
ffe8e
0036f
ffd11
001b4
0052c
00498
003ec
00b50
00f13
01154
00a06
0030d
fff6f
0076f
0100b
004ae
ffc0d
0000f
fff84
ffd78
0013d
ffdde
ffc20
ffc72
ffd2f
ffd9e
00050
001a4
fff9f
ffd46
000e3
0011d
fff5b
ffa8f
ff6a4
ffa62
0056e
00dc9
00e48
00ca4
00928
00d94
01291
008d7
ffc5b
ffc57
ffd34
ffe1b
ffd78
00111
fff36
ff908
ffe84
00117
00542
003f3
ffe7d
00162
00024
002b7
ffe26
ff13c
fe4a5
fe643
ff5f2
ffea9
00744
00b9f
00ac3
00ead
010a7
00bfa
ffdb2
fffd8
ffd0a
ffe01
fff5d
fff17
fff3e
ffc12
000a2
005bb
005fc
002e5
fff32
0041c
002ea
0055f
ffb96
fe306
fdc1b
fdc44
fec77
ffc8b
ffe91
001c2
00501
01309
01168
00c18
0006e
ffe19
ffe13
ffd2a
fffef
000ff
ffd49
ffef6
0038e
006f1
008f6
006c7
004c0
0067b
00509
003a2
fee5b
fe2f9
fdb1d
fe1b6
ff0f7
ff8a6
ff623
ff875
00350
00c7c
0139b
00b21
001cb
00003
00114
fff98
000db
ffdd2
ffe6c
ffc9e
0092b
00be9
00e76
006f0
00857
00c44
0070b
001b9
ff0a5
fddc6
fdb03
fe292
fefe6
ff8ea
ff76f
000c4
006fa
00854
013cf
00a4f
ffdea
ffef7
ffdc6
00127
000a4
ffe1e
fff91
fffd8
00cf3
00965
00cee
008ed
00bd6
00ef8
00421
ff4bb
fe348
fd9a4
fdb7a
fe754
ff3f6
ffb82
ffba7
003be
0034a
00c94
00eca
007a8
fff3e
00038
ffdfa
00055
00173
ffd12
ffe6a
00230
00bbf
00e99
00b4a
007d7
007e7
00d54
ffe40
fea1d
fd9ef
fdaec
fe297
ff03f
ff8a5
fffe7
0026a
0058b
0083d
00b54
00ad1
0041d
00033
ffea8
ffe30
ffef2
0005b
ffd86
ffb30
00069
00858
00a78
00a2d
0032d
0082c
00cea
ffe06
fe5c7
fda72
fdef0
fec4b
ffd69
00506
0073e
006ac
00883
0067d
00521
005d3
fffb0
fff23
00074
ffdf8
ffe99
00074
fff05
ffe28
ffefe
00553
00ada
00644
003da
00acb
014b3
000d1
fef4a
fe50c
fed35
ffa45
00611
0067a
006c6
00387
001c2
002ef
005a5
00385
fff92
ffe45
00035
fff06
fff23
ffeca
ffeeb
ffb4f
00203
005d7
00df1
00cab
009e8
00d26
014be
00e97
00315
ff94b
ffd11
ffe20
0032c
ffe8a
ffd4e
ffe5d
00343
002f8
005d3
fff3a
000d5
ffeb9
ffcff
0010a
00105
0015c
fff07
ffdc5
ffeac
005fc
00b35
00841
00a3b
00c91
01397
01391
009cd
002fd
ffdf8
00168
00155
ffd24
ffdd5
ffcf5
0019f
00201
00315
00112
ffe47
fff9c
ffd94
ffebe
ffe33
ffd56
fff0d
ffe3e
ffee1
0018d
006ed
00b44
007e7
00892
010c5
012f6
00c93
004c2
001c5
0005f
fffb0
ffad0
ffc0a
ffdb9
001fa
fffdb
ffda7
ffc3c
fff13
ffec3
ffe2c
ffe6f
ffdc4
00022
00036
ffead
ffda3
000df
00509
0045f
00ca3
00a46
00b53
00d78
00b7d
00ec4
00665
0068c
00394
ffcf6
ffd95
fffd4
ffc94
ffc6a
ffe47
ffe22
fff56
ffed9
ffe83
fff38
ffdc0
fff64
ffff0
ffd49
ffd38
fff32
fffab
0037f
004f1
00bb8
00e04
01125
010f9
00a2d
0084a
00494
001f0
fffd0
ff98c
ff7e7
ff9b9
ffce6
ffd7c
fffad
fff0a
000c9
ffea7
ffd2e
ffebf
fff72
ffd38
fffe4
fff3e
fff47
ffca9
ffb8c
ffd86
ffdc7
00298
001f5
004bd
006ef
003a9
ffd37
ffbad
ffad6
ffb99
ff9d3
ffa1c
ffa70
ffee9
ffe8b
ffdaa
ffe48
00023
ffdf9
ffe4c
00197
fff28
00153
00182
fffed
ffcfe
ffeaf
ffa24
ffa74
ff91c
ff70d
ff5c5
ff6b0
ff527
ff637
ff6c0
ffa70
ffb63
ffc19
ffbad
ffc04
ffeaa
00180
000bc
ffeef
ffe93
fff75
00142
00122
ffeda
00012
ffe6e
ffebc
ffd4a
00089
ffe8f
ffb17
ffb14
ffb8c
ffe34
ffb8e
ffbc8
ffe6e
ffb81
ffc58
ffd47
ffc92
ffe4a
ffbe2
ffc86
0015a
ffddf
00065
0011f
fffbf
ffdae
000ee
fff9b
ffec0
00130
0003c
0006a
ffd28
00164
0015c
00079
000fa
fff53
ffe51
000ed
ffd8f
fff1a
ffe48
fff95
ffe7c
ffd1a
ffd66
ffc4c
fff24
00099
ffda7
ffd0b
000c7
