00242
001fb
fff64
00163
00148
00212
fff39
00063
00263
fff06
fffb6
0010b
00303
001f7
ffec5
fff6f
fff60
0012f
0022d
00029
00038
fffd8
fff09
00056
00272
000bd
ffee2
00136
00206
001b2
000d1
fff87
ffed3
fff0a
fffce
00308
ffedb
00276
000f3
00184
00130
001b8
0000c
ffeab
fff52
001df
fffeb
00088
00260
fffd2
0006a
00037
0014f
0028b
ffff8
0008b
002ae
002c0
00035
001df
00245
fffe5
fffbc
000d0
00247
fffac
fff4e
001be
00107
0022d
ffeb8
0024c
fff2c
fff1f
00036
ffee7
002a3
fff4f
fff0e
002a0
00079
00075
00096
0012b
00345
0001c
fffb3
000f8
00106
ffeeb
002ad
00177
fff79
002b4
000d9
00221
fffc8
ffd91
fffc8
ffc4c
fff8b
ffe12
000a4
00063
000d3
fffcb
00220
fffbb
fffb0
002ed
00116
001dc
0005c
0009b
00026
fff5f
ffef6
001e2
0014d
fffc3
ffe58
000a1
ffd43
ffc25
ffa94
ff629
ff37a
fef43
ff3a1
ff398
ff6c6
ffbf1
ffe19
ffea2
00075
00255
001d4
001b1
00003
00015
00243
0019b
001e1
00131
00170
ffe37
ffe6a
ffe3d
ffa52
ffa6f
ff9fc
ff814
ff613
ff443
fee15
feca7
fe78c
fefe1
ff5d7
ffb14
ffacf
ff93d
ff9b5
ffb83
ffe36
fff2c
00046
00196
00208
00217
ffeb0
0021c
00157
ff9f4
ff8a4
ff755
ff63b
ff403
ff732
ffd30
000b5
00ad2
01025
00cd7
008ff
0077a
0097b
ffe67
ffdb8
ff8c9
ff312
ff3f8
ff91c
ffca5
fff7e
00118
0031e
fffe3
ffefc
ffee0
ff917
ff57e
ff3a1
ff146
ff213
ffb17
fff99
003d1
00eaa
01181
01800
01820
01919
00b60
00891
000ed
00239
00285
ff75b
ff083
ff6df
ffdb8
ffdaa
0020c
00306
0030b
0018c
fff12
ff8cf
ff51d
ff353
fee47
ffb51
ffdd5
ffd7d
ffaf5
fff9d
00706
01491
00b5a
00b8f
0025e
000e9
0009d
ffc33
001f9
ffb21
ff3a5
ff590
ffaff
ffdd0
002d2
000eb
0008d
00035
ffadb
ff4c8
ff766
ffd90
ffb12
ffd11
ffeab
00546
0032d
000ee
0087f
00e3a
00caf
fff82
ffc5d
00024
ff86d
ffcca
ff810
ff780
ff6ee
ff9d1
ffd4c
ffe0a
00281
0008b
fffe4
ffecb
ffe08
ff75c
ffb7b
00437
00585
00b34
00b1f
00994
00e6c
00743
001b6
001db
ff8b3
ffba6
fff24
00516
fffe4
00417
ffd8f
ffafb
ffb43
ff9fc
ffe48
ffdba
00170
fff87
00093
ffeb3
fff2d
ffda1
007f3
01265
00dba
01592
008a6
008f7
00f67
ffb1a
ffbd6
ffdc0
00116
005f4
014d8
009d9
009fb
0105e
00bd8
006ec
0016e
ffede
ffd2e
fffe1
00003
0014d
002af
ffe26
ffd0c
006b6
01171
0142d
00bf8
00ef6
0124b
00bae
00023
ff448
00a27
015ef
0115a
00ed6
016af
016d9
017b6
01860
0104a
007d5
00035
ffc5f
00098
00151
0016d
00304
001da
ffd76
000f4
00a26
00f43
00e62
00971
00bda
0079c
006e0
ffc70
ff9d9
00ff5
015e3
00fdc
01247
01063
0167a
016de
011e0
00a71
00099
ff8e4
ffbdb
ffeb7
00159
0015f
0009b
0004d
00213
00151
004a5
00460
00bea
00856
0040d
ffff5
0017c
fff43
ffb81
0052d
002f0
00dff
00ed8
00edd
00a20
00682
0081e
00026
ff7ce
ff417
ffb13
000d2
00078
0008e
00248
00215
00161
ffe56
00057
0054d
00513
0035a
0036b
ff9b8
ffd15
ffd10
ffb9d
ffc9b
ffbe3
00f4a
01662
01575
00abe
00109
ffb55
ff3b2
ff0a7
ff50a
ffb1f
00017
00141
fffd2
002a1
00038
ffe1e
fff84
0002b
00197
ffbe6
0033d
00934
ffdd8
00538
00767
ffefe
ff794
ffe97
0087d
00f46
00f2d
003ca
ff75f
ff1ae
fec33
ff219
ff4b4
ff886
0003f
ffe5e
0016a
000de
fff6c
ffdf2
ffcff
ffa5f
ff927
ffa5b
0028b
004f5
005a5
0089b
00c86
007a3
0038d
004da
00c75
003b3
ffd7a
ffa7f
ff35a
ff383
ff28f
ff35c
ff6b2
ff939
000ad
000b3
fff67
0026d
ffffe
ffe96
fff70
ffb0d
ff4a4
ff46b
ff4a4
ffb3a
001e5
00db9
00b17
ff93b
ff921
0006d
0083f
ffaf2
ffa3c
ff534
ff981
ff9e8
ff67e
ff5fe
ff586
ff897
ffed2
00026
00238
00193
00325
0008f
ffd48
ffb75
ff7f6
ff34b
ff2f5
ff27f
ff29b
ff102
ff356
fef9c
ff48b
ff658
ff504
ff685
ffce7
ff8c9
ffdfc
ffb2d
ffa48
ffa9a
ffb33
ffcfb
000de
fff0d
00056
fff69
00070
00156
0001a
ffb4c
ff83c
ff43a
fed8f
feae1
fe84f
fdfed
fe774
fe815
ff82c
ff506
ffad8
ff9d1
ffe55
ff57d
ffc8a
ffbd4
ff94d
ffe1d
ffcca
00053
002ad
0019d
00082
00037
00001
002ad
ffd2a
ffcd6
ff858
ff530
fef50
fed0f
feb29
fea28
fec5b
ff37c
ff3a6
ff371
ff8cb
ff832
ff440
ff1d3
ff9fe
ffca6
ffe11
000f2
fffbb
00134
001a5
00018
00032
0020e
00083
00094
001f7
ffebd
ff9d1
ff61b
ff28b
ff5fc
ff589
ff493
ff849
ff754
ff476
ff64d
ff268
ff0f7
ff142
ff3be
ff51a
ffd02
003ab
0020a
00288
00423
000de
000f7
00182
00269
001e4
000b5
fff0e
ffe44
ffaaf
ff9d1
ff7d3
fff62
ffcb2
ffd5a
ff618
ff7ed
ff5d0
ff763
ff14c
ff021
ff208
ff74c
fff27
00368
007e9
00b67
0098c
00478
fffb2
00334
fffa0
ffffd
ffebd
fffa9
002b3
001f1
0030a
00236
00335
00489
00272
ffe63
ffaeb
fffa4
ff834
ff625
ff598
ffb48
0036c
005d8
0060a
00dcb
00ed8
0088b
00539
0041f
fff31
001d8
fffe1
000ac
002ad
002af
fffb8
00040
00495
00379
00a05
00afb
00b2e
009ac
003d7
00a2d
00913
008b1
0082b
00f42
01095
0123d
01309
01540
00f14
005e2
002ca
fffa0
fffc7
000c8
000a8
0001d
00270
000a7
fff1d
00274
003cd
00555
00768
0086e
00cc9
00d31
00ed1
0118c
011b4
015ad
00c81
00890
0073b
00aab
00b83
0085c
005d2
0026c
000e0
0008b
000f7
fff16
00089
fff6a
0011d
ffeff
002f4
001b2
000f0
fff95
002df
0026e
001a9
fff77
fff67
00092
fff77
0009f
001d8
0002c
00102
00347
002ec
001a5
00101
fff30
0033e
001c3
fff67
00039
fffac
