00030
00041
001e6
000bb
00318
ffea0
fff15
00101
00261
00255
ffeaf
0009f
000ac
fffa6
0027d
000ab
0000d
fffea
00043
000dd
0019a
00307
fff30
0023a
fffb1
00199
fffdf
ffffe
002da
fff64
000a4
002d0
00114
0001a
002cb
000e1
00045
fff86
fffa1
ffe88
00267
fffd3
002e2
fff40
00140
0022a
00270
001f2
00010
001ea
ffff1
0030a
00258
fff28
fff2d
0013d
002b4
002aa
00218
fff9d
0026e
ffed8
fff0d
001e7
0019a
fff0f
fffcb
0012f
fffac
fff61
000be
00272
001f9
0005e
000f8
002c3
00258
002b7
ffea3
0021d
000cd
001de
0019c
00261
fffc8
00029
0027a
fffa0
00047
fffd5
fff17
0019c
00003
0019c
ffead
00054
0014c
ffe37
00178
ffeca
ffd61
ffdda
ffe28
ffec3
fffb1
ffedd
000ff
fffdf
00133
0030c
fff00
00142
002f5
ffeed
001a6
ffebf
000b1
fff6e
00022
ffec9
000eb
fff91
ffd1b
ffa6c
ffa23
ffa68
ff955
ff505
ff985
ffb1f
ffbc2
ffedb
ffcd6
0017a
0003a
ffe76
002cd
fffe7
002be
002a9
00285
0001a
0026e
fff56
ffe19
fffac
ffe8b
fff78
ffe46
ffbfe
ff629
ff3ed
ff0cd
fee32
fe9c9
fe9f3
fe8e1
feb9a
feeb7
ff2d9
ff6a8
ffcab
ffad9
fff5b
00241
001cd
fff8a
0001a
00218
002de
00034
00077
0031b
003b2
00453
00683
009a9
007bc
0083b
0017b
ff966
ff224
ff18a
ff87d
ffb70
ffa96
ff970
ff868
ff481
ffbb0
ff7f1
ffa23
ffc13
ffeaf
ffea3
00051
001e8
002e4
00261
005a0
006d3
00623
008e3
00d95
0129a
00ebd
00a2b
00b33
00bee
0024b
001b2
00445
00c98
00e00
0097d
0079b
001db
ffde5
000fd
ffdbb
ffde1
fffe3
00180
fff70
ffe8a
00308
0012b
004c1
0099f
008ad
00b9e
014db
00e0a
009ac
00c4e
0107b
00faa
007e1
0049b
00665
00b1b
01113
00bb4
00a06
00800
00030
004d9
0041e
ffd10
ffe99
0019f
0027f
0014a
0026a
0033e
006da
0096e
00ab5
003ee
0053a
005ec
003eb
00999
00bc3
00eff
00c33
0117a
01583
013d1
0161e
00e70
00eb4
00c5e
00a51
004e2
ffe39
ffcff
ffe87
0014e
fff55
00080
002a2
002eb
00885
009c2
0081d
0017f
00271
ffcb8
fffe0
005f4
00a7b
0074b
010f9
015d6
01ad2
01e8a
016a2
011d3
0128a
01047
00dd7
0061e
ffd81
ffbde
ffe53
00050
fff60
00251
001a0
002f4
008ba
00a84
00537
001e5
001b3
0007d
00650
00341
0041b
006c9
006b9
006fe
01487
01aa8
011c3
011f0
00dcb
00d67
0086e
00616
ffde2
ff9d8
fffd4
00097
002b2
00210
fffda
00178
0057f
0062c
00104
00161
005df
00406
fffc4
ffb33
ff338
fe4fc
fd62f
fe0b3
000ae
011ae
0100b
00650
00245
0006c
ffdb0
ffde7
ffc38
ffd47
0028d
001cb
00006
0023c
00151
00269
004fd
001db
000cc
ffe5d
00113
fff3f
ffbe8
ff297
fe3ba
fce5e
fc88f
fe256
ffc1c
00906
005d2
00142
002a6
ffa91
ff90c
ffe5e
00083
ffeae
ffef2
0016a
ffea1
fff67
00131
00476
0058f
00386
00418
ffea5
ffd26
ff9b5
ff143
fea56
fde7d
fd50b
fdbc3
ff2b7
0004f
002c3
005b9
0106b
011a6
00a9e
006c8
006d2
005ea
00200
00098
fff0e
fff24
00171
00220
000c7
0021b
00219
ffa0e
ffd59
ffc51
ff02e
fecce
fe67c
fe2c3
fe027
fe887
ff24a
0006b
0017f
01655
01a25
0158c
01322
01076
00aa3
004ce
fffcd
ffeac
0005b
0024a
0016d
002d5
fffc4
002f9
00257
ffd56
ffc3c
fff75
ff344
ff1a0
fe8db
fe47d
feec1
ff65a
ff203
00732
008b4
012e5
01030
010f6
00d7f
00a47
00207
ffbc5
ffd60
ffe82
0019b
002cc
00017
0005c
001b8
fffe2
00091
ffe4d
ff76b
ff4b1
ff1cf
ff449
ff078
ff47a
ffc52
002e0
001a1
002dd
ffe4e
0048a
0040c
002e0
00187
ffda6
ffac7
ffda6
ffdf5
ffe65
fff23
fff39
fff36
fffbf
001f2
0009a
ffc86
ff7bc
ff258
feefe
ff036
ff138
fed03
ff978
ffe07
0003b
00557
ffa5c
ff913
ffc2c
ff748
ffaa6
ff705
ff233
ff5e8
ff9a0
ffafd
00085
fff73
0001e
002b4
002e6
002a7
00153
ffda7
ff540
feecb
fed8a
fed0b
feced
ff315
ff6b4
ffa70
00269
0078e
ff81d
ff84e
ff648
ff08e
ff15e
fedfa
fef5c
ff355
ff746
ffb93
ffe5c
002c6
ffebe
ffe8f
fff59
00124
fff89
ffd48
ff7b4
feeaa
fedeb
feef1
fef57
ff462
ff404
000de
00131
00402
ff56e
ff2ca
feebd
fe82d
ff0d6
feb1e
ff013
ff47b
ffb1a
ffcbb
00279
00259
00198
0023a
00255
00086
ffcf3
ffe74
ff89c
ff756
ff383
ff4bf
ff94f
ff67a
ff83d
ffc87
00079
ffdea
ff8e0
ff7cd
feef9
fef0a
fef02
fee1a
ff0d9
ff719
ff944
fffb4
0010a
0023f
fff84
000c2
0002d
00098
ffe1f
fff26
0011a
ffd4a
00158
00224
ffc94
ff97d
ff4e3
ff59d
ffbcf
0013e
0013a
ff98a
ff800
ff25f
ff261
ff0a5
ff28f
ff92d
ffdb1
0017c
ffe8c
000b6
0000c
0010d
0021f
ffe5d
ffe82
002d1
003c5
00832
00aef
00539
0010a
ffcc9
ff891
ff9ec
0006c
00442
003ed
ffe5d
ffd93
ff748
ff3d5
ff38d
ff648
ff7fc
ffac6
ffdb1
0002c
00027
fff24
ffffb
fffb7
000c8
001d3
003e9
008ff
00d9e
00f58
00d08
006b8
00e7b
0088d
0076b
00a72
0066e
00947
0057f
0044a
fffba
ffc00
ffbc0
ffad7
ffa2c
ffab2
000cf
fff95
ffe9d
00197
ffe95
0014c
00259
00233
00146
0047c
006a4
00a43
00fdd
00f7c
01255
0110f
00f34
00c0a
00c4c
00d08
00aec
00a35
0083a
002d3
ffc89
00078
ffe49
ffebe
fff99
000c9
0031c
00204
ffee6
00099
002f0
fff80
fff01
002bf
00033
00282
00264
00056
00373
00516
00177
0045d
0095c
00b8e
0091e
00bae
006a8
00325
0001b
00135
fffad
000ad
00023
fff37
fffd1
fff9c
ffe8d
0012f
000ce
0017a
00201
00132
00085
00037
00349
00204
00098
00209
000fc
003cc
00244
001bb
00548
001ca
00195
003aa
0006f
fff62
002fd
001a3
000c3
fff74
ffec7
001fd
