ffcc9
00013
ffe66
ffd59
ffe5b
ffd87
ffeeb
fff16
ffcb2
ffea8
ffcef
ffdf6
0009e
0008a
ffcde
ffedf
ffd17
ffd21
000d5
0003d
ffd9d
ffefa
ffde2
ffc80
ffcc9
ffec9
fffd8
fff1e
ffea3
ffe6b
000c7
fff33
ffcf3
ffcd9
ffcba
ffd85
ffd8e
ffedb
00008
ffd10
ffe1f
ffcf5
ffeeb
ffc80
fff12
ffd12
ffe07
ffd49
ffee4
ffd25
ffca8
ffc57
0002e
fff31
0003c
ffdcc
ffe70
ffc8e
ffce0
ffff9
ffcad
ffcf5
ffe46
ffec9
fffad
ffe1c
001cf
0017e
0049f
003af
0035f
00157
00489
0018c
00150
ffdb3
ffff0
ffeef
ffb4e
ffe59
fff80
00122
ffea7
ffe19
ffdb6
ffd66
fff42
ffd9d
000a6
ffd1a
ffef1
00001
000d3
0075c
00b85
00b71
00af3
0101b
008ca
003e6
00768
00365
ffccc
fff35
ffc5c
ffbbc
ffac9
ffd6a
00062
0013a
ffd1e
fff6b
ffd7a
ffe3f
000e2
ffc3c
ffcae
ffef1
001b5
001a5
004be
00e1a
00e3f
011e7
00f21
00c00
00ae7
004d1
00672
005f5
ffe37
ffcfe
ffdae
ff8ec
ff76e
ff7c4
ffef2
ffef1
ffc8e
fff5a
0004c
ffee2
ffd49
ffc5f
ffd05
ffd70
00194
006e4
0098e
0105c
0121f
012e7
01150
0136a
011f8
010ac
01215
00ea0
00a91
ffb89
ffbb1
ff8f6
ff8d8
ff4e7
ffb36
ffd47
00071
ffde2
ffe8e
ffd6a
00095
ffe9c
ffe2e
00127
006bd
00d0c
009f9
00b52
00f53
00996
00a2f
00d27
00b9e
00652
006ff
001cf
00156
ffbe5
ffd45
ff70b
ff71c
ff399
ff89d
ffbdc
00086
fff94
ffe16
00062
0006b
ffe41
0002d
0039f
008af
00c92
00a49
00999
003ab
00455
000bd
006bd
0084d
001bd
0011d
ff57c
ffc6f
ffd08
ffca2
ffc0f
ffd10
ff5cc
ff8ef
ffdd8
ffd48
ffcaf
fff3e
0007f
ffe96
00075
001e5
005e1
00440
00601
00614
006c3
006cb
007c1
0049c
00582
00e87
0082b
ffefe
ffc03
fffe6
00339
00013
ffdc6
ffa14
ff418
ff6dd
ffc31
ffe38
ffd13
ffd7d
fff63
fffdd
00186
002f5
00696
0024e
00072
ffdba
0038b
002c0
0038e
000ec
fffa2
0097b
00a40
00389
00045
fff0c
fffea
fff92
fffc5
ffc3d
ff5e0
ff75c
ffd30
00072
ffcbc
000a3
fff42
ffe80
ffde0
00073
ffe64
ffcb5
ff005
ff1b3
ff532
fef7d
fedb0
feab1
fe813
ff5f4
001d3
00296
0006f
00154
ffe0e
ffe96
ffe0d
ffafc
ff45a
ff99a
fffba
fffb5
ffd4f
ffcac
000d2
fffa9
ffcf1
ffa02
ff2e8
fe987
fe050
fe190
fdc27
fdc0c
fdf2f
fdd2b
fd58e
fdf59
ff062
ffa96
ffb58
ffb86
fff1b
ffd50
ffd32
ff895
ffaec
fff14
ffe3f
ffd39
fff3b
ffed9
fff0c
00055
ffe9a
ff98d
fec80
fda11
fd196
fd4b6
fd6f9
fda82
fdceb
fdd05
fdb9a
fe21a
fec10
ff251
ff3b6
ff9cf
00007
fffe1
ffc87
ff81b
ff3fe
ffe8a
ffe03
000e4
fff0c
ffd96
ffe6b
000d5
ffd81
ff58f
fe769
fd8fb
fdc2f
fde92
fe906
fefb7
ff860
ff3f0
ffa84
ff23a
ff1f2
fef54
ff3f7
ff95f
ffebb
ffe0e
ffbba
ff613
ff6f7
ffb6e
00125
ffe79
fffe6
00085
fff2c
00016
ffde6
ffc00
fef64
feafd
feedf
ff921
ffed1
00449
005ab
006ba
00a77
000b7
ff94d
ffb05
ff760
ffe8c
ffa74
ffe3f
ff99c
ff483
ff7a5
ffe5e
00411
0049d
ffd6f
ffe34
ffe95
ffe26
003cc
001d6
000d4
0047e
00543
009c7
006e9
00849
004df
00450
00a1c
000c0
003f8
00091
ff7fb
ff85f
ffb52
ffc97
ffad7
ff597
ffaa5
00333
00574
002f2
ffd15
ffdc6
ffc8a
ffc14
0040a
00878
00dd4
00e16
00862
0037a
0073b
006b7
00622
00ca3
00b20
00256
ffeac
ffff3
ffacb
ffb72
ff803
ffd29
0006f
001c2
003b6
00bcc
00e9d
00272
ffdb7
ffe1c
000ab
ffe87
004e5
00e77
01427
0126b
00c9e
008c8
00aa6
01060
00d6b
00f64
00733
003b6
00501
0050e
fff38
00347
ffde9
0060c
00673
004cb
006a4
012e7
01066
003be
0007f
fff93
fffc5
ffb05
00151
00fad
01a7d
018ea
011ef
00bf7
00d4d
01453
0125d
01d41
0155a
012a5
00913
0063f
00b78
00767
0050a
00d88
00dfb
00f3c
01422
018fc
00e68
ffe9e
ffd08
ffd78
ffda3
ffc86
ffff1
0089d
01017
01452
0119f
01044
01138
0107a
01180
01396
00f11
009c2
004a0
00730
00c7b
00607
005e4
00a0e
00c8c
01062
01192
00f25
007ef
000ac
0002f
ffcdd
fffc1
fff2a
ffbb0
007a5
00971
00ea8
01462
0135c
00cd4
00c55
014a5
00b7a
003cd
0028c
00320
0040c
0002f
008ed
00df0
00975
00d73
012bc
01040
00bb2
0058c
fffee
fff7c
ffec5
ffd01
fff76
ffe46
00199
0040f
00a2b
00b6c
00a11
00c91
00b1e
00aea
00449
0020a
ffee5
00079
0056e
005f3
00d08
00db6
00604
00d72
0109c
012eb
00953
003b2
000db
fff96
ffcd7
fff27
ffd46
000e6
00333
00128
006ec
00612
005a9
007f3
007e4
0095b
00103
ff89c
ff6b2
ffabb
ffb0a
003db
00c1e
00f77
00e10
00d74
00baf
00ce3
004ca
fff78
fff2f
ffdc2
fff3c
fff54
ffe9b
ffe60
ffe30
ffc67
ffb95
ffc2a
ff9b5
ffc4f
ffd88
0032e
0004b
ffb0c
ff94c
ff740
ff680
ffb0d
001f1
00c1c
00a99
00cfa
00950
0038f
00227
0015f
fffb2
ffe55
ffed0
ffd8b
fffe1
fff95
ffd66
ff939
ff2e8
ff636
ff5ed
ff53f
ff554
ff7d4
ff7c3
ffb87
ffa29
ff7ae
ff81a
ff9cf
ff86e
ffbe9
ffc62
ffc68
ffde6
ffe56
fffc0
0015a
ffd2c
ffd41
fffe2
ffc76
ffe33
ffdd6
ffd35
ffb3a
ff9a5
ff653
ff542
ff60a
ff6fb
ff484
ff84f
ff8c9
ff66e
ff81d
ffa25
ffa83
ffde7
ffafb
ffe32
ffe10
fffeb
ffd4b
ffefc
ffd5b
ffc90
ffd67
ffcb0
ffde8
ffe7b
00028
fff75
ffe57
fff55
fffe2
ffe45
00033
ffff0
0001d
00052
ffefc
ffdb4
ffc3e
ffe07
ffef4
ffec0
ffd53
00059
fffef
ffd5a
ffde9
ffca3
00027
0001c
fffd2
fffb8
ffd8e
ffcf5
ffecb
ffc98
000b5
000a3
ffe05
fffcb
ffd51
00077
ffc82
fffd1
ffe50
fff37
ffd08
ffec6
ffe2d
ffef5
ffeb3
fff9d
ffc5f
ffe70
0001f
ffc5f
ffea0
fff7b
ffe0f
