003fe
001e7
00220
000e0
00362
0034b
003a2
000e7
0032b
000f8
00303
0026e
00364
00486
003fb
002ba
002c5
000fa
004a5
0049f
002a3
00362
0029d
0040e
0018b
00449
0029d
003c7
0007d
00403
0012f
002db
0028d
00102
0016c
003c4
0039e
002f0
002e9
00224
00377
003e7
0050c
00283
00208
0040e
002bb
001da
00465
0043b
001bc
00489
004dc
00293
00423
00354
00415
00312
004e4
000f3
000e9
00338
00261
0024a
0018a
002b2
00011
0015b
0002d
0012f
0027b
003fc
00304
00001
002fb
001c9
003eb
001b3
00450
00323
00361
00094
003ac
003c2
00174
001a1
002c0
00242
00498
0026c
00088
00480
fff81
fff18
fff20
ffd80
fff1d
00055
001e0
003bf
ffe24
fff52
fffe8
ffd1d
fffb3
00130
002fe
002ed
fff77
00426
0018f
00462
00360
0020c
004a6
0049c
00084
000eb
0040f
00295
000fb
ffbc2
00064
0017c
0024f
00421
004d7
009e7
002b5
ffdeb
ffdbc
0018a
0057a
00623
0061c
00727
003be
001c6
0018d
001b5
0009d
003ff
000c8
002d0
000b4
002b2
000cf
ffef5
ff717
ff704
ffbe2
0000e
00360
003cd
0069a
00521
00309
ffb03
fff80
0010b
004e1
007da
00d11
00828
006ae
ffe48
001d8
00105
000da
002e6
00088
00242
00087
ffeab
ffb19
ffb28
ff4dc
ff289
ff791
ffe05
ffdf0
ffbc4
ffe0d
ff656
ff59b
ff587
ffb9f
ffcc3
004e6
00812
0077c
0064c
001a4
ffea9
0001c
0025c
001e9
00114
00156
0004d
0032a
fff53
ffb4c
ff661
ff0f7
fecdb
ff300
ffa52
ffacc
ff884
ff6c0
ff19f
ff371
ff437
ff561
fffa3
0023a
00162
00152
ffbf4
ffa7b
ffdcc
001cb
00218
00252
001f7
001ed
00418
0014f
fffde
ffa69
ff786
fee7a
fecfa
fede4
ff641
ffb87
ffa7f
ffb82
001f7
ff808
ffd4c
fff8d
00108
ffa02
ffa35
ff6b9
ff3d3
ff650
ffd9f
0039c
004c0
004cc
0011c
001f8
001ae
fffb2
fff78
ff8e1
ff942
ff3f1
fed9e
fef28
ff958
ffb07
003c7
00be5
01109
00650
fff8f
ffd27
ff472
ff1c9
ff1fa
fee56
ff0b1
ff7ca
000f4
003f6
002df
0045f
004d8
00402
00086
00345
ffc36
ff944
ffce1
ff6a5
ff683
ff912
ffb5e
ffce1
00980
01ebf
02076
00f6a
fffab
ff6c6
ff4e0
ff289
ff3db
ff48f
ff8e5
ffd9f
fff96
0041e
001b1
000d3
000be
00355
0038c
00003
ffeee
fff71
ffa27
ffc38
ffa2a
ff76a
ff308
ffe84
0103f
02511
02746
00e8c
ffcd2
ffd13
ff843
ff7cf
ff865
ff8f6
ffcb5
ffe9b
00343
00493
00337
00081
00460
00219
0016c
00479
fff25
ffea2
ffe0f
ffa6d
ff8b2
ff086
fea4a
fff4d
0107e
02ba2
01e43
005fe
0032c
ffe23
ff728
ffa6b
ffd4a
ffe7a
ffe1f
00049
00472
000ab
00320
00072
002f8
002c5
002f5
004ee
00008
0006a
ffdcb
ffd06
ff3d3
fe62d
fe5cd
00009
00dc2
023f5
01452
0055f
0029c
ff7cb
ff414
ffbac
ffe7a
ffe69
fff6d
00203
00301
00456
002ce
00230
004ae
002a2
003bf
003c3
ffffc
000a5
ffe90
ff7f2
ff22c
fe645
fec79
fff91
00df7
01eab
013c0
005e7
ff50b
ff128
ff4ba
ff955
ffe12
ffde7
ffe91
00357
00083
000ed
002aa
004f6
000d0
0032f
00204
00123
002e3
ffd30
ffccc
ffaec
ff0e0
fef0b
ffbba
00639
013a2
020d1
00b9b
00220
feb58
fedb2
ff4cc
ff942
ffb28
ffec7
0005e
001c0
0023d
0049e
000c5
004ce
00259
00464
002ad
0016b
ffe0d
ffb8b
ffb35
ff449
ff8fc
ffa6a
ffce6
fff37
019d2
01efb
001c7
ff669
fe9a7
fed83
ff419
ff6f5
ffc25
ffc16
0000c
ffe46
00045
0012d
0027e
001fe
004be
0010e
004ae
00375
ffd48
ff630
ff560
ff865
ffb22
0037e
0000a
00870
01d93
0195d
ffada
fee60
fe992
feda0
ff463
ffba2
ffdce
ffe6d
ffde4
ffc62
0010a
002c4
0033c
002ef
002b4
001a9
003e8
0022b
ffc20
ff589
ff59e
ffc1b
003fb
00349
00543
00db9
01617
00f46
ff5f5
fef80
ff1dd
ff3ee
ff7e9
ffc06
ff947
ffd04
ffb6b
ffd33
00289
00466
0047e
0049e
00341
00363
003c0
00070
ffa30
ff304
ff73d
ffc6c
00210
00109
000b8
001d2
00a2c
0023e
ff7b2
ff916
ff9fb
ff870
ffa23
ff76b
ff8d9
ffbaf
ffc33
00035
00175
0019a
000a3
000bc
004db
0029e
001ad
ffeb3
ffbdd
fff39
ffd27
fffee
00137
ffccf
ffeda
ffaca
ffe38
ffeb4
00055
004f2
001c7
ffe22
ff90d
ff777
ff819
ff9cb
ffe9a
000a8
003f7
00195
004e1
00378
001d3
002d6
00365
002b2
00747
005fc
002d1
00078
ffdee
00016
ffbcd
ff676
ff51d
fff05
00345
00539
005f3
0041a
ff917
ff934
ff83e
ffaaa
ffcec
000b1
0021c
0006a
00099
002b2
002c0
00319
000a2
0064e
00e14
00e94
008cd
00132
fff06
ffca9
ff21b
fe971
feec1
0000d
00361
00ced
01532
00946
001ef
ffb3a
ffc48
fffab
000a1
0004c
0020e
004b1
00242
0045d
002bb
0037e
001f1
005a1
00c1b
00ce6
005eb
001a1
ffcff
ffdf4
ff824
ffa84
ffb1a
ff973
00290
00f09
01223
00826
ffe8d
ffc89
ffaa4
ffe27
ffe4c
00111
0008a
00101
0007f
00110
000ac
001c5
0008e
002bf
0055a
00587
ffe38
ff7fb
ff7f1
ff1d5
ff26f
ff3d4
ff593
ff59f
ff599
ffcfe
00142
0024c
00354
002ca
000ac
00172
003dd
0012c
001e7
003aa
00136
004bd
00182
001cf
0028f
003a8
00356
0000d
ffdee
fff2e
ffe18
ff814
ff65b
ff8df
ff601
ff9e4
ff843
ffb8c
fff32
0018a
00332
0004e
002e8
001ba
00425
0010b
0013c
001c6
00187
001be
0035b
002fc
000ea
0033b
0044c
002ea
002b0
003d6
00340
00074
002a5
00268
00164
fffeb
00140
002d1
0045c
00337
00083
002fd
002ce
002ad
00146
00120
0033e
0046e
00399
0039e
00493
000b9
00288
004cd
003d1
00453
003fe
00454
0020b
003ca
003f0
00065
000d3
004b6
00312
002d4
00069
0020e
000e7
000d7
0018a
002c7
003ff
0046f
00454
00443
0016c
