fff4a
00174
ffe5c
fffe0
ffff2
fffc7
000c3
0024e
ffe7d
ffeff
fff0f
ffe8e
000bf
0021b
0012f
ffe13
fffbc
0024e
00064
fffcc
ffe3a
ffed1
0008b
00205
00117
00154
ffe33
ffe46
0017b
0012d
0017e
fff9f
ffdfb
ffecb
00108
0035b
00246
000af
002c0
002f0
00321
002f3
001db
001fc
ffde1
001e4
00290
00176
fff96
ffeb2
002b9
0020e
fff28
0024b
fff9b
001b2
ffeaa
ffe64
ffdfa
fffcd
00124
000b4
0012a
00348
00255
004f9
00641
00711
00715
00771
003c6
002ad
00636
002be
002aa
002eb
002db
00172
001e7
0005b
0010c
fff67
ffde5
000a5
ffe37
00036
001af
000f9
00236
ffe14
00266
002a1
00320
00656
0059d
00708
006dc
0069a
009b7
0092a
005b2
00731
00b8e
00b86
00c4b
00ae3
00b06
00667
005af
00164
fff06
00142
00055
fff95
fffda
001f4
001ae
0009d
0009f
003ed
fff90
fff2e
003cc
0016e
001c3
000a3
0017f
00240
007b4
007a0
00bf2
00c25
00f53
01100
00ea0
009d2
00164
0029b
0005d
00000
00065
00130
000ad
fff19
ffe61
fffd2
ffea4
ffd4f
00204
ffd67
000f0
ff715
ffb47
ffcbd
ffecd
ffbca
ffbca
000d0
005bb
00abe
00952
00855
00693
00482
fff7a
0003a
ffdbc
00224
fffb5
001ed
001cc
ffdae
000d2
fffa2
000be
0000e
ffcb0
ffbf6
ff5ba
ff292
ff832
ff0b0
ff93f
ffb0a
ff8f0
ff9c2
ffe44
ffbd0
ff937
ff988
ff5f1
ff970
ffa8f
ffa43
fff25
001df
000be
0011c
00011
fffa2
00020
ffe02
ffbf7
fff5a
ffa46
ff8e3
ff5a6
ff7dd
ff161
fef9e
ff769
ff7da
ff33a
ff3e9
ff102
feba9
feb3e
feea3
fedd7
ff1a8
ffa84
ffb0a
ffe0b
ffe81
fff47
fff63
00232
ffd32
ffdab
ffce5
ff834
ffe4a
ffd1f
ff7d9
ff67a
ff516
ff2dc
ff0c3
ff127
ff024
fed32
fea57
fe164
fe382
fe686
fe6c5
fee5e
ff079
ff64f
ff9e5
ffb9e
000a6
fffaf
ffe4b
fff05
ffe0f
0000f
ffe36
ffd48
ffe6d
001dd
ffb14
ff6b1
ff8dd
ffb67
ff754
ff80f
feea0
febc2
fe2ac
fe0b8
fe674
feb0c
fef55
fecb2
ff397
ff689
ff8fa
ffd1c
00185
ffe88
001eb
0014c
ffdc0
ffcba
000d5
002b3
00298
00980
fffce
001e4
000c9
ffa41
ffc18
ff76d
fee04
fedb7
fea8f
fe9ad
fee2c
ff3e6
ff755
ff498
ffece
ff895
ffad8
ffe78
fff42
ffecf
000c7
ffeb1
fffd0
ffeb4
00057
fff4c
007f3
005b0
002bc
00370
0026f
00270
00064
ffbdc
ff1bd
ff29f
ff49d
ff491
ff719
ffbd8
0019a
00575
0087d
ffffb
ffb7c
ffe1d
fff4f
ffecd
fff5c
ffe0d
fff12
00122
003b8
005af
00774
00375
004d7
0036b
008fb
008a5
0062f
ffab3
ff66e
fff99
fff1e
ff6a2
ff706
ffee3
00512
00c40
015bc
00bb1
ffcaa
ffc2c
ffed8
ffedd
00205
0018b
ffdce
ffd00
00136
0096f
00513
0045d
00228
00928
007a4
00702
0013d
ffeb4
fffc7
000b6
ffdf1
ff7d8
ffeed
ffc14
00685
010f6
01adf
00e84
ffed7
0000b
00151
fff09
00036
00186
00014
ffcd3
00361
008a6
00774
00a43
0099c
00a67
00b43
003cb
ffa82
0005d
00497
0022c
ffc6e
ffc88
fff80
0075c
00747
01334
01659
00ea7
fffcc
ffbce
ffdef
00192
fff34
0004e
ffe45
ff9f0
fff3c
00905
00bfd
007b8
00c1e
00f45
012a2
004de
ffea6
00730
0069d
00106
ffc9d
000af
003b6
0089c
00bd1
00adc
00d75
0072e
ffc51
ffdb6
ffda8
0006b
ffe4a
ffe39
ffe09
ff7fd
ffba7
00d5c
00da7
00908
00df0
017a3
01772
00726
00440
00a30
00560
ffd30
ffa6d
001ed
005f4
002c5
00015
00590
00355
ffe62
ffbab
ffd58
fffa3
00065
00151
001d1
fffae
ff492
ffa06
00596
00a9e
00c14
00f3c
01a4b
01ab9
00dce
007c6
007df
004f8
fffff
00170
00af3
003c8
00191
ffd35
00281
fff77
ffce3
ff9f1
fff22
000fd
fff1b
ffec4
ffff7
ffcaa
ff547
ff588
ffaee
0074d
00bb3
00aa2
0126a
016b6
01ac3
00c6e
0035d
006eb
00bf1
007bf
009a6
00514
000a7
001b2
001e0
ffef1
ffc2e
ffd2f
ffdd2
ffdae
00093
ffe61
00106
ffbc4
ff90e
ff4dc
ff759
0009d
00798
00bee
00fe3
01952
01c7d
00eb0
00d1f
00db7
009c4
00807
00c86
00887
00585
00130
ffe01
ffd89
ffd6b
fff96
ffec3
001d3
ffee1
ffe5f
fff6e
ffe15
ff71d
ff560
ff6cd
ffc3e
00283
007fc
00d27
008c4
01142
014b1
01890
014e9
00b56
00740
00e14
009ed
006bc
ffe9e
ffac8
00057
ffebd
fff5f
ffe6b
00055
fffcc
00035
000aa
fff52
ffca2
ff8af
ff393
ffa60
ffca1
00603
00aea
00f86
013f8
01447
01105
00eac
00928
00c86
00bac
00776
000fe
ffc0c
ffa76
ffcc8
00030
ffdea
fff8d
ffed8
ffed5
fffcd
001fe
0008a
ffed3
ff9a0
ff86e
ff5d8
ff93a
ffced
ffd79
0013a
005d6
00287
00221
0064d
004b1
0000a
ffe6e
ff8f5
ff939
ffa5d
ffabb
fff7e
fff14
ffe09
00226
000d4
001ba
fff52
fff09
00033
0009b
ffd5e
ffbe1
ff6f5
ff491
fef8d
fefa2
fecec
ff43e
ff6bd
ff8c7
ff543
ff1e3
fefff
ff363
ffa3f
ffa25
ffae0
ffe2c
00041
ffdde
ffe3d
fff3f
fffc8
0013d
000ff
000ae
ffdf9
ffe63
fff3e
ffe0e
ffcd9
ffd82
ffc04
ffa07
ff871
ff736
ff766
ff5f6
ff5f8
ff583
ff7ff
ffd39
ffd6b
fff19
ffe93
0010f
fff89
ffde8
fff57
ffe71
ffe7b
001f4
ffe2e
00089
fff12
ffe93
fffbb
0014d
fffe6
ffdc8
000ce
ffdd6
fffab
0001c
ffdb5
ffebd
fff3a
fffcb
ffe01
ffed5
ffdcb
ffe43
00046
fff2a
00196
0023f
001fc
00017
0017d
0021b
fffe7
00063
fff99
ffed0
001c7
00156
ffed9
fff50
00101
fff2b
00071
fff20
0014f
00160
ffe38
ffea5
001cd
0016a
fff4f
00144
fff85
fff7f
000ca
000e7
fff8f
ffef1
fff65
00209
fffe6
00126
ffed5
000b6
ffff1
001ea
00046
fffbf
ffdbf
ffe7a
000b2
ffdf7
ffe4c
ffeb6
ffdec
ffe97
fff4e
ffe23
ffe98
ffec9
fff02
001e2
ffe29
ffecd
ffe38
ffec0
00059
