7ff6
7fe7
7fff
0001
0003
7ffe
7ff7
0003
7fec
0002
0002
7fef
7fee
7fee
7fef
7ff2
0000
0001
7fe7
0003
7ff8
7ff9
7fdf
7ffe
7fff
7fe1
7ff1
0001
7fe6
7ff0
7fe7
7ff7
7fe3
7ff2
0003
0002
7fe1
7fe0
7fe3
7ff6
7ff9
7ff1
7fef
7fe9
0003
7fe7
7ffa
7fed
7fed
7fe2
7ff3
7ffd
7fe5
7ffe
7ff5
7fe5
7fe9
7ff3
7ff2
7fe7
7ff8
7ffb
7feb
7ffa
7ffd
7ff1
7fe4
7fe5
7fe2
7fe6
7fef
7fed
7feb
7fea
7ffa
7fff
7ff1
7fe7
0003
7ffe
0000
7fec
7fe1
7ff1
0003
7ffa
7ff2
7ffc
7ffa
0000
7ff7
7ffe
7ffc
7ff4
000b
0025
004e
0041
0042
0049
0033
0039
002d
0003
7ffc
7fc9
7fe0
7ffd
0002
7fe8
7ff5
7feb
7ff5
7ffe
7ff7
0001
000c
0000
002e
0027
006a
005b
0071
0088
009d
00a9
0098
006f
003f
0032
0052
000a
7fc8
7fa9
7fb5
7fb7
7ff7
7ff3
7fed
7ffb
7fe4
7fe0
7fe8
7fe8
0006
0030
0057
0046
0050
0046
0040
0053
0054
0065
0011
0043
004e
7ffa
7ffc
7fdd
7fcf
7f98
7f7b
7f8f
7fdf
0000
7fea
7ff2
7fe7
7fed
7fea
000a
003b
006e
0054
0040
0062
0050
0047
0044
005b
0082
005a
0021
0056
004f
004b
7fde
0020
7fe0
7f8e
7f8e
7fba
7ff2
7ffd
7ff5
0001
7ffc
0007
0031
0082
0081
005b
001a
001b
003a
0012
001a
004c
0048
0078
0046
0016
003c
0032
0036
0037
0008
7fc9
7f80
7fa4
7fe8
7fe1
7fef
7ff4
7fed
0005
002e
006b
0066
004c
001f
0034
0019
0041
0015
0012
0020
0082
006c
0019
003c
0056
0038
0052
002a
7fea
7f89
7fa7
7fe0
7fe4
7fec
7ff0
7fe1
7ff6
0014
0037
0049
003d
000f
7ff8
7fc7
7f94
7f3a
7f5f
7feb
009b
00ee
0089
0050
0057
0051
0079
004d
7fe9
7f8a
7fc5
7fdf
7fe7
7feb
7ffd
7ffb
0002
001e
001b
000b
7fdd
7fa8
7f60
7f1b
7ee7
7ee0
7f2c
7fca
007f
0093
007d
0074
0048
007d
0074
002e
7fd6
7fb3
7fe3
7fe0
7ff2
7ffd
0004
7ffd
7fe5
001d
7fef
7fa6
7f79
7f3a
7f08
7f2a
7f5d
7fb3
7fd6
0036
0054
0055
0027
0058
006d
006a
005d
0000
7fd7
7fde
7fe2
7fee
7fe7
7fe4
0001
7feb
7ffb
7ffe
7fdf
7fa6
7f62
7f3a
7f4d
7fa1
0002
0010
0019
0039
008d
0049
0032
0047
0039
7ffb
7fb7
7f9b
7f97
7fbd
7ff4
7fec
7ff5
7ff8
7ff2
7fea
7ff3
7ff7
7fd6
7fc2
7f80
7f6c
7f9b
7fec
7fdf
7fab
0007
007a
007b
0016
0038
003b
0020
7fd6
7f90
7f8f
7fa7
7fc1
7fdc
7fff
7ff9
7fed
0003
7fe8
7ff0
7ff6
7ff8
7fcc
7f8c
7f97
7fb9
7ff6
7fb5
7fb0
0017
003b
003f
7ff7
7fe6
7fed
0009
7fcf
7fbe
7fe0
7fd3
7fe1
7fd8
7fdc
0001
0002
0003
7fe8
0004
0009
7ff6
7fc6
7f94
7f8d
7faa
7fce
7fc8
7fed
0017
0060
0037
7ffb
7fb0
7fe9
7ff8
0015
0032
0030
0011
0006
7fe2
7ff9
7ff6
7fe8
7ff7
7ffb
0016
0004
0010
7fe5
7fd4
7fb4
7f5a
7f52
7f65
7fd9
002e
0077
7ff3
7fa9
7fa4
7fe2
0027
0066
0048
005a
0058
0027
7ff5
7ff8
7fff
7ffd
7ffc
0004
0000
0038
001f
000a
7fe2
7f9c
7f4d
7ee4
7e9f
7ebe
7f0b
7f75
7f7f
7f8d
7ffb
0024
0041
0067
0015
007d
007d
0026
7fee
7fe5
7fe8
7fea
7ff2
7ff3
000b
0053
003b
0024
0013
7fea
7fc0
7f30
7ece
7edf
7ea3
7ee3
7f4c
7fd7
0049
0062
006a
0069
0049
0092
0088
0034
7fd0
7fe0
7fe8
7ffc
7ffc
7fe8
7ff1
0068
006a
007c
006b
0027
000c
7fd4
7fe1
7f9d
7f70
7f67
7f98
0025
0063
007b
008a
007b
006d
0080
0031
0006
7fd7
7ff9
7ffc
7ff7
7ffb
7fe1
0013
006f
0089
0094
009c
004f
005d
0069
0027
7ff5
7fdd
7fca
0010
001d
0038
0063
0068
0047
007b
0046
7ff3
7fe4
7fe0
7ff6
7ff6
7ff5
7feb
7fff
7ff8
0037
0084
0084
0073
0041
0045
0017
7ff7
7fe1
000a
7ffa
7ff8
7ff1
0020
000c
003f
0066
003b
0017
7fe9
7fc5
7fed
7fe8
7fe0
7fe2
7ff3
7ff7
7ffa
0022
0042
005a
0050
002e
0004
0021
0028
0031
000d
7fee
7fed
7fe5
0015
0010
0010
0046
0022
7ff4
7ff0
7feb
7fd3
7fde
7ffa
7fff
7ff7
7fe7
7feb
0017
0048
006d
0051
0056
0015
0037
0023
7fff
7fe4
0004
000b
001c
0014
002b
0044
7ff5
7fd3
7fd3
7fe8
7fe2
7ffd
7ff8
7fe4
7fe6
7fec
0003
0003
0000
002e
004b
0058
0068
006a
0057
007e
0085
0089
006c
005f
0046
0043
7ffa
7fca
7fb5
7fbc
7fd7
7fd9
7ff5
7fed
0000
7fec
0004
7ffd
7fe0
0002
0005
7ff8
001d
002c
0019
003b
003c
0070
0080
0089
006c
004c
001f
7ff4
7fd0
7fcf
7fd8
7fd8
7fec
7fec
7ffe
7fe8
0003
7fe0
7ffc
7fe9
7fdf
7fe1
7ff8
7ff8
7fea
7fe7
7ff7
7ff8
7ff6
7ff1
7ff4
7fee
7ff6
7fee
7fdd
7fea
7ff6
7ff2
7ff7
7fe1
7fe2
7ffb
7fef
0001
7fe8
7ffd
0004
7ff0
7fe8
7ff5
7fe1
0002
7ff8
7ffe
7ff6
7ffb
7fe1
7fe7
7ff9
7fe6
7ffb
7fed
7ff5
7fee
7fff
7fe3
7fe8
7ffe
7ff5
7fe7
7ff8
7fe3
7fe1
7ffe
7ff1
