0020
000f
0011
0007
001b
001a
001d
0007
0019
0008
0018
0013
001b
0024
0020
0016
0016
0008
0025
0025
0015
001b
0015
0020
000c
0022
0015
001e
0004
0020
0009
0017
0014
0008
000b
001e
001d
0018
0017
0011
001c
001f
0028
0014
0010
0020
0016
000f
0023
0022
000e
0024
0027
0015
0021
001b
0021
0019
0027
0008
0007
001a
0013
0012
000c
0016
0001
000b
0001
0009
0014
0020
0018
0000
0018
000e
001f
000e
0022
0019
001b
0005
001d
001e
000c
000d
0016
0012
0025
0013
0004
0024
7ffc
7ff9
7ff9
7fec
7ff9
0003
000f
001e
7ff1
7ffb
7fff
7fe9
7ffe
000a
0018
0017
7ffc
0021
000c
0023
001b
0010
0025
0025
0004
0007
0020
0015
0008
7fde
0003
000c
0012
0021
0027
004f
0016
7fef
7fee
000c
002c
0031
0031
0039
001e
000e
000c
000e
0005
0020
0006
0016
0006
0016
0006
7ff8
7fb9
7fb8
7fdf
0000
001b
001e
0035
0029
0018
7fd8
7ffc
0008
0027
003f
0069
0041
0035
7ff2
000f
0008
0007
0017
0004
0012
0004
7ff5
7fd9
7fd9
7fa7
7f94
7fbd
7ff0
7ff0
7fde
7ff0
7fb3
7fad
7fac
7fdd
7fe6
0027
0041
003c
0032
000d
7ff5
0001
0013
000f
0009
000b
0002
0019
7ffb
7fda
7fb3
7f88
7f67
7f98
7fd3
7fd6
7fc4
7fb6
7f8d
7f9c
7fa2
7fab
7ffd
0012
000b
000b
7fe0
7fd4
7fee
000e
0011
0013
0010
000f
0021
000a
7fff
7fd3
7fbc
7f74
7f68
7f6f
7fb2
7fdc
7fd4
7fdc
0010
7fc0
7fea
7ffc
0008
7fd0
7fd2
7fb6
7f9f
7fb3
7fed
001d
0026
0026
0009
0010
000d
7ffe
7ffc
7fc7
7fca
7fa0
7f6d
7f79
7fcb
7fd8
001e
005f
0088
0033
7ffc
7fe9
7fa4
7f8e
7f90
7f73
7f86
7fbe
0008
0020
0017
0023
0027
0020
0004
001a
7fe2
7fca
7fe7
7fb5
7fb4
7fc9
7fdb
7fe7
004c
00f6
0104
007b
7ffd
7fb6
7fa7
7f94
7f9f
7fa4
7fc7
7fed
7ffd
0021
000e
0007
0006
001b
001c
0000
7ff7
7ffc
7fd1
7fe2
7fd1
7fbb
7f98
7ff4
0082
0129
013a
0074
7fe7
7fe9
7fc2
7fbe
7fc3
7fc8
7fe6
7ff5
001a
0025
001a
0004
0023
0011
000b
0024
7ff9
7ff5
7ff0
7fd3
7fc6
7f84
7f52
7ffa
0084
015d
00f2
0030
0019
7ff1
7fb9
7fd3
7fea
7ff4
7ff1
0002
0024
0005
0019
0004
0018
0016
0018
0027
0000
0003
7fee
7fe8
7f9f
7f31
7f2e
0000
006e
0120
00a3
002b
0015
7fbe
7fa1
7fdd
7ff4
7ff3
7ffb
0010
0018
0023
0016
0012
0025
0015
001e
001e
0000
0005
7ff4
7fc0
7f91
7f32
7f64
7ffd
0070
00f5
009e
002f
7fa8
7f89
7fa6
7fcb
7ff1
7fef
7ff5
001b
0004
0007
0015
0028
0007
0019
0010
0009
0017
7fe9
7fe6
7fd7
7f87
7f78
7fde
0032
009d
0107
005d
0011
7f5b
7f6e
7fa6
7fca
7fd9
7ff6
0003
000e
0012
0025
0006
0026
0013
0023
0015
000b
7ff0
7fdc
7fda
7fa2
7fc8
7fd3
7fe7
7ffa
00cf
00f8
000e
7fb3
7f4d
7f6c
7fa1
7fb8
7fe1
7fe1
0000
7ff2
0002
0009
0014
0010
0026
0008
0025
001c
7fea
7fb2
7fab
7fc3
7fd9
001c
0000
0043
00ed
00cb
7fd7
7f73
7f4d
7f6d
7fa3
7fdd
7fee
7ff3
7fef
7fe3
0008
0016
001a
0017
0016
000d
001f
0011
7fe1
7fac
7fad
7fe1
0020
001a
002a
006e
00b1
007a
7fb0
7f7c
7f8f
7f9f
7fbf
7fe0
7fca
7fe8
7fdb
7fea
0014
0023
0024
0025
001a
001b
001e
0003
7fd1
7f98
7fba
7fe3
0010
0008
0006
000f
0051
0012
7fbe
7fc9
7fd0
7fc4
7fd1
7fbb
7fc7
7fdd
7fe2
0002
000c
000d
0005
0006
0027
0015
000d
7ff6
7fdf
7ffa
7fe9
7fff
000a
7fe6
7ff7
7fd6
7ff2
7ff6
0003
0028
000e
7ff1
7fc8
7fbc
7fc1
7fce
7ff5
0005
0020
000d
0027
001c
000f
0017
001b
0016
003a
0030
0017
0004
7fef
0001
7fde
7fb4
7fa9
7ff8
001a
002a
0030
0021
7fc9
7fca
7fc2
7fd5
7fe7
0006
0011
0003
0005
0016
0016
0019
0005
0032
0071
0075
0046
000a
7ff8
7fe5
7f91
7f4c
7f76
0000
001b
0067
00aa
004a
000f
7fda
7fe2
7ffd
0005
0002
0010
0026
0012
0023
0016
001c
0010
002d
0061
0067
002f
000d
7fe8
7ff0
7fc1
7fd4
7fd9
7fcc
0015
0078
0091
0041
7ff4
7fe4
7fd5
7ff1
7ff2
0009
0004
0008
0004
0008
0005
000e
0004
0016
002b
002c
7ff2
7fc0
7fc0
7f8f
7f93
7f9f
7fad
7fad
7fad
7fe8
000a
0012
001b
0016
0005
000c
001f
0009
000f
001d
000a
0026
000c
000e
0014
001d
001b
0000
7fef
7ff9
7ff1
7fc1
7fb3
7fc7
7fb0
7fcf
7fc2
7fdc
7ffa
000c
001a
0002
0017
000e
0021
0008
000a
000e
000c
000e
001b
0018
0007
001a
0022
0017
0015
001f
001a
0004
0015
0013
000b
7fff
000a
0017
0023
001a
0004
0018
0016
0015
000a
0009
001a
0023
001d
001d
0025
0006
0014
0026
001f
0023
0020
0023
0010
001e
0020
0003
0007
0026
0019
0017
0003
0010
0007
0007
000c
0016
0020
0023
0023
0022
000b
