0012
0010
7ffb
000b
000a
0011
7ffa
0003
0013
7ff8
7ffe
0008
0018
0010
7ff6
7ffb
7ffb
0009
0011
0001
0002
7fff
7ff8
0003
0014
0006
7ff7
000a
0010
000e
0007
7ffc
7ff7
7ff8
7ffe
0018
7ff7
0014
0008
000c
0009
000e
0000
7ff5
7ffb
000f
7fff
0004
0013
7fff
0003
0002
000a
0014
0000
0004
0015
0016
0002
000f
0012
7fff
7ffe
0007
0012
7ffd
7ffa
000e
0008
0011
7ff6
0012
7ff9
7ff9
0002
7ff7
0015
7ffa
7ff8
0015
0004
0004
0005
0009
001a
0001
7ffe
0008
0008
7ff7
0015
000c
7ffc
0016
0007
0011
7ffe
7fed
7ffe
7fe2
7ffc
7ff1
0005
0003
0007
7ffe
0011
7ffe
7ffd
0017
0009
000f
0003
0005
0001
7ffb
7ff8
000f
000a
7ffe
7ff3
0005
7fea
7fe1
7fd5
7fb1
7f9c
7f7a
7f9d
7f9d
7fb6
7fe0
7ff1
7ff5
0004
0013
000f
000e
0000
0001
0012
000d
000f
000a
000b
7ff2
7ff3
7ff2
7fd3
7fd3
7fd0
7fc1
7fb1
7fa2
7f71
7f65
7f3c
7f7f
7faf
7fd9
7fd6
7fca
7fce
7fdc
7ff2
7ff9
0002
000d
0010
0011
7ff6
0011
000b
7fd0
7fc5
7fbb
7fb2
7fa0
7fba
7fe9
0006
0057
0081
0067
0048
003c
004c
7ff3
7fee
7fc6
7f99
7fa0
7fc9
7fe5
7ffc
0009
0019
7fff
7ff8
7ff7
7fc9
7fac
7f9d
7f8a
7f91
7fd9
7ffd
001f
0075
008c
00c0
00c1
00c9
005b
0045
0007
0012
0014
7fbb
7f84
7fb7
7fee
7fed
0010
0018
0018
000c
7ff9
7fc6
7fa9
7f9b
7f72
7fdb
7fef
7fec
7fd8
7ffd
0038
00a5
005b
005c
0013
0007
0005
7fe2
0010
7fd9
7f9d
7fad
7fd8
7fef
0017
0007
0004
0002
7fd7
7fa6
7fbb
7fed
7fd9
7fe9
7ff5
002a
0019
0007
0044
0072
0065
7ffc
7fe3
0001
7fc3
7fe6
7fc0
7fbc
7fb7
7fcf
7fea
7ff0
0014
0004
7fff
7ff6
7ff0
7fbb
7fdc
0022
002c
005a
0059
004d
0073
003a
000e
000f
7fc6
7fdd
7ff9
0029
7fff
0021
7fec
7fd8
7fda
7fd0
7ff2
7fee
000b
7ffc
0005
7ff6
7ff9
7fed
0040
0093
006e
00ad
0045
0048
007b
7fd9
7fdf
7fee
0009
0030
00a7
004f
0050
0083
005f
0037
000b
7ff7
7fe9
7fff
0000
000a
0015
7ff1
7fe8
0036
008c
00a1
0060
0078
0092
005d
0001
7fa2
0051
00af
008b
0077
00b5
00b7
00be
00c3
0082
003f
0002
7fe3
0005
000b
000b
0018
000f
7fec
0008
0051
007a
0073
004c
005f
003d
0037
7fe4
7fcf
0080
00af
007f
0092
0083
00b4
00b7
008f
0054
0005
7fc7
7fdf
7ff6
000b
000b
0005
0002
0011
000b
0025
0023
005f
0043
0020
0000
000c
7ffa
7fdc
0029
0018
0070
0077
0077
0051
0034
0041
0001
7fbe
7fa1
7fd9
0007
0004
0004
0012
0011
000b
7ff3
0003
002a
0029
001b
001b
7fce
7fe9
7fe8
7fdd
7fe5
7fdf
007a
00b3
00ac
0056
0008
7fdb
7f9e
7f85
7fa8
7fd9
0001
000a
7fff
0015
0002
7ff1
7ffc
0001
000d
7fdf
001a
004a
7fef
002a
003b
7ff8
7fbd
7ff5
0044
007a
0079
001e
7fbb
7f8d
7f62
7f91
7fa6
7fc4
0002
7ff3
000b
0007
7ffb
7ff0
7fe8
7fd3
7fc9
7fd3
0014
0028
002d
0045
0064
003d
001c
0027
0064
001e
7fec
7fd4
7f9b
7f9c
7f94
7f9b
7fb6
7fca
0005
0006
7ffb
0013
0000
7ff5
7ffb
7fd8
7fa5
7fa3
7fa5
7fda
000f
006e
0059
7fca
7fc9
0003
0042
7fd8
7fd2
7faa
7fcc
7fcf
7fb4
7fb0
7fac
7fc5
7ff7
0001
0012
000d
0019
0004
7fea
7fdc
7fc0
7f9a
7f98
7f94
7f95
7f88
7f9b
7f7d
7fa4
7fb3
7fa8
7fb4
7fe7
7fc6
7ff0
7fd9
7fd2
7fd5
7fda
7fe8
0007
7ff8
0003
7ffb
0004
000b
0001
7fda
7fc2
7fa2
7f6c
7f57
7f42
7eff
7f3c
7f41
7fc1
7fa8
7fd7
7fcf
7ff3
7fac
7fe4
7fdf
7fca
7ff1
7fe6
0003
0015
000d
0004
0002
0000
0015
7fe9
7fe7
7fc3
7faa
7f7b
7f68
7f59
7f51
7f63
7f9c
7f9d
7f9c
7fc6
7fc2
7fa2
7f8f
7fd0
7fe5
7ff1
0008
7ffe
000a
000d
0001
0002
0010
0004
0005
0010
7ff6
7fcf
7fb1
7f94
7fb0
7fac
7fa5
7fc2
7fbb
7fa4
7fb2
7f93
7f88
7f8a
7f9e
7fa9
7fe8
001d
0010
0014
0021
0007
0008
000c
0013
000f
0006
7ff8
7ff2
7fd5
7fcf
7fbf
7ffb
7fe6
7feb
7fb1
7fbf
7faf
7fbb
7f8a
7f81
7f90
7fba
7ff9
001b
003f
005b
004c
0024
7ffe
001a
7ffd
0000
7ff6
7ffd
0016
0010
0018
0012
001a
0024
0014
7ff3
7fd7
7ffd
7fc2
7fb1
7fad
7fda
001b
002f
0030
006e
0077
0044
002a
0021
7ffa
000f
7fff
0005
0015
0015
7ffe
0002
0025
001c
0050
0058
0059
004d
001f
0051
0049
0046
0041
007a
0085
0092
0098
00aa
0079
002f
0016
7ffd
7ffe
0006
0005
0001
0014
0005
7ff9
0014
001e
002b
003b
0043
0066
006a
0077
008c
008e
00ad
0064
0045
003a
0055
005c
0043
002f
0013
0007
0004
0008
7ff9
0004
7ffb
0009
7ff8
0018
000e
0008
7ffd
0017
0013
000d
7ffc
7ffb
0005
7ffc
0005
000f
0001
0008
001a
0017
000d
0008
7ff9
001a
000e
7ffb
0002
7ffd
