7fee
7ffd
7ffd
7fe8
7ff5
7ff2
0000
7ff1
7ffa
0005
7ffa
7ff9
7fee
7fff
7fe8
7fec
7fe5
7fea
7ffd
7ffa
7fe4
7ff5
7ff8
7ff2
7fe6
7ff6
7ff8
7fef
7ffe
7fe3
0000
7fe7
7fff
7ff0
7ff8
7fef
7feb
7ff8
0003
7fe8
7fef
7fea
7fe4
7ffb
7fed
7fea
7fee
7fec
7ffa
7fe7
0000
7fe8
0000
7ffe
7fe9
7ff3
7ff4
7ffb
7fef
7fe4
7fe9
7ff6
7fff
7ff8
7fec
7ff1
0004
7fe2
7fff
7feb
7fe5
7fea
7fee
7ff6
7ff1
7ff1
0007
0001
0003
7feb
7fe4
7ff2
7ffe
7ff8
7ffb
7ff8
7fe9
7fff
7fe7
7ff0
7fe2
7fed
7fe4
7fec
7fd0
7fc3
7fdd
7fdf
7fd8
7ff3
7ffa
7fe0
7fed
7ffa
7ffc
7ff3
7fe0
7fea
7fd9
0004
0003
7fe7
7fe5
7fef
0003
0001
0004
7fed
7feb
7fd5
7fb7
7f9f
7f73
7fa6
7fa5
7f86
7fbd
0000
7ff8
0017
7ff9
7fdd
7fd3
7fe8
7fec
7ff2
7fef
0006
0004
7ff3
7ff6
0006
7fea
7fe7
7fed
7fd4
7fbd
7fc0
7fd6
7ff8
000e
000f
7fe9
7fdf
7fec
7ff7
0021
0021
003f
0027
0026
0031
005b
004d
0036
001e
0013
0007
7fe8
7fe6
0003
7fe7
7fdf
7fb2
7fdd
7ffc
7ffd
0020
0042
0037
0009
0014
7ff7
7fe1
7fed
7ff0
0001
003e
0024
0028
007c
0095
00a7
0058
002c
000b
7ff2
7ff9
7ff5
7fe0
7fa6
7f96
7fbf
0008
002a
0053
0051
0047
0014
7ff9
7fe9
0002
0023
0020
0028
005a
004d
005d
0082
00ae
00d4
0099
0018
7ffc
7ffa
0006
0000
7fd4
7f7e
7f91
7faf
0005
003f
0013
0022
0042
0028
7fd3
7f9d
7fc4
7fdb
0004
000a
004b
004f
0070
00b1
00e8
0136
00c8
0024
7ffc
7fe6
7ff1
7fe4
7fc3
7fba
7fbf
0008
7ffb
0036
002f
0033
0088
0057
7fdc
7f89
7f55
7f60
7fa3
7feb
7fff
0049
009b
00e0
0133
0182
00fe
002d
7fee
7ffa
7fee
7fe8
7fed
7fec
7ff3
002b
0051
007e
008b
0085
00a1
0086
0067
7fea
7fac
7f73
7f78
7f73
7f5f
7f92
7fde
0013
0067
00ce
009b
0035
7fee
7fe8
0000
7fec
7ff3
7fec
7ffd
0045
0054
0079
0070
0052
005a
0096
008c
0002
7fa9
7f94
7f8c
7f65
7f27
7ec6
7edf
7f13
7f54
7fc3
0007
0011
7ff6
7ff5
7ff7
7ff3
7fee
7ff2
0023
004f
0046
0034
001e
0057
00b5
00a9
00ad
0012
7fa8
7f5c
7f7c
7fa6
7f7f
7f6d
7f0c
7eea
7f0e
7f5e
7fd2
0002
0000
7ff6
7fe9
7fe8
7fef
7ffb
0012
0035
0027
002d
0025
007a
0088
0065
005f
7fed
7f97
7f56
7fa6
7fe0
7fdb
7fee
7fbb
7f83
7f49
7f77
7fe8
7fe6
7ffc
7ff7
7fe7
7ff4
7fe1
7ff6
7ff5
7fff
7ffa
0038
0059
006a
0014
0024
7ff9
7fb4
7fa8
7f86
7f95
7f9b
7fcf
7fd6
7fda
7fe9
7f9c
7fbd
7fde
7ff4
7fe2
7fe5
0004
7fe3
7ff4
7fd5
7fc0
7fa6
7fc4
0016
0064
002f
002c
0026
7fde
7f8f
7f7e
7f8b
7f88
7fab
7ffc
7fe3
7fe8
7fe3
7fdf
7fe9
7fff
0005
7fee
7ff0
7ff6
7ff9
7fe3
7fef
7fb7
7f6d
7f52
7f8b
7fbf
7fe6
7fdb
7fe8
7fb0
7f66
7f83
7fa5
7fdf
7fe1
0005
0019
0004
001c
0006
0004
0004
7fef
7ff0
7fed
7fff
0000
0002
7fed
0005
000b
7f8d
7f31
7f3e
7f75
7fac
7f7d
7f57
7f5c
7fb5
7fdf
0032
004c
0032
0032
000f
0002
001c
001c
7fe8
7fff
0001
0003
7fec
7ff3
7ff0
0029
0036
0081
0017
7f84
7f4b
7f12
7f2c
7f68
7fa9
7fd5
7fee
7ffd
003a
001d
0034
0023
0033
002a
003a
001e
0002
7fea
7ff9
0000
7fec
7ff5
0004
003e
006a
008f
0060
003d
0014
7fd2
7fcf
0004
003a
0016
001f
001f
7ff6
0017
0016
0005
0026
0041
002f
0004
7fff
0000
7fe6
7fff
7fe2
7ff2
7fea
0008
0046
0051
0063
008b
0075
0067
0096
005d
0046
7fec
7fee
0034
001a
002b
0039
0032
0027
005e
0046
7ff7
7fe3
7ff6
7fed
7feb
0001
7fe1
7ff4
001c
7ff7
0021
005b
0083
0056
0049
0027
0033
001f
0021
0028
000a
0020
0010
0034
0033
0055
0069
0017
0001
7fe7
7fee
7fee
7ffa
7fe4
7ff1
7fee
000a
7ff2
7fe1
7ffb
0033
004a
000d
0042
006a
0083
0043
000a
0007
0010
0022
0022
003b
0035
0037
0013
7ffd
0003
7ff5
7ff9
7fe9
7ff5
7ff9
7ff7
7fea
7ff1
7fd4
7fec
0028
0027
0027
0046
0043
002e
0035
0030
002f
0016
7fe7
7ffc
0017
0009
001f
7fed
0005
7ff0
7ff0
0005
7ffe
7ff1
7fee
0005
7fe2
7fe0
7ff4
7ffa
7ffe
0034
0044
0034
0022
002f
0057
0048
002b
0015
0028
001a
7fff
7ffc
7ff7
0002
7feb
7ff8
0003
7fe6
7ff5
0001
0003
7fe5
0000
7ff8
7fe0
7ff4
7fe3
0011
000d
0023
0023
003d
0003
0012
000f
001e
7fec
7fff
7fde
0003
7ff3
7fe9
7ffd
0002
7fe3
7ff1
7ff7
7ff6
7feb
7ff0
7fee
7ff1
7ffb
7feb
7fe4
7ff2
7fed
7ffc
0001
7ff9
7fec
7ff6
7ffb
7feb
7fd8
7fdf
7ff9
7ff9
7fee
7ffb
7ff2
7ff7
7fef
7fe3
7ffa
7ffc
7ffd
7ff8
7fe8
7ffe
7ff0
7fee
0006
7fef
7fec
7ffe
7ff5
7fe2
0001
7ff7
7fe5
7fe2
7fe9
7fe1
0000
7fef
0006
7fe6
7ff8
7ff3
7fe8
7ffc
