7ffa
000c
7ff3
7fff
0000
7ffe
0006
0012
7ff4
7ff8
7ff8
7ff4
0006
0011
0009
7ff1
7ffe
0012
0003
7ffe
7ff2
7ff7
0004
0010
0009
000b
7ff2
7ff2
000c
0009
000c
7ffd
7ff0
7ff6
0008
001b
0012
0005
0016
0018
0019
0018
000f
0010
7fef
000f
0015
000c
7ffd
7ff6
0016
0010
7ff9
0012
7ffd
000e
7ff5
7ff3
7ff0
7ffe
0009
0006
0009
001a
0013
0028
0032
0039
0039
003c
001e
0015
0032
0016
0015
0017
0017
000c
000f
0003
0008
7ffb
7fef
0005
7ff2
0002
000d
0008
0012
7ff1
0013
0015
0019
0033
002d
0038
0037
0035
004e
0049
002e
003a
005c
005c
0062
0057
0058
0033
002d
000b
7ff8
000a
0003
7ffd
7fff
0010
000d
0005
0005
001f
7ffc
7ff9
001e
000b
000e
0005
000c
0012
003e
003d
0060
0061
007b
0088
0075
004f
000b
0015
0003
0000
0003
000a
0005
7ff9
7ff3
7fff
7ff5
7fea
0010
7feb
0007
7fb9
7fda
7fe6
7ff6
7fde
7fde
0006
002e
0056
004b
0043
0035
0024
7ffc
0002
7fee
0011
7ffe
000f
000e
7fed
0007
7ffd
0006
0000
7fe5
7fe0
7fae
7f95
7fc2
7f86
7fca
7fd8
7fc7
7fce
7ff2
7fde
7fca
7fcc
7fb0
7fcc
7fd4
7fd2
7ff9
000f
0006
0009
0001
7ffd
0001
7ff0
7fe0
7ffb
7fd2
7fc7
7fad
7fbf
7f8b
7f7d
7fbb
7fbf
7f9a
7f9f
7f88
7f5d
7f5a
7f75
7f6f
7f8d
7fd4
7fd8
7ff0
7ff4
7ffa
7ffb
0012
7fea
7fed
7fe7
7fc2
7ff2
7fe9
7fbf
7fb4
7fa9
7f97
7f86
7f89
7f81
7f6a
7f53
7f0b
7f1c
7f34
7f36
7f73
7f84
7fb2
7fcf
7fdd
0005
7ffd
7ff2
7ff8
7ff0
0000
7ff2
7fea
7ff3
000f
7fd9
7fb6
7fc7
7fdb
7fbb
7fc0
7f75
7f5e
7f15
7f06
7f34
7f58
7f7b
7f66
7f9d
7fb4
7fc8
7fe9
000c
7ff4
000f
000a
7fee
7fe6
0007
0016
0015
004c
7ffe
000f
0006
7fd2
7fe1
7fbb
7f70
7f6e
7f54
7f4d
7f71
7f9f
7fbb
7fa5
7ff6
7fc5
7fd7
7ff4
7ffa
7ff6
0006
7ff6
7fff
7ff6
0003
7ffa
0040
002d
0016
001c
0013
0013
0003
7fdf
7f8e
7f95
7fa5
7fa5
7fb9
7fdf
000d
002c
0044
0000
7fdc
7ff1
7ffa
7ff6
7ffb
7ff0
7ff9
0009
001e
002d
003c
001c
0027
001b
0048
0045
0031
7fd6
7fb3
7ffd
7ff9
7fb5
7fb8
7ff7
0029
0062
00ae
005e
7fe5
7fe1
7ff7
7ff7
0010
000c
7fee
7fe8
000a
004b
0029
0023
0011
0049
003d
0038
000a
7ff6
7ffe
0006
7ff0
7fbf
7ff7
7fe1
0034
0088
00d7
0074
7ff7
0000
000b
7ff8
0002
000c
0001
7fe7
001b
0045
003c
0052
004d
0053
005a
001e
7fd4
0003
0025
0011
7fe3
7fe4
7ffc
003b
003a
009a
00b3
0075
7ffe
7fde
7fef
000d
7ffa
0002
7ff2
7fcf
7ffa
0048
0060
003e
0061
007a
0095
0027
7ff5
003a
0035
0008
7fe5
0005
001e
0045
005f
0057
006c
0039
7fe3
7fee
7fed
0003
7ff2
7ff2
7ff0
7fc0
7fdd
006b
006d
0048
006f
00bd
00bc
0039
0022
0052
002b
7fea
7fd3
000f
0030
0016
0001
002c
001b
7ff3
7fdd
7feb
7ffd
0003
000b
000f
7ffd
7fa5
7fd0
002d
0055
0061
007a
00d2
00d6
006e
003e
003f
0028
0000
000b
0058
001e
000d
7fea
0014
7ffc
7fe7
7fd0
7ff9
0008
7ff9
7ff6
0000
7fe5
7faa
7fac
7fd7
003a
005e
0055
0093
00b6
00d6
0063
001b
0037
0060
003e
004d
0029
0005
000e
000f
7ff8
7fe1
7fe9
7fef
7fed
0005
7ff3
0008
7fde
7fc8
7fa7
7fbb
0005
003d
005f
007f
00cb
00e4
0075
0069
006e
004e
0040
0064
0044
002c
0009
7ff0
7fec
7feb
7ffd
7ff6
000f
7ff7
7ff3
7ffb
7ff1
7fb9
7fab
7fb6
7fe2
0014
0040
0069
0046
008a
00a6
00c4
00a7
005b
003a
0071
004f
0036
7ff5
7fd6
0003
7ff6
7ffb
7ff3
0003
7ffe
0002
0005
7ffb
7fe5
7fc5
7f9d
7fd3
7fe5
0030
0057
007c
00a0
00a2
0088
0075
0049
0064
005d
003c
0008
7fe0
7fd4
7fe6
0001
7fef
7ffc
7ff7
7ff7
7ffe
0010
0004
7ff7
7fcd
7fc3
7faf
7fca
7fe7
7fec
000a
002f
0014
0011
0032
0026
0000
7ff3
7fc8
7fca
7fd3
7fd6
7ffc
7ff9
7ff0
0011
0007
000e
7ffb
7ff8
0002
0005
7feb
7fdf
7fb8
7fa5
7f7c
7f7d
7f67
7fa2
7fb6
7fc6
7faa
7f8f
7f80
7f9b
7fd2
7fd1
7fd7
7ff1
0002
7fef
7ff2
7ffa
7ffe
000a
0008
0005
7ff0
7ff3
7ffa
7ff0
7fe7
7fec
7fe0
7fd0
7fc4
7fba
7fbb
7fb0
7fb0
7fac
7fc0
7fea
7feb
7ff9
7ff5
0008
7ffc
7fef
7ffb
7ff4
7ff4
0010
7ff1
0004
7ff9
7ff5
7ffe
000a
7fff
7fee
0006
7fef
7ffd
0001
7fee
7ff6
7ffa
7ffe
7ff0
7ff7
7fee
7ff2
0002
7ff9
000d
0012
0010
0001
000c
0011
7fff
0003
7ffd
7ff7
000e
000b
7ff7
7ffa
0008
7ff9
0004
7ff9
000a
000b
7ff2
7ff5
000e
000b
7ffa
000a
7ffc
7ffc
0006
0007
7ffc
7ff8
7ffb
0010
7fff
0009
7ff7
0006
0000
000f
0002
7ffe
7fee
7ff4
0006
7ff0
7ff2
7ff6
7fef
7ff5
7ffa
7ff1
7ff5
7ff6
7ff8
000f
7ff1
7ff6
7ff2
7ff6
0003
