7fef
0009
7ffb
7ffe
000b
7fff
7ff5
7ff5
7ffd
7ffa
000c
7fff
0006
7ff0
7fff
7fea
7fee
7ffb
7fed
000c
7fed
7ffa
7fec
7ffe
0006
7ffc
7fff
7fff
0007
0009
0003
7fed
7fec
0001
7ff0
7ffb
7ff3
7fe9
7ff1
0001
000e
7fed
7ff6
0006
7ff0
7fea
0004
000a
7fef
0005
7ff2
7fee
7ffc
0001
7ffa
000c
7feb
7ff3
7ff2
0006
0002
7feb
7ffb
000b
7ff9
7ff1
7ff1
7fe7
7fe5
7ff7
7fe4
7fdc
7fe6
7ff9
7fea
7fe3
7ffb
0009
0002
7ff0
000b
7fe9
7ffa
0005
7feb
7ffb
000c
7feb
7ff1
000a
0004
0000
0002
7ffb
7ff9
7fe4
7fd9
7fea
7fe2
7fde
0006
0003
7fda
7fdf
7fd1
7fdf
7fd8
7fe4
7fed
0007
0007
7ff5
0003
7fea
7ff1
7feb
7fe8
7ffd
7ffa
7feb
7ff9
7ffb
7fdd
7fde
7fde
7fe0
7ff7
7ffd
7fe5
7fe7
7fe6
7fdc
7ff1
7fd2
7fee
7ffd
7fec
7ff7
7ff4
7ffe
0006
7ff6
0000
7fed
7ffb
7ff7
7ff9
7ff2
7ffa
7fe6
7ff4
0008
001e
0041
004f
004e
0058
005e
0064
0023
0006
0010
7ff8
7fff
7fd5
7fe1
7ffe
7ff0
7ff7
7ffc
0002
7ff9
0000
0001
0002
7fff
7feb
7fdc
0014
7ffd
0036
0030
002e
0044
0053
0075
006d
005d
005a
0066
003a
0015
7fd4
7fd2
7fe1
0005
000b
0002
7ffe
7fe5
7fd6
7ffc
7fef
0000
7fec
7ffa
0004
0027
0050
004a
001e
002f
0043
007e
005d
0051
0021
0040
0046
0024
7fe5
7fd3
7fd8
7ffe
000c
0004
7ffb
0000
7fe1
7fe8
7fec
7fe8
7ff3
7ff2
0026
0028
0015
0009
000e
0039
00a5
0083
007a
0026
0020
001e
0048
007e
7ff2
7fd6
7ffc
7fea
7ffd
7ffe
0004
0003
7fd9
7fe4
7fd8
7fe9
7fe9
7ff4
001b
7fe9
000e
0029
0025
001f
005a
0079
008b
0050
0018
7ffb
003b
0080
0025
7fe0
0000
7ffc
7fec
000a
7fef
7fe1
7fe4
7fe9
7fed
0003
000d
7ffd
7fea
0007
0009
7ffb
7fd4
7fb5
7fd3
002b
006e
0072
0065
0049
006d
0095
0047
7fe3
7fe3
7fea
7ff1
7fec
0009
7ffa
7fc8
7ff4
0009
002a
0020
7ff4
000b
0001
0016
7ff1
7f8a
7f25
7f32
7fb0
7ff5
003a
005d
0056
0075
0085
0060
7fee
7fff
7fe8
7ff0
7ffb
7ff9
7ffa
7fe1
0005
002e
0030
0017
7ffa
0021
0017
002b
7fdd
7f18
7ee1
7ee2
7f64
7fe4
7ff5
000e
0028
0098
008b
0061
0003
7ff1
7ff1
7fe9
7fff
0008
7fea
7ff8
001c
0038
0048
0036
0026
0034
0028
001d
7f73
7f18
7ed9
7f0e
7f88
7fc5
7fb1
7fc4
001a
0064
009d
0059
000e
0000
0009
7ffd
0007
7fef
7ff3
7fe5
0049
005f
0074
0038
0043
0062
0038
000e
7f85
7eee
7ed8
7f15
7f7f
7fc7
7fbb
0006
0038
0043
009e
0052
7fef
7ff8
7fee
0009
0005
7ff1
7ffd
7fff
0068
004b
0067
0047
005f
0078
0021
7fa6
7f1a
7ecd
7edc
7f3b
7fa0
7fdc
7fdd
001e
001a
0065
0076
003d
7ffa
0002
7ff0
0003
000c
7fe9
7ff3
0011
005e
0075
005a
003f
003f
006b
7ff2
7f51
7ecf
7ed7
7f15
7f82
7fc5
7fff
0013
002c
0042
005b
0057
0021
0002
7ff5
7ff2
7ff8
0003
7fec
7fd9
0003
0043
0054
0051
0019
0041
0067
7ff0
7f2e
7ed4
7ef8
7f62
7feb
0028
003a
0035
0044
0034
0029
002f
7ffd
7ff9
0004
7ff0
7ff5
0004
7ff8
7ff1
7ff8
002b
0057
0032
001f
0056
00a6
0007
7f7a
7f28
7f6a
7fd2
0031
0034
0036
001c
000e
0017
002d
001c
7ffd
7ff2
0002
7ff8
7ff9
7ff6
7ff7
7fda
0010
002f
0070
0065
004f
0069
00a6
0075
0019
7fca
7fe9
7ff1
0019
7ff4
7fea
7ff3
001a
0018
002f
7ffa
0007
7ff6
7fe8
0008
0008
000b
7ff8
7fee
7ff5
0030
005a
0042
0052
0065
009d
009d
004e
0018
7ff0
000b
000b
7fe9
7fef
7fe8
000d
0010
0019
0009
7ff2
7ffd
7fed
7ff6
7ff2
7feb
7ff8
7ff2
7ff7
000c
0037
005a
003f
0045
0086
0098
0065
0026
000e
0003
7ffe
7fd6
7fe0
7fee
0010
7fff
7fed
7fe2
7ff9
7ff6
7ff1
7ff3
7fee
0001
0002
7ff5
7fed
0007
0028
0023
0065
0052
005b
006c
005c
0076
0033
0034
001d
7fe8
7fed
7fff
7fe5
7fe3
7ff2
7ff1
7ffb
7ff7
7ff4
7ffa
7fee
7ffb
0000
7fea
7fea
7ffa
7ffd
001c
0028
005e
0070
0089
0088
0051
0042
0025
000f
7ffe
7fcc
7fbf
7fce
7fe7
7fec
7ffd
7ff8
0006
7ff5
7fe9
7ff6
7ffc
7fea
7fff
7ffa
7ffa
7fe5
7fdc
7fec
7fee
0015
0010
0026
0037
001d
7fea
7fdd
7fd7
7fdd
7fcf
7fd1
7fd4
7ff7
7ff4
7fed
7ff2
0001
7ff0
7ff2
000d
7ff9
000b
000c
7fff
7fe8
7ff5
7fd1
7fd4
7fc9
7fb8
7fae
7fb5
7fa9
7fb2
7fb6
7fd3
7fdb
7fe1
7fdd
7fe0
7ff5
000c
0006
7ff7
7ff5
7ffc
000a
0009
7ff7
0001
7ff3
7ff6
7fea
0004
7ff4
7fd9
7fd9
7fdc
7ff2
7fdc
7fde
7ff3
7fdc
7fe3
7fea
7fe5
7ff2
7fdf
7fe4
000b
7fef
0003
0009
7ffe
7fed
0007
7ffd
7ff6
000a
0002
0003
7fe9
000b
000b
0004
0008
7ffb
7ff3
0007
7fec
7ff9
7ff2
7ffd
7ff4
7fe9
7feb
7fe2
7ff9
0005
7fed
7fe8
0006
