0000
0005
001e
001e
0001
0001
0018
0006
0002
0004
0001
0016
001d
0010
0015
0002
0014
001b
0006
0016
0002
000d
001d
0003
001d
0005
0020
000d
0008
000f
0000
0003
000f
0023
0007
7ffa
0014
0001
000d
7ff6
0009
7ff2
0001
0013
0017
0007
0000
0006
0018
7fff
7fff
0002
0016
0017
0005
0017
001a
0011
001a
001b
0019
0016
001e
7ff6
7ff6
0005
7ffd
7fee
7fbc
7fe4
7fdf
7fd1
7fde
7ff9
0009
0018
001f
0012
001d
0008
000b
0014
0001
000e
001a
0018
0009
000f
0010
0000
0014
7fee
7fe6
7ff2
7fc5
7fbb
7f91
7f96
7f9b
7f86
7fae
7fd7
0006
000d
0018
0023
0009
0009
0022
0021
000a
0013
0021
0016
0019
0018
000e
001b
7fec
7ffb
7fd7
7fdd
7f9d
7fa1
7f7f
7f95
7f7c
7f8f
7fc9
7fcf
7fe3
001c
0027
002c
002a
0038
000f
001f
0008
0005
0022
0009
0018
0008
0016
0004
000f
7fed
0005
7fea
7fb7
7fd0
7fad
7f99
7fb8
7fc5
7ff6
0009
7ff2
0018
001d
0028
005c
0068
0039
7ffa
0009
0006
001f
0022
000a
001b
001d
0018
0018
7ffe
7ffb
7fe3
7fc6
7f9b
7f66
7f4a
7f42
7f5b
7f57
7f9d
7f9a
7fd2
7fe2
7ffe
0084
008b
0035
002a
001e
0001
000f
0008
000b
0013
000b
0019
7ff0
7ffd
7fef
7fd9
7f9d
7f66
7f38
7f73
7f50
7f4e
7f49
7f8c
7f89
7fad
7fa0
7fd4
0052
006e
003b
0021
001f
0012
001e
0019
0021
0006
000a
000e
0009
7ff8
7fb6
7fda
7fcf
7f9d
7f6f
7fa3
7f2d
7f28
7f58
7f97
7fa1
7fe2
7fc6
7fc7
0026
003a
002c
0009
000c
0016
0024
001e
001c
0006
7fed
0001
7fd2
7fdf
7feb
7ff9
7fe7
7fe1
7fe0
7fac
7ed0
7f1d
7fc9
7fd7
7ff3
0007
7fe0
7fe1
0010
0004
7fdc
7fda
7ff0
0018
0013
000d
000e
0004
000e
7fd7
7fbc
7fdf
000a
0057
0034
0027
002f
7f8c
7ebf
7f9e
000b
7ff2
7ff5
000b
7fc0
7fd6
7ff8
7fba
7fd9
7fe7
0014
0021
0016
0017
0014
7ff4
7ffb
7fe9
7fe8
0014
0041
006e
0098
0061
006d
7f4e
7f0f
001f
007d
0015
7ff9
7fec
7fbc
7fc6
7fe2
7fca
7fc4
7ffd
7ffe
0008
0019
0016
000a
000f
7ffe
7fea
0040
006a
00a4
0090
00ef
010f
0100
7ffc
7f81
0064
00a3
0012
0007
0016
7ffc
0005
7ff9
7fdc
7fe0
7ff7
0023
0014
0004
0017
0003
000a
001b
004d
009e
00b7
00d2
00b0
00cd
014e
00fd
0004
7fdc
0075
0079
0086
005c
002a
005c
0044
0020
7fed
7fef
0002
001c
0014
0004
001d
0002
0022
0045
008a
00c0
00d2
009d
0096
00b5
00db
009f
000d
7fe9
002a
0086
00dd
0096
008a
004d
0034
0011
0009
7ffb
0009
0011
0008
0018
0022
0016
001c
003e
0046
006d
0065
00a2
008b
0061
0046
0053
0010
0043
005d
00c1
00ac
007b
0049
7fec
001b
0031
0005
7fe3
000f
0004
000a
000b
0000
0001
7ffc
0011
0029
0044
0076
00ac
007a
0021
7ffc
0022
002a
009e
00da
00e1
00bb
007e
0010
0035
004b
0012
7ff4
7ffd
0007
000e
000e
000d
000d
001a
0000
7fee
7fdb
0016
005e
00b5
009d
0039
002d
0041
009b
0100
00cb
00a9
0034
0008
7fc7
0011
0006
7fdd
7ff1
7fe9
7ff3
0017
001c
000e
0015
0013
0003
7fea
7fd2
7fcb
7fff
002e
000b
7fda
7fea
003b
0043
0070
0060
0032
7fb2
7fb6
7f94
7fc0
7fbd
7fa7
7fbb
7fee
7ff7
0008
0001
000e
0019
000a
0006
7fcf
7fc3
7faf
7f86
7f76
7f6d
7f53
7f5a
7f6d
7faa
7fe6
0016
7fbd
7fc7
7fb9
7f9e
7f93
7f9c
7f9a
7fbb
7fee
000e
0018
0016
0024
0021
000a
0006
7fd8
7fbb
7f9c
7f5e
7f3f
7f33
7f30
7f67
7f85
7f76
7fa9
7fd3
7ff0
7ff7
7fdc
7fb2
7fcc
7fc5
7fb9
7fdb
7fdd
0003
0008
0018
0007
000a
0003
0005
0000
7fd9
7f9e
7f76
7f84
7f73
7f85
7fa5
7fb4
7fba
7fb0
7fdb
7fce
0009
7ff1
0003
7ffa
7fd0
7fd7
7ff8
7fff
000f
0014
0013
0011
0014
0008
0016
7ffb
7feb
7fd7
7fbd
7fa5
7fc9
7fc7
7fd9
7fd7
7fdc
7fd4
7fe5
7fe6
0009
0028
0042
0032
0021
7fea
7feb
7fff
000e
0002
000b
000b
0001
000a
0014
000b
000e
7fea
7fe8
7fdf
000f
7fdd
0006
7fdc
7fe4
7fe4
7ffe
0009
0018
004b
004a
003f
001c
7ff6
0008
0011
0017
0007
001c
0015
001f
000e
0018
0006
0013
0007
7fde
7fdd
7ff5
7fdb
7ffa
7fe5
7fe7
7fd2
7fcd
7fea
7ff5
0004
0028
001d
7ff4
7ffd
000f
0019
0004
0007
0016
0020
001f
001c
0006
001d
0001
7fec
7fdf
7fce
7fcb
7faa
7f9f
7fa4
7fa5
7fb2
7fae
7f96
7f87
7f93
7fc4
7fc9
7fec
0001
0015
0002
001d
000c
000b
000f
0016
0005
000e
7fff
7ffb
0009
0006
7ff9
7fe2
7fb7
7fc0
7fb7
7f9d
7f94
7fac
7fa0
7faf
7fbd
7fd8
7ff1
0016
0015
0003
000e
0002
0022
000f
0015
0003
0005
0021
000c
001b
000d
0022
0000
000f
0007
7ffb
7ffd
0001
7ff2
001b
7ff9
7ff8
7ffd
000e
000b
000b
000b
0013
0013
0019
0012
000c
