7ff2
7ff5
7ff2
7ff9
7ff8
0003
7fe3
7ffa
7fec
7fef
7fe8
0002
7ff7
7ffe
7fe8
7fff
7ff8
7fe6
0003
7ff4
7ff2
7ff1
7ff3
0005
0000
7fef
7feb
7ff3
7ff2
7fe3
0005
0000
7fe5
7fe6
7fe4
7fe6
0004
7ff5
7ff4
7fe3
0003
7ffb
7fec
7ff1
7ffc
7ff7
7fe9
7ff7
0003
7fe5
7ffb
7fea
7ffe
0006
7fec
7fea
7fe8
0000
7ff6
7ff4
7fe9
7fe3
7ff6
7fe3
0005
7fe2
7fe4
7ffa
7ff6
7fe2
7ffa
7ff8
7fe0
7fed
7fed
7ffc
7fff
7ffe
7ff9
7ff3
0003
7fec
7ffb
0004
7fea
7ff3
7ff4
7fe7
0005
7fe8
7fe4
7fef
7fe3
7ff6
7fea
7fd8
7fd3
7fca
7fd3
7fe5
7fd3
7fdd
7fe8
7ff1
7fde
0002
7fee
7ffe
7fed
7ffa
7ff7
7fe5
7ff4
7ffd
7fef
7fe5
7fff
7ffe
7ff4
7fe8
7fe8
7ff2
7ff3
7ff9
0027
0019
0055
0040
001d
0010
0018
7feb
7fe6
7ff2
7fd9
7fe4
7fff
0002
7ff1
7ff4
7ff5
7ffb
7ffd
7fff
7fe9
7ff2
7fec
7fca
7fea
0013
7fd4
003b
006f
005d
0060
002e
0026
0059
0004
7ffc
0020
0010
7fca
7fd3
7fe1
0018
7ff6
0004
7fea
7fe8
7fe3
7fe4
7fe0
7fe0
7fcd
7fcd
0004
000f
7ffc
001d
002d
0024
0033
0060
002e
0037
000c
003e
0018
001d
0024
0022
001d
000c
7ff4
7ffd
0004
7fea
7fe6
7fec
7fde
7ff4
7fdd
7ffe
0022
000e
0011
7ff5
7fd4
7fdf
7fd0
001d
0024
7ffe
0019
7fe5
0025
003a
000a
0078
004a
7ffd
0002
7ffb
7ffb
0002
7ffa
7fe8
7ffa
7ff5
0032
001f
000b
0056
0005
0003
003a
004b
7fc5
7fce
0029
7fe3
000e
0027
001a
0050
0035
005b
0053
7ff6
7ff9
0008
0000
0002
7ff3
7ff0
7ff7
0032
0025
004d
0067
0057
0037
0061
001a
001c
7f8f
7f62
7fc9
0008
0011
001f
0028
0023
0053
0056
7ff2
7ff4
0013
7fe6
7feb
0001
7fea
0002
0013
003e
003e
0071
0054
0062
008f
0045
0048
003a
7fed
7f6a
7f85
7fda
002b
002b
002c
0066
0070
005c
0001
7ff9
7ff4
7fec
7fea
0005
7ffe
7fdd
001e
0044
0082
00a9
0085
00a8
0073
0036
0046
00a7
00cb
7fe7
7f87
7fd6
7fd8
0011
005c
006e
0092
008a
0060
0010
0008
7ff8
7fed
7ffa
7ff0
7ff8
7ffa
0052
0044
0067
0062
007b
0015
001d
0010
00ca
00cb
002d
0008
7fee
7ff1
0033
0056
0094
00ad
0090
005a
0024
0012
7fe7
7fe4
7ff6
0006
7fe8
7fee
0000
7ff3
7ff4
000b
7ff1
7fd4
0011
004a
00bd
0039
008b
0037
7fdd
0003
0005
003e
0038
0020
002d
0018
0005
0005
7ffb
7fef
7fe3
7ffc
7ff4
7fe7
7fc9
7f9e
7f82
7f6c
7f89
7fef
004c
0049
009a
007b
0054
7ff6
000a
7fea
7fce
7fae
7fb7
7fc1
7fb5
7fde
7ffb
7fe2
0001
0002
7fee
7feb
7ff7
7fe4
7fc9
7f86
7f6a
7f78
7fdf
0005
0003
0069
007d
006d
003f
7fe0
7fe5
7fed
7f92
7f76
7f96
7fbd
7fc0
7fd0
7ff8
7fdf
0003
7ff1
7fe5
7fed
7ff6
7fd4
7fb1
7f81
7fb5
0032
0038
0017
0033
0066
0059
0020
0035
0012
7fd6
7fa7
7f81
7f81
7f7f
7f98
7fde
7fd3
7ff0
7ff0
7fe4
0006
0004
7fea
7fe5
7fe3
7fae
7f90
0014
0068
0081
0029
0062
009f
0060
0008
7fe6
000c
7fcf
7f7d
7fc2
7fc2
7fa9
7fc0
7fd7
7fe9
7fdf
7ffb
7fef
7fec
0001
7fe4
7fdc
7fce
7fcd
7fe0
001f
0056
009a
006c
0093
0060
0037
7fbd
7fef
7fda
7f9c
7fe8
7fed
0007
7fc9
7ff8
7fd1
7fc0
7fdf
7ffb
0004
7fed
7ff6
7ff9
7fd5
7fc9
7fea
000f
0029
002a
0069
0036
7ff9
001a
7fba
7fae
7fe1
7fe6
7fde
001a
0007
0021
0003
0016
7fee
7fcf
7fe3
7fe7
0003
7fe8
7ffb
7fea
7fe0
7fc0
7ff5
000a
005a
001b
7ff4
7fff
7fb3
0005
7ffe
7fb7
7ff3
7fab
7fe5
000f
0009
001b
002e
002d
7ff5
7fe2
7fd9
7ff4
7fe9
0002
7ff3
0004
7fce
7fb6
7ff9
0027
0054
0012
0024
7ff9
7fc9
7fe1
0013
7ffe
7ff7
7fbf
7fe5
7fee
7ffd
7ffe
0010
000d
7fec
7fe8
7fff
7ffb
7ff1
7ff8
7fe4
7fee
7fe0
7fc5
7fa7
000b
0018
7ffb
7fe4
0012
0006
006a
006f
004e
003d
7ffb
7ffa
001a
7fdf
7fdc
000f
7ffa
7fe9
7ffa
7ffa
7ff9
7fea
7fea
7ffd
7ff6
7fe4
7fc2
7f6c
7f8c
7fc6
0014
0014
002b
0038
007d
00b4
0099
007a
0063
0047
0038
0048
0035
000d
7ff9
7fef
7fdf
7ffd
7fe3
7ffa
7ffc
7ffa
0006
7fe7
7fe6
7f9e
7f78
7f8e
7ff9
001b
7ff6
0030
0024
0018
003b
0081
0089
005c
0081
0079
0028
0002
7fe5
0003
7ff5
7fed
0004
7ff9
0006
7ffc
0003
7fe6
7fed
7fdc
7fcd
7fc0
7fb9
7fb9
7fe5
7fce
7fe2
7fe2
7ffd
002d
0020
0029
002f
0007
7ff6
7fff
7fe1
7fe2
7ffd
7ff8
7fed
7ff7
7ffb
0001
7ff2
7feb
7fe2
7fe7
7fd9
7ff5
7fdd
7fe2
7fdc
7feb
7fe9
7fed
7fe3
7feb
7fe7
7fdf
7fdb
7fe9
7ff0
7ffb
7ff1
0007
0006
7fe4
7ff7
7ff4
7ffa
7fea
7ff3
7ff7
7ff9
7fe3
7fff
7fed
0005
7ff2
7fe7
7ffd
7fec
7fe8
7ff1
7ffa
7ff7
0001
0004
0006
7ffb
7ff8
7ffb
7fea
7ff6
0004
7fe5
7ff6
