7fe6
0001
7ff3
7feb
7ff3
7fec
7ff7
7ff9
7fe6
7ff5
7fe7
7ff0
0005
0004
7fe7
7ff7
7fe9
7fe9
0007
0002
7fed
7ff8
7fef
7fe4
7fe6
7ff6
7fff
7ff9
7ff5
7ff3
0006
7ffa
7fe8
7fe7
7fe6
7fec
7fec
7ff7
0000
7fe9
7ff1
7fe8
7ff7
7fe4
7ff9
7fe9
7ff0
7fea
7ff7
7fe9
7fe5
7fe3
0001
7ffa
0002
7fee
7ff4
7fe4
7fe7
0000
7fe5
7fe8
7ff2
7ff6
7ffd
7ff1
000e
000c
0025
001d
001b
000b
0024
000c
000b
7fee
7fff
7ff7
7fda
7ff3
7ffc
0009
7ff5
7ff1
7fee
7feb
7ffa
7fed
0005
7fe9
7ff8
0000
0007
003b
005c
005c
0058
0081
0046
001f
003b
001b
7fe6
7ffa
7fe3
7fde
7fd6
7feb
0003
000a
7fe9
7ffb
7fec
7ff2
0007
7fe2
7fe5
7ff8
000e
000d
0026
0071
0072
008f
0079
0060
0057
0027
0034
0030
7ff2
7fe8
7fed
7fc7
7fbb
7fbe
7ff8
7ff8
7fe4
7ffb
0002
7ff7
7fea
7fe3
7fe8
7fec
000d
0037
004c
0083
0091
0097
008a
009b
0090
0085
0091
0075
0055
7fdc
7fde
7fc8
7fc7
7fa7
7fda
7fea
0004
7fef
7ff4
7feb
0005
7ff5
7ff1
0009
0036
0068
0050
005b
007b
004d
0051
0069
005d
0033
0038
000e
000b
7fdf
7fea
7fb8
7fb9
7f9d
7fc5
7fdf
0004
7ffd
7ff1
0003
0003
7ff2
0001
001d
0045
0065
0052
004d
001d
0023
0006
0036
0042
000e
0009
7fac
7fe3
7fe8
7fe5
7fe0
7fe8
7fae
7fc7
7fef
7fea
7fe5
7ffa
0004
7ff5
0004
000f
002f
0022
0030
0031
0036
0036
003e
0025
002c
0074
0041
7ff8
7fe0
7fff
001a
0001
7fee
7fd1
7fa1
7fb7
7fe2
7ff2
7fe9
7fec
7ffb
7fff
000c
0018
0035
0012
0004
7fee
001c
0016
001c
0007
7ffd
004c
0052
001c
0002
7ff8
7fff
7ffd
7ffe
7fe2
7faf
7fbb
7fe9
0004
7fe6
0005
7ffa
7ff4
7fef
0004
7ff3
7fe6
7f80
7f8e
7faa
7f7c
7f6d
7f56
7f41
7fb0
000f
0015
0003
000b
7ff0
7ff5
7ff0
7fd8
7fa3
7fcd
7ffe
7ffe
7fea
7fe5
0007
7ffd
7fe8
7fd0
7f97
7f4c
7f03
7f0c
7ee1
7ee0
7ef9
7ee9
7eac
7efb
7f83
7fd5
7fdb
7fdc
7ff9
7fea
7fea
7fc5
7fd7
7ff9
7ff2
7fea
7ffa
7ff7
7ff8
0003
7ff5
7fcc
7f64
7ed1
7e8d
7ea6
7eb8
7ed4
7ee7
7ee8
7edd
7f11
7f60
7f93
7f9e
7fce
0000
7fff
7fe4
7fc1
7fa0
7ff4
7ff0
0007
7ff8
7fed
7ff3
0007
7fec
7fac
7f3b
7ec8
7ee1
7ef5
7f48
7f7e
7fc3
7fa0
7fd4
7f92
7f90
7f7b
7fa0
7fcb
7ff6
7ff0
7fde
7fb1
7fb8
7fdb
0009
7ff4
7fff
0004
7ff9
0001
7fef
7fe0
7f7b
7f58
7f77
7fc9
7ff7
0022
002d
0036
0054
0006
7fca
7fd8
7fbb
7ff4
7fd4
7ff2
7fcd
7fa4
7fbd
7ff3
0021
0025
7feb
7ff2
7ff5
7ff1
001e
000f
0007
0024
002a
004e
0037
0042
0027
0022
0051
0006
0020
0005
7fc0
7fc3
7fdb
7fe5
7fd7
7fad
7fd5
001a
002c
0018
7fe9
7fee
7fe4
7fe1
0020
0044
006f
0071
0043
001c
003a
0036
0031
0065
0059
0013
7ff5
0000
7fd6
7fdc
7fc0
7fe9
0003
000e
001e
005e
0075
0014
7fee
7ff1
0005
7ff4
0027
0074
00a1
0093
0065
0046
0055
0083
006b
007b
003a
001e
0028
0028
7ffa
001a
7fef
0030
0034
0026
0035
0097
0083
001e
0004
7ffd
7ffe
7fd8
000b
007d
00d4
00c7
008f
0060
006a
00a3
0093
00ea
00ab
0095
0049
0032
005c
003b
0028
006c
0070
007a
00a1
00c8
0073
7ff5
7fe8
7fec
7fed
7fe4
0000
0045
0081
00a3
008d
0082
008a
0084
008c
009d
0079
004e
0025
0039
0064
0030
002f
0050
0064
0083
008d
0079
003f
0005
0001
7fe7
7ffe
7ff9
7fdd
003d
004c
0075
00a3
009b
0067
0063
00a5
005c
001e
0014
0019
0020
0001
0047
0070
004c
006c
0096
0082
005e
002c
7fff
7ffc
7ff6
7fe8
7ffc
7ff2
000d
0020
0051
005b
0051
0065
0059
0057
0022
0010
7ff7
0004
002b
0030
0068
006e
0030
006c
0085
0097
004b
001e
0007
7ffd
7fe7
7ff9
7fea
0007
001a
0009
0037
0031
002d
0040
003f
004b
0008
7fc5
7fb6
7fd6
7fd8
001f
0061
007c
0071
006c
005d
0067
0026
7ffc
7ff9
7fee
7ffa
7ffb
7ff5
7ff3
7ff1
7fe3
7fdd
7fe1
7fce
7fe2
7fec
0019
0002
7fd8
7fca
7fba
7fb4
7fd8
0010
0061
0055
0068
004b
001c
0011
000b
7ffe
7ff3
7ff6
7fec
7fff
7ffd
7feb
7fca
7f97
7fb2
7faf
7faa
7fab
7fbf
7fbe
7fdc
7fd1
7fbd
7fc1
7fce
7fc3
7fdf
7fe3
7fe3
7fef
7ff3
7ffe
000b
7fe9
7fea
7fff
7fe4
7ff2
7fef
7fea
7fda
7fcd
7fb3
7faa
7fb0
7fb8
7fa4
7fc2
7fc6
7fb3
7fc1
7fd1
7fd4
7fef
7fd8
7ff2
7ff0
7fff
7fea
7ff8
7feb
7fe4
7feb
7fe5
7fef
7ff4
0001
7ffc
7ff3
7ffb
7fff
7ff2
0002
0000
0001
0003
7ff8
7fee
7fe2
7ff0
7ff8
7ff6
7feb
0003
7fff
7feb
7fef
7fe5
0001
0001
7fff
7ffe
7fec
7fe8
7ff6
7fe5
0006
0005
7ff0
7ffe
7feb
0004
7fe4
7fff
7ff2
7ffa
7fe8
7ff6
7ff1
7ff8
7ff6
7ffd
7fe3
7ff4
0001
7fe3
7ff5
7ffc
7ff0
