0002
0002
000f
0006
0019
7ff5
7ff9
0008
0013
0013
7ff5
0005
0005
7ffd
0014
0005
0000
7fff
0002
0007
000d
0018
7ffa
0012
7ffe
000d
7fff
0000
0017
7ffb
0005
0016
0009
0001
0016
0007
0002
7ffc
7ffd
7ff4
0013
7fff
0017
7ffa
000a
0011
0013
0010
0001
000f
0000
0018
0013
7ff9
7ff9
000a
0016
0015
0011
7ffd
0013
7ff7
7ff8
000f
000d
7ff8
7ffe
0009
7ffd
7ffb
0006
0014
0010
0003
0008
0016
0013
0016
7ff5
0011
0006
000f
000d
0013
7ffe
0001
0014
7ffd
0002
7fff
7ff9
000d
0000
000d
7ff5
0003
000a
7ff2
000c
7ff6
7feb
7fef
7ff1
7ff6
7ffe
7ff7
0008
7fff
000a
0018
7ff8
000a
0018
7ff7
000d
7ff6
0006
7ffb
0001
7ff6
0007
7ffd
7fe9
7fd3
7fd1
7fd3
7fcb
7fa8
7fcc
7fd9
7fde
7ff7
7fe7
000c
0002
7ff4
0016
7fff
0016
0015
0014
0001
0013
7ffb
7ff1
7ffd
7ff4
7ffc
7ff2
7fe0
7fb1
7f9f
7f86
7f72
7f4e
7f50
7f47
7f5d
7f76
7f97
7fb5
7fe5
7fd7
7ffb
0012
000e
7ffc
0001
0011
0017
0002
0004
0019
001e
0023
0034
004d
003e
0042
000c
7fcb
7f91
7f8c
7fc4
7fdc
7fd5
7fcb
7fc3
7fa4
7fdd
7fc0
7fd1
7fe1
7ff5
7ff5
0003
000f
0017
0013
002d
0037
0031
0047
006d
0095
0076
0051
005a
005f
0012
000e
0022
0065
0070
004c
003d
000f
7fef
0008
7fee
7fef
7fff
000c
7ffb
7ff4
0018
0009
0026
004d
0045
005d
00a7
0070
004d
0062
0084
007d
003f
0025
0033
0059
0089
005e
0050
0040
0001
0027
0021
7fe9
7ff5
000d
0014
000a
0013
001a
0037
004b
0056
001f
002a
002f
001f
004d
005e
0078
0062
008c
00ac
009f
00b1
0074
0076
0063
0053
0027
7ff2
7fe8
7ff4
000a
7ffb
0004
0015
0017
0044
004e
0041
000c
0014
7fe6
7fff
0030
0054
003a
0088
00af
00d7
00f4
00b5
008f
0094
0082
006f
0031
7fec
7fdf
7ff3
0003
7ffb
0013
000d
0018
0046
0054
002a
000f
000e
0004
0032
001a
0021
0036
0036
0038
00a4
00d5
008e
0090
006e
006b
0043
0031
7fef
7fcf
7fff
0005
0016
0011
7fff
000c
002c
0031
0008
000b
002f
0020
7ffe
7fda
7f9a
7f28
7eb1
7f06
0005
008d
0080
0032
0012
0003
7fee
7fef
7fe2
7fea
0014
000e
0000
0012
000b
0013
0028
000f
0006
7ff3
0009
7ffa
7fdf
7f95
7f1e
7e73
7e44
7f13
7fe1
0048
002f
000a
0015
7fd5
7fc8
7ff3
0004
7ff5
7ff8
000b
7ff5
7ffb
000a
0024
002c
001c
0021
7ff5
7fe9
7fce
7f8a
7f53
7ef4
7ea8
7ede
7f96
0002
0016
002e
0083
008d
0055
0036
0037
002f
0010
0005
7ff8
7ff9
000c
0011
0006
0011
0011
7fd0
7feb
7fe3
7f81
7f66
7f34
7f16
7f01
7f44
7f92
0003
000c
00b3
00d1
00ac
0099
0084
0055
0026
7ffe
7ff5
0003
0012
000b
0017
7ffe
0018
0013
7feb
7fe2
7ffc
7f9a
7f8d
7f47
7f24
7f76
7fb3
7f90
003a
0046
0097
0082
0088
006c
0052
0010
7fde
7feb
7ff4
000d
0016
0001
0003
000e
7fff
0005
7ff2
7fbb
7fa6
7f8e
7fa2
7f84
7fa4
7fe3
0017
000d
0017
7ff2
0024
0020
0017
000c
7fed
7fd6
7fed
7ff0
7ff3
7ff9
7ffa
7ffa
7ffe
0010
0005
7fe4
7fbe
7f93
7f78
7f82
7f8a
7f68
7fcc
7ff0
0002
002b
7fd3
7fc9
7fe1
7fba
7fd5
7fb8
7f92
7faf
7fcd
7fd8
0004
7ffc
0001
0016
0017
0015
000b
7fed
7faa
7f76
7f6c
7f68
7f67
7f99
7fb6
7fd4
0013
003c
7fc1
7fc2
7fb2
7f84
7f8b
7f70
7f7b
7f9b
7fba
7fdd
7ff3
0016
7ff6
7ff4
7ffb
0009
7ffc
7fea
7fbe
7f75
7f6f
7f78
7f7b
7fa3
7fa0
0007
000a
0020
7fab
7f96
7f76
7f41
7f87
7f59
7f81
7fa4
7fd9
7fe6
0014
0013
000d
0012
0013
0004
7fe8
7ff4
7fc5
7fbb
7f9c
7fa6
7fca
7fb4
7fc2
7fe4
0004
7fef
7fc7
7fbe
7f78
7f78
7f78
7f71
7f87
7fb9
7fca
7ffe
0008
0012
7ffc
0006
0001
0005
7ff1
7ff9
0009
7fea
000b
0011
7fe5
7fcc
7fa7
7fad
7fde
000a
000a
7fcc
7fc0
7f93
7f93
7f85
7f94
7fc9
7fee
000c
7ff4
0006
0000
0008
0011
7ff3
7ff4
0017
001e
0042
0057
002a
0008
7fe6
7fc5
7fcf
0003
0022
001f
7ff3
7fed
7fba
7f9f
7f9c
7fb2
7fc0
7fd6
7fee
0001
0001
7ff9
0000
7ffe
0006
000f
001f
0048
006d
007b
0068
0036
0074
0044
003b
0054
0033
004a
002c
0022
7ffe
7fe0
7fde
7fd7
7fd1
7fd6
0006
7ffd
7ff5
000d
7ff5
000a
0013
0012
000a
0024
0035
0052
007f
007c
0093
0088
007a
0060
0062
0068
0057
0052
0042
0017
7fe4
0004
7ff2
7ff6
7ffd
0006
0019
0010
7ff7
0005
0017
7ffc
7ff8
0016
0002
0014
0013
0003
001c
0029
000c
0023
004b
005c
0049
005d
0035
0019
0001
000a
7ffd
0005
0001
7ffa
7fff
7ffd
7ff4
0009
0006
000c
0010
000a
0004
0002
001a
0010
0005
0010
0008
001e
0012
000e
002a
000e
000d
001d
0003
7ffb
0018
000d
0006
7ffc
7ff6
0010
