00091
0007f
3ffd9
00059
00052
00085
3ffce
00019
00099
3ffc2
3ffee
00043
000c1
0007e
3ffb1
3ffdc
3ffd8
0004c
0008b
0000a
0000e
3fff6
3ffc2
00016
0009c
0002f
3ffb9
0004e
00082
0006c
00034
3ffe2
3ffb5
3ffc3
3fff4
000c2
3ffb7
0009d
0003d
00061
0004c
0006e
00003
3ffab
3ffd4
00078
3fffb
00022
00098
3fff5
0001b
0000e
00054
000a3
3fffe
00023
000ab
000b0
0000d
00078
00091
3fff9
3ffef
00034
00092
3ffeb
3ffd4
0006f
00042
0008b
3ffae
00093
3ffcb
3ffc8
0000d
3ffba
000a9
3ffd4
3ffc3
000a8
0001e
0001d
00025
0004b
000d1
00007
3ffed
0003e
00042
3ffbb
000ab
0005e
3ffde
000ad
00036
00088
3fff2
3ff64
3fff2
3ff13
3ffe3
3ff85
00029
00019
00035
3fff3
00088
3ffef
3ffec
000bb
00046
00077
00017
00027
00009
3ffd8
3ffbd
00079
00053
3fff1
3ff96
00028
3ff51
3ff09
3fea5
3fd8a
3fcdf
3fbd1
3fce8
3fce6
3fdb1
3fefc
3ff86
3ffa8
0001d
00095
00075
0006c
00001
00005
00091
00067
00078
0004c
0005c
3ff8e
3ff9a
3ff8f
3fe94
3fe9c
3fe7f
3fe05
3fd85
3fd11
3fb85
3fb2a
3f9e3
3fbf8
3fd76
3fec5
3feb4
3fe4f
3fe6d
3fee1
3ff8e
3ffcb
00012
00065
00082
00086
3ffac
00087
00056
3fe7d
3fe29
3fdd5
3fd8f
3fd01
3fdcd
3ff4c
0002d
002b5
00409
00336
00240
001de
0025f
3ff9a
3ff6e
3fe32
3fcc5
3fcfe
3fe47
3ff29
3ffdf
00046
000c7
3fff9
3ffbf
3ffb8
3fe46
3fd60
3fce8
3fc52
3fc85
3fec6
3ffe6
000f4
003ab
00460
00600
00608
00646
002d8
00224
0003b
0008e
000a1
3fdd7
3fc21
3fdb8
3ff6e
3ff6a
00083
000c2
000c3
00063
3ffc4
3fe34
3fd47
3fcd5
3fb92
3fed4
3ff75
3ff5f
3febd
3ffe7
001c2
00524
002d7
002e4
00097
0003a
00027
3ff0d
0007e
3fec8
3fce9
3fd64
3fec0
3ff74
000b5
0003b
00023
0000d
3feb7
3fd32
3fdd9
3ff64
3fec4
3ff44
3ffab
00151
000cb
0003c
00220
0038e
0032c
3ffe0
3ff17
00009
3fe1b
3ff32
3fe04
3fde0
3fdbc
3fe74
3ff53
3ff82
000a0
00023
3fff9
3ffb3
3ff82
3fdd7
3fedf
0010e
00161
002cd
002c8
00265
0039b
001d1
0006d
00077
3fe2d
3fee9
3ffc9
00145
3fff9
00106
3ff64
3febf
3fed1
3fe7f
3ff92
3ff6e
0005c
3ffe2
00025
3ffad
3ffcb
3ff68
001fd
00499
0036f
00564
00229
0023e
003da
3fec6
3fef5
3ff70
00046
0017d
00536
00276
0027f
00418
002f6
001bb
0005c
3ffb8
3ff4b
3fff8
00001
00053
000ac
3ff8a
3ff43
001ad
0045c
0050b
002fe
003bd
00493
002ec
00009
3fd12
0028a
0057c
00457
003b6
005ac
005b6
005ed
00618
00412
001f5
0000d
3ff18
00026
00054
0005b
000c1
00077
3ff5e
0003d
00289
003d1
00398
0025c
002f7
001e7
001b8
3ff1c
3fe76
003fd
00579
003f7
00492
00419
0059f
005b8
00478
0029c
00026
3fe39
3fef7
3ffae
00056
00058
00027
00013
00085
00054
00129
00118
002fb
00216
00103
3fffd
0005f
3ffd1
3fee0
0014b
000bc
00380
003b6
003b7
00288
001a0
00208
0000a
3fdf3
3fd06
3fec5
00035
0001e
00024
00092
00085
00058
3ff95
00016
00153
00145
000d7
000db
3fe6e
3ff45
3ff44
3fee7
3ff27
3fef9
003d3
00599
0055d
002af
00042
3fed5
3fced
3fc2a
3fd42
3fec8
00006
00050
3fff5
000a8
0000e
3ff88
3ffe1
0000b
00066
3fefa
000cf
0024d
3ff76
0014e
001da
3ffbf
3fde5
3ffa6
0021f
003d2
003cb
000f3
3fdd8
3fc6b
3fb0d
3fc86
3fd2d
3fe22
00010
3ff98
0005a
00038
3ffdb
3ff7c
3ff40
3fe98
3fe4a
3fe97
000a3
0013d
00169
00227
00322
001e9
000e3
00137
0031d
000ed
3ff5e
3fea0
3fcd7
3fce1
3fca4
3fcd7
3fdac
3fe4e
0002b
0002d
3ffda
0009b
00000
3ffa5
3ffdc
3fec3
3fd29
3fd1b
3fd29
3fecf
00079
0036e
002c6
3fe4f
3fe48
0001b
00210
3febd
3fe8f
3fd4d
3fe60
3fe7a
3fd9f
3fd80
3fd61
3fe26
3ffb5
0000a
0008e
00065
000c9
00024
3ff52
3fedd
3fdfd
3fcd3
3fcbd
3fca0
3fca7
3fc41
3fcd6
3fbe7
3fd23
3fd96
3fd41
3fda1
3ff3a
3fe32
3ff7f
3fecb
3fe92
3fea7
3fecd
3ff3f
00038
3ffc3
00016
3ffda
0001c
00055
00007
3fed3
3fe0f
3fd0f
3fb64
3fab8
3fa14
3f7fb
3f9dd
3fa05
3fe0b
3fd41
3feb6
3fe74
3ff95
3fd5f
3ff22
3fef5
3fe53
3ff87
3ff33
00015
000ab
00067
00020
0000e
00000
000ab
3ff4b
3ff36
3fe16
3fd4c
3fbd4
3fb44
3faca
3fa8a
3fb17
3fcdf
3fce9
3fcdc
3fe33
3fe0c
3fd10
3fc75
3fe80
3ff2a
3ff84
0003d
3ffef
0004d
00069
00006
0000d
00083
00021
00025
0007e
3ffaf
3fe74
3fd87
3fca3
3fd7f
3fd62
3fd25
3fe12
3fdd5
3fd1d
3fd93
3fc9a
3fc3e
3fc51
3fcef
3fd46
3ff41
000eb
00082
000a2
00109
00038
0003e
00061
0009a
00079
0002d
3ffc4
3ff91
3feac
3fe74
3fdf5
3ffd8
3ff2c
3ff57
3fd86
3fdfb
3fd74
3fdd9
3fc53
3fc08
3fc82
3fdd3
3ffca
000da
001fa
002da
00263
0011e
3ffec
000cd
3ffe8
3ffff
3ffaf
3ffea
000ad
0007c
000c3
0008d
000cd
00122
0009d
3ff99
3febb
3ffe9
3fe0d
3fd89
3fd66
3fed2
000db
00176
00183
00373
003b6
00223
0014e
00108
3ffcc
00076
3fff8
0002b
000ab
000ac
3ffee
00010
00125
000de
00281
002bf
002cb
0026b
000f6
0028b
00245
0022c
0020b
003d1
00425
0048f
004c2
00550
003c5
00178
000b3
3ffe8
3fff2
00032
0002a
00007
0009c
0002a
3ffc7
0009d
000f3
00155
001da
0021c
00332
0034c
003b4
00463
0046d
0056b
00320
00224
001cf
002ab
002e1
00217
00175
0009b
00038
00023
0003e
3ffc5
00022
3ffdb
00047
3ffc0
000bd
0006d
0003c
3ffe5
000b8
0009b
0006a
3ffde
3ffda
00025
3ffde
00028
00076
0000b
00040
000d2
000bb
00069
00040
3ffcc
000cf
00071
3ffda
0000e
3ffeb
