3ff72
3ffec
3ffec
3ff41
3ffa6
3ff8e
3ffff
3ff85
3ffcd
00029
3ffcd
3ffc9
3ff6e
3fff7
3ff3e
3ff60
3ff24
3ff4d
3ffe6
3ffcf
3ff22
3ffab
3ffc3
3ff92
3ff2e
3ffb1
3ffc2
3ff78
3fff3
3ff17
3fffe
3ff38
3fff7
3ff80
3ffbe
3ff7a
3ff59
3ffc3
00015
3ff3d
3ff79
3ff52
3ff20
3ffdb
3ff68
3ff4f
3ff6d
3ff63
3ffce
3ff35
3fffd
3ff43
00003
3fff1
3ff4b
3ff9c
3ff9e
3ffd5
3ff79
3ff22
3ff49
3ffb2
3fff8
3ffc4
3ff5f
3ff85
0001f
3ff13
3fff5
3ff59
3ff27
3ff4f
3ff72
3ffae
3ff85
3ff87
00036
00006
00017
3ff54
3ff21
3ff91
3fff2
3ffc3
3ffd6
3ffc0
3ff4b
3fff4
3ff39
3ff7c
3ff13
3ff65
3ff24
3ff63
3fe81
3fe17
3fee9
3fefa
3febe
3ff95
3ffd2
3ff03
3ff68
3ffd0
3ffde
3ff97
3ff00
3ff54
3fecb
00024
00016
3ff36
3ff28
3ff7a
00016
0000c
0001e
3ff65
3ff5a
3fea6
3fdb9
3fcfa
3fb95
3fd2e
3fd28
3fc2f
3fde6
3fffd
3ffc0
000b6
3ffc9
3feeb
3fe95
3ff40
3ff63
3ff92
3ff78
00033
0001d
3ff9c
3ffae
00033
3ff51
3ff37
3ff6b
3fe9f
3fdea
3fdfc
3feae
3ffc1
00072
0007b
3ff49
3fefa
3ff62
3ffb6
00105
0010b
001fb
0013c
00132
00189
002d5
00269
001b1
000ef
00095
00038
3ff3f
3ff2e
0001b
3ff36
3fefb
3fd91
3fee8
3ffdf
3ffea
000fd
0020c
001b4
0004a
000a1
3ffb8
3ff07
3ff6a
3ff81
00006
001f2
0011d
00144
003de
004a6
0053a
002c4
0015e
00055
3ff93
3ffc5
3ffab
3feff
3fd2c
3fcaf
3fdfb
00043
00153
00299
00287
00235
000a4
3ffca
3ff4b
0000c
00118
000fd
00141
002cd
0026c
002e5
0040c
0056e
006a1
004c9
000bd
3ffe3
3ffd0
0002d
3fffc
3fea2
3fbee
3fc85
3fd7b
00028
001f8
00094
0010f
0020e
00141
3fe97
3fce9
3fe21
3feda
0001c
00051
00255
00276
00382
0058c
00742
009ae
00641
00124
3ffe2
3ff33
3ff88
3ff20
3fe19
3fdd1
3fdfb
0003f
3ffdc
001ae
00176
00197
0043d
002bc
3fede
3fc47
3faa9
3fb03
3fd19
3ff56
3fffb
00244
004d9
00704
00999
00c0f
007ed
0016b
3ff71
3ffd4
3ff72
3ff41
3ff66
3ff5d
3ff97
0015a
00285
003ef
0045b
0042a
0050a
00430
00338
3ff4f
3fd5e
3fb9c
3fbbf
3fb99
3fafb
3fc90
3feef
00095
00338
0066d
004d5
001a5
3ff71
3ff3f
00001
3ff63
3ff99
3ff61
3ffe9
00226
002a0
003cb
00381
00291
002d4
004ad
0045e
00012
3fd47
3fca0
3fc5e
3fb26
3f93c
3f62d
3f6fb
3f89c
3fa9c
3fe15
00036
0008a
3ffac
3ffaa
3ffb9
3ff98
3ff6f
3ff92
00117
00278
00234
0019e
000ed
002bc
005a9
00549
0056b
0008f
3fd40
3fae4
3fbdd
3fd31
3fbf8
3fb68
3f861
3f74e
3f872
3faf3
3fe91
00013
3ffff
3ffb3
3ff49
3ff3d
3ff78
3ffd7
00092
001a7
00136
00167
00128
003ce
00441
0032a
002f5
3ff68
3fcba
3faad
3fd30
3ff00
3fed8
3ff73
3fdd7
3fc19
3fa4c
3fbb4
3ff41
3ff30
3ffe2
3ffb6
3ff3a
3ff9e
3ff0b
3ffae
3ffa7
3fffb
3ffd1
001c0
002c5
00352
000a3
00120
3ffcb
3fda0
3fd44
3fc34
3fca5
3fcdb
3fe7c
3feb0
3fecf
3ff47
3fcde
3fde4
3fef1
3ffa0
3ff10
3ff29
00021
3ff19
3ffa1
3fea9
3fdfd
3fd2f
3fe22
000ae
0031e
0017b
0015d
0012d
3fef0
3fc79
3fbf2
3fc57
3fc40
3fd5c
3ffde
3ff1a
3ff3e
3ff18
3fef5
3ff45
3fffa
00025
3ff70
3ff7f
3ffac
3ffc8
3ff19
3ff7a
3fdb6
3fb6a
3fa93
3fc55
3fdf8
3ff32
3fed7
3ff3e
3fd80
3fb2f
3fc17
3fd29
3fefa
3ff09
00028
000cb
00020
000dc
00032
00022
0001f
3ff76
3ff81
3ff67
3fff6
3ffff
00011
3ff6b
0002b
00056
3fc6b
3f985
3f9ef
3fba8
3fd63
3fbea
3faba
3fadf
3fdaa
3fef9
0018d
0025f
0018c
00190
00074
0000d
000dd
000e0
3ff43
3fff8
00005
00016
3ff5f
3ff9a
3ff7d
00148
001b2
00407
000b5
3fc20
3fa5c
3f893
3f95f
3fb3f
3fd49
3fea5
3ff6f
3ffe6
001d2
000ea
001a0
00117
00195
0014e
001ce
000f0
00012
3ff50
3ffc8
00001
3ff5e
3ffa9
00023
001f2
00353
0047a
00304
001e9
0009f
3fe93
3fe7a
00021
001d3
000af
000f8
000fc
3ffb1
000b5
000b1
00026
0012f
00208
0017c
00020
3fffa
3fffe
3ff34
3fff6
3ff12
3ff8e
3ff4e
00043
00230
0028a
00318
00456
003a9
00338
004b0
002eb
00230
3ff62
3ff6f
0019d
000d3
00159
001c9
00190
0013a
002ef
00231
3ffb7
3ff16
3ffae
3ff6c
3ff56
00005
3ff08
3ffa3
000dd
3ffb9
0010c
002d5
00416
002ac
00244
00139
00195
000fc
00106
0013f
00053
00101
00084
0019f
00197
002ab
00348
000b6
00007
3ff38
3ff6e
3ff6f
3ffcf
3ff1d
3ff8a
3ff6e
00050
3ff90
3ff0b
3ffd4
00197
00252
00067
0020e
00353
0041b
00217
00051
0003b
00083
00113
00112
001d5
001a8
001bb
0009c
3ffe9
00019
3ffaa
3ffc7
3ff45
3ffa5
3ffcb
3ffb7
3ff4e
3ff8b
3fe9c
3ff5e
00142
0013b
0013b
00231
0021a
00171
001a8
00184
0017b
000af
3ff38
3ffe4
000ba
0004b
000f9
3ff64
0002a
3ff80
3ff7e
00027
3ffee
3ff85
3ff73
0002c
3ff0c
3fefd
3ffa3
3ffd1
3fff1
001a1
0021d
001a0
0010e
00178
002b6
0023e
00157
000a7
0013e
000ce
3fff4
3ffe2
3ffb5
0000d
3ff58
3ffc4
00019
3ff33
3ffa4
00009
00018
3ff29
3fffe
3ffbd
3ff00
3ffa2
3ff1b
00087
00065
0011a
00118
001eb
0001b
00092
0007c
000f1
3ff5f
3fff9
3fef4
00017
3ff9c
3ff4c
3ffeb
0000c
3ff1b
3ff87
3ffb8
3ffb1
3ff58
3ff81
3ff72
3ff8c
3ffd6
3ff59
3ff24
3ff8e
3ff6a
3ffe4
00004
3ffc6
3ff60
3ffae
3ffdb
3ff58
3febd
3fefa
3ffc9
3ffc7
3ff6c
3ffd5
3ff92
3ffb5
3ff78
3ff1b
3ffce
3ffe1
3ffea
3ffc0
3ff3d
3fff4
3ff7c
3ff70
0002f
3ff76
3ff63
3ffed
3ffac
3ff10
00005
3ffb6
3ff26
3ff0f
3ff4c
3ff0b
3fffc
3ff79
0002d
3ff30
3ffc1
3ff97
3ff3f
3ffe2
