3ffd2
0005d
3ff97
3fff8
3fffd
3fff2
00031
00093
3ff9f
3ffc0
3ffc4
3ffa3
00030
00087
0004c
3ff85
3ffef
00093
00019
3fff3
3ff8f
3ffb4
00023
00081
00046
00055
3ff8d
3ff92
0005f
0004b
00060
3ffe8
3ff7f
3ffb3
00042
000d7
00092
0002c
000b0
000bc
000c8
000bd
00077
0007f
3ff78
00079
000a4
0005d
3ffe6
3ffad
000ae
00083
3ffca
00093
3ffe7
0006d
3ffaa
3ff99
3ff7f
3fff3
00049
0002d
0004b
000d2
00095
0013e
00190
001c4
001c5
001dc
000f1
000ab
0018d
000af
000ab
000bb
000b7
0005c
0007a
00017
00043
3ffda
3ff79
00029
3ff8e
0000d
0006c
0003e
0008d
3ff85
00099
000a8
000c8
00196
00167
001c2
001b7
001a7
0026e
0024a
0016d
001cc
002e4
002e1
00313
002b9
002c2
0019a
0016c
00059
3ffc2
00050
00015
3ffe5
3fff7
0007d
0006c
00027
00028
000fb
3ffe4
3ffcc
000f3
0005b
00071
00029
00060
00090
001ed
001e8
002fc
00309
003d5
00440
003a8
00275
00059
000a7
00017
00000
00019
0004c
0002b
3ffc6
3ff98
3fff5
3ffa9
3ff54
00081
3ff5a
0003c
3fdc5
3fed2
3ff2f
3ffb3
3fef2
3fef2
00034
0016f
002af
00255
00215
001a5
00121
3ffdf
0000e
3ff6f
00089
3ffed
0007b
00073
3ff6c
00035
3ffe9
00030
00004
3ff2c
3fefe
3fd6f
3fca4
3fe0d
3fc2c
3fe50
3fec3
3fe3c
3fe70
3ff91
3fef4
3fe4e
3fe62
3fd7c
3fe5c
3fea4
3fe91
3ffc9
00078
00030
00047
00004
3ffe8
00008
3ff81
3fefe
3ffd6
3fe92
3fe39
3fd6a
3fdf7
3fc58
3fbe7
3fdda
3fdf6
3fccf
3fcfa
3fc40
3faea
3facf
3fba9
3fb76
3fc6a
3fea1
3fec3
3ff83
3ffa0
3ffd2
3ffd9
0008c
3ff4c
3ff6b
3ff39
3fe0d
3ff92
3ff48
3fdf6
3fd9f
3fd45
3fcb7
3fc31
3fc4a
3fc09
3fb4d
3fa96
3f859
3f8e0
3f9a1
3f9b1
3fb98
3fc1e
3fd94
3fe79
3fee7
0002a
3ffec
3ff93
3ffc1
3ff84
00004
3ff8e
3ff52
3ff9b
00077
3fec5
3fdac
3fe37
3feda
3fdd5
3fe04
3fba8
3faf0
3f8ab
3f82e
3f99d
3fac3
3fbd5
3fb2c
3fce6
3fda2
3fe3e
3ff47
00061
3ffa2
0007b
00053
3ff70
3ff2e
00035
000ad
000a6
00260
3fff3
00079
00032
3fe90
3ff06
3fddb
3fb81
3fb6e
3faa4
3fa6b
3fb8b
3fcf9
3fdd5
3fd26
3ffb4
3fe25
3feb6
3ff9e
3ffd1
3ffb4
00032
3ffac
3fff4
3ffad
00016
3ffd3
001fd
0016c
000af
000dc
0009c
0009c
00019
3fef7
3fc6f
3fca8
3fd27
3fd24
3fdc6
3fef6
00067
0015d
0021f
3ffff
3fedf
3ff87
3ffd4
3ffb3
3ffd7
3ff83
3ffc4
00049
000ee
0016c
001dd
000dd
00136
000db
0023f
00229
0018c
3fead
3fd9c
3ffe6
3ffc7
3fda8
3fdc1
3ffb9
00144
00310
0056f
002ec
3ff2b
3ff0b
3ffb6
3ffb7
00081
00063
3ff73
3ff40
0004d
0025c
00145
00117
0008a
0024a
001e9
001c1
0004f
3ffad
3fff2
0002d
3ff7c
3fdf6
3ffbb
3ff05
001a1
0043d
006b8
003a1
3ffb6
00003
00054
3ffc2
0000e
00061
00005
3ff35
000d8
0022a
001dd
00291
00267
0029a
002d1
000f3
3fea0
00017
00126
0008b
3ff1b
3ff22
3ffe0
001d7
001d2
004cd
00596
003aa
3fff3
3fef4
3ff7c
00064
3ffcd
00014
3ff91
3fe7c
3ffcf
00241
002ff
001ee
00307
003d1
004a9
00138
3ffaa
001cc
001a7
00042
3ff27
0002c
000ed
00227
002f4
002b7
0035d
001cb
3ff14
3ff6d
3ff6a
0001b
3ff92
3ff8e
3ff82
3fdff
3feea
00357
0036a
00242
0037c
005e9
005dc
001ca
00110
0028c
00158
3ff4c
3fe9b
0007b
0017d
000b1
00005
00164
000d5
3ff98
3feeb
3ff56
3ffe9
00019
00054
00074
3ffec
3fd24
3fe81
00166
002a7
00305
003cf
00693
006ae
00374
001f2
001f8
0013e
00000
0005c
002bd
000f2
00064
3ff4d
000a0
3ffde
3ff39
3fe7c
3ffc8
0003f
3ffc7
3ffb1
3fffe
3ff2b
3fd52
3fd62
3febc
001d3
002ed
002a9
0049a
005ae
006b1
0031c
000d7
001bb
002fc
001f0
00269
00145
0002a
0006c
00078
3ffbc
3ff0c
3ff4c
3ff74
3ff6b
00025
3ff98
00041
3fef1
3fe44
3fd37
3fdd6
00027
001e6
002fb
003f9
00654
0071f
003ac
00348
0036e
00271
00202
00321
00222
00161
0004c
3ff80
3ff62
3ff5b
3ffe5
3ffb1
00075
3ffb8
3ff98
3ffdb
3ff85
3fdc7
3fd58
3fdb3
3ff0f
000a1
001ff
0034a
00231
00451
0052c
00624
0053a
002d5
001d0
00385
0027b
001af
3ffa8
3feb2
00016
3ffaf
3ffd8
3ff9b
00015
3fff3
0000d
0002b
3ffd5
3ff28
3fe2c
3fce5
3fe98
3ff28
00181
002bb
003e2
004fe
00512
00441
003ab
0024a
00321
002eb
001de
00040
3ff03
3fe9e
3ff32
0000c
3ff7b
3ffe3
3ffb6
3ffb5
3fff3
0007f
00023
3ffb5
3fe68
3fe1c
3fd76
3fe4f
3ff3b
3ff5e
0004e
00176
000a2
00088
00193
0012c
00003
3ff9c
3fe3d
3fe4e
3fe97
3feaf
3ffdf
3ffc5
3ff82
0008a
00035
0006e
3ffd4
3ffc2
0000d
00027
3ff57
3fef8
3fdbd
3fd24
3fbe3
3fbe8
3fb3b
3fd10
3fdaf
3fe32
3fd51
3fc79
3fc00
3fcd9
3fe90
3fe89
3feb8
3ff8b
00010
3ff77
3ff8f
3ffd0
3fff2
0004f
00040
0002b
3ff7e
3ff99
3ffcf
3ff83
3ff36
3ff60
3ff01
3fe82
3fe1c
3fdce
3fdda
3fd7d
3fd7e
3fd61
3fe00
3ff4e
3ff5b
3ffc6
3ffa5
00044
3ffe2
3ff7a
3ffd6
3ff9c
3ff9f
0007d
3ff8c
00022
3ffc5
3ffa5
3ffef
00053
3fff9
3ff72
00033
3ff75
3ffeb
00007
3ff6d
3ffaf
3ffcf
3fff3
3ff80
3ffb5
3ff73
3ff91
00012
3ffcb
00066
00090
0007f
00006
0005f
00087
3fffa
00019
3ffe6
3ffb4
00072
00056
3ffb6
3ffd4
00040
3ffcb
0001c
3ffc8
00054
00058
3ff8e
3ffa9
00073
0005a
3ffd4
00051
3ffe1
3ffe0
00032
0003a
3ffe4
3ffbc
3ffd9
00082
3fffa
0004a
3ffb5
0002e
3fffc
0007a
00011
3fff0
3ff70
3ff9e
0002c
3ff7e
3ff93
3ffad
3ff7b
3ffa6
3ffd3
3ff89
3ffa6
3ffb2
3ffc0
00079
3ff8a
3ffb3
3ff8e
3ffb0
00016
