0000c
00010
00079
0002f
000c6
3ffa8
3ffc5
00040
00098
00095
3ffac
00028
0002b
3ffea
0009f
0002b
00003
3fffa
00011
00037
00066
000c2
3ffcc
0008f
3ffec
00066
3fff8
3ffff
000b7
3ffd9
00029
000b4
00045
00007
000b3
00038
00011
3ffe2
3ffe8
3ffa2
0009a
3fff5
000b8
3ffd0
00050
0008b
0009c
0007c
00004
0007b
3fffc
000c2
00096
3ffca
3ffcb
0004f
000ad
000aa
00086
3ffe7
0009b
3ffb6
3ffc3
0007a
00067
3ffc4
3fff3
0004c
3ffeb
3ffd8
00030
0009c
0007e
00017
0003e
000b1
00096
000ae
3ffa9
00087
00033
00078
00067
00098
3fff2
0000a
0009e
3ffe8
00012
3fff5
3ffc6
00067
00001
00067
3ffab
00015
00053
3ff8e
0005e
3ffb3
3ff58
3ff77
3ff8a
3ffb1
3ffec
3ffb7
00040
3fff8
0004d
000c3
3ffc0
00051
000bd
3ffbb
00069
3ffb0
0002c
3ffdc
00008
3ffb2
0003b
3ffe4
3ff47
3fe9b
3fe89
3fe9a
3fe55
3fd41
3fe61
3fec8
3fef1
3ffb7
3ff35
0005e
0000e
3ff9e
000b3
3fffa
000b0
000aa
000a1
00006
0009b
3ffd6
3ff86
3ffeb
3ffa3
3ffde
3ff92
3ff00
3fd8a
3fcfb
3fc33
3fb8d
3fa72
3fa7d
3fa38
3fae6
3fbae
3fcb6
3fdaa
3ff2b
3feb6
3ffd7
00090
00073
3ffe2
00006
00086
000b8
0000d
0001e
000c7
000ec
00115
001a1
0026a
001ef
0020f
0005f
3fe59
3fc89
3fc62
3fe1f
3fedc
3fea6
3fe5c
3fe1a
3fd20
3feec
3fdfc
3fe89
3ff05
3ffac
3ffa9
00014
0007a
000b9
00098
00168
001b5
00189
00239
00365
004a7
003af
0028b
002cd
002fc
00093
0006c
00111
00326
00380
0025f
001e7
00077
3ff79
0003f
3ff6f
3ff78
3fff9
00060
3ffdc
3ffa3
000c2
0004b
00130
00268
0022b
002e8
00537
00383
0026b
00313
0041f
003eb
001f8
00127
00199
002c7
00445
002ed
00281
00200
0000c
00136
00107
3ff44
3ffa6
00068
000a0
00052
0009a
000cf
001b7
0025b
002ad
000fb
0014e
0017b
000fb
00266
002f1
003c0
0030d
0045f
00561
004f4
00587
0039c
003ad
00317
00294
00138
3ff8e
3ff40
3ffa2
00054
3ffd5
00020
000a8
000bb
00221
00271
00207
00060
0009c
3ff2e
3fff8
0017d
0029f
001d3
0043e
00576
006b5
007a2
005a9
00475
004a3
00412
00376
00188
3ff60
3fef8
3ff95
00014
3ffd8
00094
00068
000bd
0022e
002a1
0014e
00079
0006d
0001f
00194
000d0
00107
001b2
001ae
001c0
00522
006aa
00471
0047c
00373
0035a
0021b
00186
3ff79
3fe76
3fff5
00026
000ad
00084
3fff6
0005e
00160
0018b
00041
00058
00178
00102
3fff1
3fecd
3fcce
3f93f
3f58c
3f82d
0002c
0046b
00403
00194
00091
0001b
3ff6c
3ff7a
3ff0e
3ff52
000a3
00073
00001
0008f
00054
0009a
0013f
00077
00033
3ff97
00045
3ffd0
3fefa
3fca6
3f8ef
3f397
3f224
3f895
3ff07
00242
00174
00051
000a9
3fea4
3fe43
3ff98
00021
3ffab
3ffbc
0005a
3ffa8
3ffda
0004c
0011e
00164
000e2
00106
3ffa9
3ff49
3fe6d
3fc51
3fa95
3f79f
3f543
3f6f1
3fcae
00014
000b1
0016e
0041b
0046a
002a8
001b2
001b5
0017b
00080
00026
3ffc4
3ffc9
0005c
00088
00032
00087
00086
3fe83
3ff56
3ff14
3fc0c
3fb34
3f99f
3f8b1
3f80a
3fa22
3fc93
0001b
00060
00595
00689
00563
004c9
0041d
002a9
00134
3fff3
3ffab
00017
00093
0005b
000b5
3fff1
000be
00096
3ff56
3ff0f
3ffdd
3fcd1
3fc68
3fa37
3f91f
3fbb0
3fd97
3fc81
001cd
0022d
004b9
0040c
0043e
00360
00292
00082
3fef1
3ff58
3ffa0
00067
000b3
00006
00017
0006e
3fff8
00024
3ff93
3fddb
3fd2c
3fc74
3fd12
3fc1e
3fd1e
3ff14
000b8
00068
000b7
3ff93
00123
00103
000b8
00062
3ff69
3feb2
3ff6a
3ff7d
3ff99
3ffc9
3ffce
3ffce
3fff0
0007c
00026
3ff22
3fdef
3fc96
3fbc0
3fc0e
3fc4e
3fb41
3fe5e
3ff82
0000f
00156
3fe97
3fe45
3ff0b
3fdd2
3feaa
3fdc1
3fc8d
3fd7a
3fe68
3febf
00021
3ffdd
00008
000ad
000b9
000aa
00055
3ff6a
3fd50
3fbb3
3fb62
3fb43
3fb3b
3fcc5
3fdad
3fe9c
0009a
001e4
3fe07
3fe13
3fd92
3fc23
3fc57
3fb7f
3fbd7
3fcd5
3fdd2
3fee5
3ff97
000b2
3ffb0
3ffa4
3ffd6
00049
3ffe2
3ff52
3fded
3fbaa
3fb7b
3fbbc
3fbd6
3fd19
3fd01
00038
0004c
00101
3fd5b
3fcb2
3fbaf
3fa0b
3fc36
3fac7
3fc05
3fd1f
3fec6
3ff2f
0009e
00096
00066
0008e
00095
00021
3ff3d
3ff9d
3fe27
3fdd5
3fce1
3fd30
3fe54
3fd9f
3fe0f
3ff22
0001e
3ff7b
3fe38
3fdf3
3fbbe
3fbc3
3fbc0
3fb86
3fc36
3fdc6
3fe51
3ffed
00042
00090
3ffe1
00031
0000b
00026
3ff88
3ffc9
00046
3ff53
00056
00089
3ff25
3fe5f
3fd39
3fd67
3fef4
00050
0004e
3fe63
3fe00
3fc98
3fc98
3fc29
3fca4
3fe4b
3ff6c
0005f
3ffa3
0002d
00003
00043
00088
3ff97
3ffa1
000b4
000f1
0020d
002bc
0014e
00043
3ff32
3fe24
3fe7b
0001b
00111
000fb
3ff97
3ff65
3fdd2
3fcf5
3fce3
3fd92
3fdff
3feb1
3ff6c
0000b
0000a
3ffc9
3ffff
3ffee
00032
00075
000fa
00240
00367
003d6
00342
001ae
0039f
00223
001db
0029d
0019c
00252
00160
00112
3ffee
3ff00
3fef0
3feb6
3fe8b
3fead
00034
3ffe5
3ffa7
00066
3ffa5
00053
00096
0008d
00052
0011f
001a9
00291
003f7
003df
00495
00444
003cd
00303
00313
00342
002bb
0028d
0020f
000b5
3ff22
0001e
3ff92
3ffaf
3ffe6
00032
000c7
00081
3ffb9
00026
000bc
3ffe0
3ffc0
000b0
0000d
000a1
00099
00015
000dd
00145
0005e
00117
00257
002e4
00247
002ec
001aa
000c9
00007
0004d
3ffeb
0002b
00009
3ffce
3fff4
3ffe7
3ffa3
0004c
00033
0005e
00080
0004d
00021
0000e
000d2
00081
00026
00082
0003f
000f3
00091
0006f
00152
00072
00065
000eb
0001c
3ffd8
000bf
00069
00031
3ffdd
3ffb2
0007f
