3ffaf
3ff39
3fff6
00009
00014
3ffee
3ffb4
00015
3ff5f
0000d
0000e
3ff77
3ff73
3ff70
3ff7b
3ff8c
00003
00009
3ff39
00014
3ffbf
3ffc8
3fefb
3fff2
3fff6
3ff0a
3ff87
00007
3ff32
3ff7f
3ff36
3ffba
3ff18
3ff91
0001b
0000f
3ff09
3fefe
3ff18
3ffb4
3ffc9
3ff8a
3ff76
3ff46
00019
3ff39
3ffd4
3ff69
3ff6c
3ff10
3ff9c
3ffe8
3ff27
3fff3
3ffaa
3ff29
3ff4b
3ff9b
3ff94
3ff3a
3ffc1
3ffd5
3ff57
3ffd2
3ffea
3ff8a
3ff23
3ff29
3ff0e
3ff2e
3ff7b
3ff68
3ff54
3ff4e
3ffd2
3fffb
3ff85
3ff35
00016
3ffef
00001
3ff61
3ff05
3ff8b
0001c
3ffd0
3ff8e
3ffe2
3ffcd
00001
3ffb5
3fff2
3ffe3
3ffa0
00059
00128
00272
00208
00212
00249
00196
001c9
00165
0001b
3ffdc
3fe4c
3ff04
3ffea
0000c
3ff40
3ffa9
3ff58
3ffa6
3fff1
3ffbc
00008
0005f
3ffff
00170
00136
0034e
002d7
00385
0043c
004ea
00544
004bc
00379
001f5
00191
0028f
00050
3fe3f
3fd44
3fdaa
3fdb7
3ffb9
3ff96
3ff67
3ffd8
3ff23
3ff03
3ff43
3ff44
0002f
0017e
002bb
0022e
0027f
00234
001fe
00298
002a3
00329
0008a
0021b
0026f
3ffd0
3ffdf
3fee6
3fe78
3fcbf
3fbd7
3fc7b
3fefb
00001
3ff4c
3ff92
3ff3a
3ff64
3ff54
00051
001d9
00370
002a1
00204
0030d
0027d
00236
0021e
002d5
0040f
002d3
00105
002b0
00276
00258
3fef4
00100
3ff02
3fc6e
3fc6e
3fdd0
3ff8f
3ffe7
3ffa8
0000b
3ffe1
00036
0018b
0040f
0040a
002d8
000cd
000dc
001cf
0008e
000d3
00262
00241
003bc
00232
000ac
001e0
0018e
001b0
001b6
0003e
3fe47
3fbfe
3fd20
3ff3f
3ff04
3ff7a
3ff9e
3ff69
0002c
00171
00359
0032e
00264
000fa
0019e
000c5
0020b
000a8
0008f
00100
00410
0035f
000c7
001df
002b1
001c1
00291
00152
3ff50
3fc49
3fd38
3fefc
3ff23
3ff61
3ff83
3ff0c
3ffb2
0009f
001bb
0024b
001e6
00076
3ffc2
3fe3a
3fc9f
3f9cc
3faf8
3ff54
004d7
00770
0044c
00283
002bb
00286
003c8
0026a
3ff45
3fc50
3fe25
3fef4
3ff36
3ff58
3ffe5
3ffd8
0000d
000ef
000d7
0005b
3feeb
3fd43
3fafd
3f8d7
3f739
3f700
3f95f
3fe54
003f8
00496
003e8
003a4
0023f
003e6
0039e
00173
3feb4
3fd9b
3ff1b
3fefd
3ff92
3ffe4
0001e
3ffe4
3ff2c
000e8
3ff76
3fd31
3fbca
3f9cf
3f842
3f950
3fae8
3fd99
3feb3
001ae
002a4
002a7
00136
002c0
00367
00351
002e5
00003
3feba
3feef
3ff10
3ff72
3ff3b
3ff23
00009
3ff5a
3ffd6
3fff3
3fefb
3fd2e
3fb11
3f9d4
3fa6b
3fd07
0000f
0007f
000c9
001c9
0046b
00249
0018f
00235
001c4
3ffd9
3fdb6
3fcdc
3fcb6
3fde9
3ffa2
3ff5e
3ffa9
3ffc2
3ff8e
3ff53
3ff96
3ffb9
3feb2
3fe13
3fbfd
3fb5e
3fcdb
3ff62
3fefa
3fd56
00036
003ce
003d8
000b4
001be
001dc
000fd
3feb1
3fc7e
3fc7a
3fd38
3fe0c
3fee1
3fffa
3ffcc
3ff67
00018
3ff3d
3ff83
3ffaf
3ffc2
3fe63
3fc61
3fcba
3fdc7
3ffb1
3fdab
3fd84
000b4
001d7
001f7
3ffb5
3ff34
3ff68
00045
3fe7a
3fdf0
3ff00
3fe94
3ff0b
3febd
3fedd
00007
0000e
00015
3ff40
0001d
00047
3ffad
3fe31
3fca4
3fc68
3fd4f
3fe6c
3fe41
3ff69
000ba
002fe
001b8
3ffd5
3fd81
3ff46
3ffc1
000a8
0018d
00184
00086
00033
3ff0d
3ffca
3ffb3
3ff3f
3ffb7
3ffd7
000b0
0001f
00081
3ff2a
3fea1
3fda0
3fad4
3fa8d
3fb2b
3fec7
00171
003bb
3ff99
3fd47
3fd1f
3ff10
00137
0032f
0023d
002d2
002bd
00136
3ffa4
3ffc2
3fff8
3ffe9
3ffe4
0001e
00004
001be
000f7
0004d
3ff14
3fcdd
3fa69
3f723
3f4f9
3f5ef
3f85b
3fba5
3fbf6
3fc65
3ffdb
0011d
0020a
0033a
000ab
003e8
003e6
0012c
3ff6c
3ff2b
3ff3e
3ff4f
3ff93
3ff99
00057
00294
001dc
0011f
00096
3ff52
3fe03
3f983
3f672
3f6f6
3f515
3f717
3fa5d
3feb8
00246
00311
0034e
00345
0024a
00490
00442
001a0
3fe80
3fefc
3ff43
3ffe2
3ffe2
3ff41
3ff86
0033c
0034d
003e0
00357
0013a
0005e
3fea3
3ff05
3fcec
3fb80
3fb37
3fcbd
00126
00314
003da
00451
003dc
0036a
003fc
00187
0002e
3febc
3ffc4
3ffe0
3ffbb
3ffd6
3ff04
00095
00379
00444
0049e
004e4
00278
002e7
00349
00136
3ffab
3fee6
3fe50
00083
000e9
001bd
00318
0033e
00235
003d7
0022f
3ff98
3ff20
3fefc
3ffb3
3ffb0
3ffa7
3ff56
3fff4
3ffc2
001ba
0041e
0041d
00398
00207
0022a
000b7
3ffb7
3ff07
00050
3ffd3
3ffbf
3ff87
00102
0005e
001fa
0032e
001da
000b5
3ff48
3fe27
3ff66
3ff3d
3feff
3ff0f
3ff96
3ffb6
3ffcf
00113
00212
002d1
00283
0016e
0001c
00109
00140
00185
0006c
3ff72
3ff69
3ff2a
000a8
00080
0007e
00233
00111
3ff9f
3ff82
3ff5b
3fe96
3fef1
3ffcf
3fff8
3ffb5
3ff35
3ff57
000b5
00242
00369
0028b
002af
000a6
001b8
00118
3fffc
3ff23
00023
00059
000dc
000a4
00154
0021e
3ffa5
3fe96
3fe99
3ff43
3ff13
3ffeb
3ffc3
3ff1f
3ff33
3ff5e
0001a
0001b
00003
00174
00257
002c1
00340
0034e
002b6
003f3
0042b
00445
0035d
002f7
00232
00218
3ffd1
3fe4c
3fda5
3fde2
3feb5
3fecb
3ffa5
3ff66
3fffc
3ff63
0001c
3ffe8
3fefd
00014
0002a
3ffc0
000ea
00160
000c5
001da
001df
00380
00400
0044b
0035d
00264
000f6
3ff9d
3fe7c
3fe7a
3fec1
3fec3
3ff60
3ff60
3ffef
3ff3e
00019
3ff02
3ffdc
3ff48
3fefa
3ff06
3ffc0
3ffc4
3ff53
3ff37
3ffba
3ffc0
3ffac
3ff8b
3ff9e
3ff6f
3ffb2
3ff6d
3fee5
3ff52
3ffae
3ff8e
3ffb6
3ff0b
3ff10
3ffdb
3ff74
00006
3ff44
3ffeb
0001d
3ff83
3ff3c
3ffaa
3ff0b
0000d
3ffbd
3fff3
3ffb2
3ffd8
3ff07
3ff34
3ffca
3ff33
3ffda
3ff67
3ffa6
3ff6e
3fffb
3ff15
3ff3e
3fff0
3ffab
3ff3c
3ffc3
3ff18
3ff05
3fff2
3ff8b
