3ff8d
3ffa4
3ff91
3ffcb
3ffbd
00017
3ff15
3ffce
3ff62
3ff7a
3ff43
00014
3ffb5
3fff3
3ff3c
3fff5
3ffc4
3ff2d
00015
3ffa3
3ff91
3ff8a
3ff9b
0002c
00001
3ff79
3ff58
3ff97
3ff91
3ff16
00027
00000
3ff2b
3ff31
3ff1e
3ff32
0001d
3ffaa
3ffa0
3ff18
0001a
3ffdb
3ff62
3ff88
3ffdc
3ffb5
3ff4c
3ffbb
00016
3ff26
3ffd9
3ff4e
3ffef
00030
3ff62
3ff4c
3ff3d
3fffc
3ffb2
3ff9f
3ff45
3ff1b
3ffb3
3ff14
0002a
3ff13
3ff1e
3ffd2
3ffb1
3ff0e
3ffcf
3ffbf
3feff
3ff69
3ff6a
3ffe0
3fff8
3fff4
3ffc7
3ff98
00016
3ff61
3ffdc
0001e
3ff51
3ff9b
3ff9d
3ff34
00029
3ff40
3ff24
3ff7b
3ff19
3ffb0
3ff53
3febe
3fe9a
3fe4e
3fe98
3ff2b
3fe97
3fee7
3ff3d
3ff88
3feef
00011
3ff71
3fff2
3ff64
3ffce
3ffb7
3ff29
3ffa2
3ffe5
3ff79
3ff2a
3fff4
3fff0
3ffa3
3ff3e
3ff3d
3ff8d
3ff9b
3ffc8
00137
000c9
002a6
00203
000ea
00080
000c0
3ff55
3ff30
3ff94
3fec6
3ff1f
3fff9
0000f
3ff87
3ffa3
3ffa7
3ffd6
3ffe5
3fff8
3ff47
3ff93
3ff61
3fe51
3ff53
0009a
3fe9c
001da
0037b
002e5
00303
00170
00130
002ca
00024
3ffdf
000ff
00084
3fe50
3fe95
3ff05
000bf
3ffb2
00021
3ff50
3ff42
3ff19
3ff1e
3fefd
3ff03
3fe69
3fe68
0001c
00078
3ffe0
000e5
0016b
00123
0019a
002ff
00173
001b5
0005c
001f2
000be
000ea
00123
00110
000e5
00060
3ffa2
3ffe9
00022
3ff52
3ff34
3ff61
3fef2
3ff9e
3feea
3fff0
00112
00070
0008a
3ffaa
3fea1
3fef9
3fe7d
000e8
00123
3ffee
000c7
3ff27
00129
001cf
00053
003c1
0024c
3ffea
0000e
3ffd8
3ffd7
0000d
3ffd1
3ff42
3ffce
3ffa7
0018e
000f6
00059
002b2
00027
00017
001cd
00255
3fe28
3fe6f
00147
3ff19
0006d
00139
000ce
0027d
001ab
002d6
00294
3ffb1
3ffc8
00041
00004
0000d
3ff99
3ff80
3ffba
00193
0012b
00268
0033b
002b9
001ba
00308
000d2
000e1
3fc74
3fb11
3fe48
00043
00089
000f5
00144
00117
0029b
002ad
3ff91
3ffa2
00098
3ff2f
3ff5a
00007
3ff4f
00012
0009b
001ef
001ec
00386
0029e
0030f
00477
00224
0023d
001d3
3ff68
3fb4e
3fc27
3fed4
00157
00155
0015e
0032d
00384
002de
00009
3ffca
3ffa1
3ff62
3ff4f
00028
3fff0
3fee9
000ec
00223
00411
00547
00426
0053e
00397
001b2
00230
00538
0065b
3ff38
3fc38
3feb3
3fec3
00085
002e0
00372
00493
00451
00301
0007d
00044
3ffc1
3ff66
3ffcc
3ff7e
3ffc4
3ffce
0028e
0021e
0033c
0030d
003d5
000a7
000ea
00082
0064d
00655
0016b
0003e
3ff72
3ff8b
00196
002b2
004a2
00565
00480
002d3
00121
0008f
3ff34
3ff1f
3ffaf
0002e
3ff3f
3ff6e
3fffd
3ff97
3ff9d
00059
3ff89
3fe9e
00087
00251
005e7
001c4
00458
001ba
3fee7
0001a
00025
001ec
001bf
000fd
00168
000c0
0002b
0002c
3ffdb
3ff77
3ff1c
3ffe1
3ffa1
3ff36
3fe49
3fcf0
3fc13
3fb5e
3fc4a
3ff7b
00260
00249
004d3
003dc
0029c
3ffaf
00053
3ff52
3fe6d
3fd70
3fdb5
3fe07
3fdac
3fef2
3ffd9
3ff0f
00007
00013
3ff6e
3ff58
3ffba
3ff23
3fe4c
3fc2f
3fb53
3fbbd
3fef6
00029
0001b
0034c
003e6
00369
001f7
3ff04
3ff24
3ff66
3fc8c
3fbb3
3fcb4
3fde9
3fe02
3fe7f
3ffbd
3fef6
00016
3ff8a
3ff26
3ff69
3ffb1
3fe9f
3fd89
3fc0a
3fda9
00192
001bf
000b7
0019a
00330
002cb
00100
001ab
00091
3feb2
3fd37
3fc05
3fc05
3fbf4
3fcc1
3feec
3fe95
3ff84
3ff7f
3ff20
00032
00023
3ff51
3ff2a
3ff16
3fd73
3fc80
0009e
00341
00408
0014a
0030d
004f6
00303
00041
3ff32
0005c
3fe74
3fbe9
3fe10
3fe14
3fd48
3fdfd
3febb
3ff47
3fef8
3ffd4
3ff77
3ff61
0000a
3ff1d
3fede
3fe72
3fe68
3ff04
000f6
002ad
004d3
0035f
0049a
002ff
001ba
3fde9
3ff76
3fed2
3fcdc
3ff3e
3ff69
0003b
3fe45
3ffbd
3fe88
3fe01
3fef9
3ffd6
00020
3ff65
3ffb3
3ffc6
3fea6
3fe46
3ff4e
00076
00146
00154
00345
001ae
3ffc5
000cc
3fdd0
3fd70
3ff05
3ff32
3fef3
000ce
0003b
00109
00016
000ac
3ff6d
3fe7a
3ff17
3ff3a
00018
3ff42
3ffd7
3ff52
3ff02
3fe02
3ffaa
00051
002d4
000d8
3ffa3
3fffc
3fd9c
00027
3fff0
3fdbb
3ff96
3fd59
3ff29
00078
0004a
000d7
0016d
0016c
3ffa6
3ff11
3fec6
3ffa3
3ff48
00011
3ff9a
00024
3fe6f
3fdad
3ffc5
0013a
0029e
0008c
0011f
3ffcb
3fe46
3ff08
00099
3fff2
3ffba
3fdf8
3ff26
3ff6f
3ffeb
3fff4
0007d
0006c
3ff64
3ff44
3fff4
3ffd9
3ff87
3ffc3
3ff1c
3ff6f
3ff01
3fe25
3fd3c
00054
000bf
3ffd4
3ff1e
0008f
00033
0034e
00377
00273
001ea
3ffd6
3ffd2
000d4
3fef8
3fee3
00079
3ffcd
3ff4a
3ffd3
3ffd1
3ffcb
3ff50
3ff4e
3ffea
3ffb0
3ff1d
3fe0f
3fb5f
3fc5f
3fe2c
000a2
000a0
00158
001c1
003ea
005a0
004ca
003d1
00317
00237
001c2
0023f
001a8
00066
3ffca
3ff7a
3fefa
3ffe7
3ff18
3ffd2
3ffe4
3ffd2
0002c
3ff34
3ff32
3fcf0
3fbc0
3fc6f
3ffc8
000d5
3ffaf
00184
0011e
000bd
001db
00408
00448
002e0
00406
003c7
0013f
00012
3ff25
00016
3ffa6
3ff6a
00023
3ffc4
00030
3ffdd
00017
3ff32
3ff65
3fedd
3fe66
3fe02
3fdc7
3fdc5
3ff2b
3fe6c
3ff11
3ff0d
3ffe8
0016a
00102
00148
00176
0003b
3ffb0
3fff6
3ff09
3ff12
3ffec
3ffbe
3ff67
3ffb9
3ffda
00005
3ff8e
3ff5a
3ff0e
3ff35
3fec9
3ffa8
3fee6
3ff10
3fede
3ff5a
3ff49
3ff65
3ff1a
3ff59
3ff37
3fef5
3fed6
3ff45
3ff7e
3ffd8
3ff8b
00035
00030
3ff20
3ffb9
3ffa2
3ffcd
3ff54
3ff94
3ffbc
3ffc5
3ff1a
3fff8
3ff65
00026
3ff8e
3ff3a
3ffeb
3ff5f
3ff3d
3ff87
3ffcc
3ffb8
00004
00020
0002d
3ffda
3ffbf
3ffd7
3ff4f
3ffae
00021
3ff2c
3ffb0
