000ff
0007a
00088
00038
000d8
000d3
000e9
0003a
000cb
0003e
000c1
0009c
000d9
00122
000ff
000af
000b1
0003e
00129
00128
000a9
000d9
000a7
00103
00063
00112
000a7
000f2
0001f
00101
0004c
000b7
000a3
00041
0005b
000f1
000e8
000bc
000ba
00089
000de
000fa
00143
000a1
00082
00104
000af
00077
00119
0010f
0006f
00122
00137
000a5
00109
000d5
00105
000c4
00139
0003d
0003a
000ce
00098
00093
00063
000ad
00004
00057
0000b
0004c
0009f
000ff
000c1
00000
000bf
00072
000fb
0006d
00114
000c9
000d8
00025
000eb
000f0
0005d
00068
000b0
00091
00126
0009b
00022
00120
3ffe0
3ffc6
3ffc8
3ff60
3ffc7
00015
00078
000f0
3ff89
3ffd5
3fffa
3ff47
3ffed
0004c
000c0
000bb
3ffde
0010a
00064
00118
000d8
00083
0012a
00127
00021
0003b
00104
000a5
0003f
3fef0
00019
0005f
00094
00108
00136
0027a
000ad
3ff7b
3ff6f
00062
0015f
00189
00187
001ca
000ef
00071
00063
0006d
00027
00100
00032
000b4
0002d
000ac
00034
3ffbd
3fdc6
3fdc1
3fef8
00003
000d8
000f3
001a7
00148
000c2
3fec1
3ffe0
00043
00138
001f7
00344
0020a
001ab
3ff92
00076
00041
00036
000b9
00022
00090
00022
3ffab
3fec6
3feca
3fd37
3fca2
3fde4
3ff81
3ff7c
3fef1
3ff83
3fd95
3fd67
3fd62
3fee8
3ff31
0013a
00204
001df
00193
00069
3ffaa
00007
00097
0007a
00045
00055
00013
000ca
3ffd5
3fed3
3fd98
3fc3e
3fb37
3fcc0
3fe94
3feb3
3fe21
3fdb0
3fc68
3fcdc
3fd0e
3fd58
3ffe9
0008f
00059
00054
3fefd
3fe9f
3ff73
00073
00086
00095
0007e
0007b
00106
00054
3fff8
3fe9a
3fde1
3fb9f
3fb3e
3fb79
3fd90
3fee2
3fea0
3fee1
0007e
3fe02
3ff53
3ffe3
00042
3fe80
3fe8d
3fdae
3fcf5
3fd94
3ff68
000e7
00130
00133
00047
0007e
0006c
3ffed
3ffde
3fe38
3fe50
3fcfc
3fb67
3fbca
3fe56
3fec2
000f2
002f9
00442
00194
3ffe4
3ff4a
3fd1c
3fc72
3fc7f
3fb95
3fc2c
3fdf2
0003d
000fe
000b8
00118
00136
00100
00022
000d1
3ff0d
3fe51
3ff38
3fda9
3fda1
3fe44
3fed8
3ff38
00260
007b0
0081d
003db
3ffeb
3fdb2
3fd38
3fca2
3fcf7
3fd24
3fe39
3ff68
3ffe6
00107
0006c
00035
0002f
000d5
000e3
00001
3ffbb
3ffdc
3fe8a
3ff0e
3fe8a
3fdda
3fcc2
3ffa1
00410
00944
009d1
003a3
3ff34
3ff45
3fe11
3fdf4
3fe19
3fe3d
3ff2d
3ffa7
000d1
00125
000ce
00020
00118
00086
0005b
0011e
3ffc9
3ffa8
3ff84
3fe9b
3fe2c
3fc22
3fa93
3ffd3
00420
00ae8
00791
0017f
000cb
3ff89
3fdca
3fe9b
3ff53
3ff9e
3ff88
00012
0011c
0002b
000c8
0001d
000be
000b1
000bd
0013b
00002
0001b
3ff73
3ff41
3fcf5
3f98b
3f973
00002
00370
008fd
00514
00158
000a7
3fdf3
3fd05
3feeb
3ff9e
3ff9a
3ffdb
00081
000c0
00115
000b4
0008c
0012c
000a9
000f0
000f1
3ffff
00029
3ffa4
3fdfd
3fc8b
3f991
3fb1e
3ffe4
0037e
007ab
004f0
0017a
3fd43
3fc4a
3fd2f
3fe55
3ff85
3ff7a
3ffa4
000d6
00021
0003b
000aa
0013e
00034
000cc
00081
00049
000b9
3ff4c
3ff33
3febb
3fc38
3fbc3
3feef
0018e
004e8
00834
002e7
00088
3fad6
3fb6d
3fd33
3fe50
3feca
3ffb2
00018
00070
0008f
00128
00031
00133
00096
00119
000ab
0005b
3ff83
3fee3
3fecd
3fd12
3fe3f
3fe9a
3ff3a
3ffce
00674
007bf
00072
3fd9a
3fa6a
3fb61
3fd06
3fdbd
3ff09
3ff05
00003
3ff91
00011
0004b
0009f
0007f
00130
00043
0012b
000dd
3ff52
3fd8c
3fd58
3fe19
3fec9
000e0
00003
0021c
00765
00657
3feb6
3fb98
3fa65
3fb68
3fd19
3fee9
3ff74
3ff9b
3ff79
3ff18
00042
000b1
000cf
000bc
000ad
0006a
000fa
0008b
3ff08
3fd62
3fd67
3ff07
000ff
000d2
00151
0036e
00586
003d2
3fd7d
3fbe0
3fc77
3fcfb
3fdfa
3ff02
3fe52
3ff41
3fedb
3ff4d
000a2
00119
0011f
00128
000d0
000d9
000f0
0001c
3fe8c
3fcc1
3fdcf
3ff1b
00084
00042
0002e
00074
0028b
0008f
3fded
3fe45
3fe7f
3fe1c
3fe89
3fddb
3fe36
3feec
3ff0d
0000d
0005d
00066
00029
0002f
00137
000a7
0006b
3ffad
3fef7
3ffce
3ff4a
3fffc
0004e
3ff34
3ffb6
3feb2
3ff8e
3ffad
00015
0013d
00072
3ff88
3fe43
3fdde
3fe06
3fe73
3ffa7
0002a
000fe
00065
00138
000de
00075
000b6
000d9
000ad
001d2
0017f
000b4
0001e
3ff7b
00006
3fef3
3fd9e
3fd47
3ffc1
000d1
0014e
0017d
00107
3fe46
3fe4d
3fe0f
3feaa
3ff3b
0002c
00087
0001b
00026
000ac
000b0
000c6
00029
00194
00385
003a5
00233
0004d
3ffc1
3ff2a
3fc87
3fa5c
3fbb0
00003
000d8
0033b
0054d
00252
0007c
3fece
3ff12
3ffeb
00028
00013
00084
0012c
00091
00117
000af
000e0
0007c
00168
00307
00339
0017b
00068
3ff40
3ff7d
3fe09
3fea1
3fec6
3fe5d
000a4
003c2
00489
00209
3ffa3
3ff22
3fea9
3ff8a
3ff93
00044
00022
00040
00020
00044
0002b
00071
00024
000b0
00157
00162
3ff8e
3fdff
3fdfc
3fc75
3fc9c
3fcf5
3fd65
3fd68
3fd66
3ff3f
00051
00093
000d5
000b2
0002b
0005d
000f7
0004b
0007a
000ea
0004d
0012f
00061
00074
000a4
000ea
000d6
00003
3ff7c
3ffcc
3ff86
3fe05
3fd97
3fe38
3fd80
3fe79
3fe11
3fee3
3ffcd
00063
000cd
00014
000ba
0006e
00109
00043
0004f
00071
00062
00070
000d7
000bf
0003a
000cf
00113
000ba
000ac
000f6
000d0
0001d
000a9
0009a
00059
3fffb
00050
000b4
00117
000ce
00021
000bf
000b4
000ab
00052
00048
000cf
0011c
000e6
000e7
00125
0002e
000a2
00133
000f4
00115
000ff
00115
00083
000f3
000fc
00019
00035
0012d
000c5
000b5
0001a
00083
0003a
00036
00063
000b2
00100
0011c
00115
00111
0005b
