00000
00024
000f2
000f2
00004
00005
000bd
00034
00010
00024
00007
000ae
000e5
00082
000a8
00013
0009e
000d8
0002d
000ae
0000d
00068
000e9
00017
000e9
00025
000ff
00069
00043
00077
3fffe
00014
00074
00119
0003a
3ffd3
0009c
00006
00069
3ffae
00048
3ff8f
00006
0009a
000b6
00035
00003
0002e
000c4
3fffb
3fff9
00010
000ad
000b7
0002b
000b7
000d2
00088
000cf
000d4
000c9
000b3
000ee
3ffb4
3ffae
0002b
3ffe4
3ff73
3fdde
3ff23
3fef8
3fe8a
3feef
3ffca
00044
000c0
000fa
00090
000eb
0003f
00059
0009f
0000a
0006f
000d4
000be
00049
00078
0007c
00002
0009f
3ff73
3ff32
3ff90
3fe2a
3fdd4
3fc89
3fcb2
3fcda
3fc2e
3fd73
3feba
00030
00069
000bd
00117
00049
0004b
0010f
00105
00051
00099
00108
000af
000c5
000bf
00072
000d8
3ff5e
3ffdc
3feb5
3fee8
3fce5
3fd0b
3fbf5
3fca5
3fbe1
3fc79
3fe49
3fe7a
3ff17
000e0
00135
00161
00150
001be
0007c
000fb
00040
00029
0010c
0004b
000bd
0003e
000ae
00023
0007b
3ff6b
00028
3ff54
3fdba
3fe7f
3fd6b
3fccc
3fdc2
3fe26
3ffb1
00049
3ff8f
000bf
000ea
0013d
002e2
00341
001c5
3ffd4
0004a
0002d
000f9
00113
00052
000d9
000ec
000c2
000c0
3fff1
3ffd5
3ff1c
3fe32
3fcd4
3fb32
3fa52
3fa11
3fad9
3fab9
3fce8
3fcce
3fe90
3ff0e
3ffed
00420
00456
001ab
0014f
000ef
0000a
00076
0003e
00055
00096
00056
000c8
3ff84
3ffe9
3ff77
3fec8
3fcec
3fb33
3f9c4
3fb98
3fa7d
3fa73
3fa4a
3fc5c
3fc45
3fd67
3fd00
3fea2
0028c
00373
001d7
00109
000f9
00094
000f0
000c9
00109
00033
00050
0006d
00049
3ffc0
3fdae
3fed2
3fe75
3fce6
3fb75
3fd19
3f96b
3f93d
3fabe
3fcb5
3fd0c
3ff12
3fe32
3fe3a
0012d
001cf
00161
00046
0005f
000ad
0011d
000f0
000e0
0002f
3ff6b
00004
3fe92
3fef9
3ff55
3ffc8
3ff35
3ff0b
3ff04
3fd61
3f683
3f8e7
3fe47
3feba
3ff9b
00036
3ff01
3ff07
0007e
0001d
3fedf
3fed3
3ff7e
000c1
00098
0006c
0006d
0001e
00071
3feb9
3fde3
3fef9
0004e
002b4
001a3
00139
00177
3fc5f
3f5fb
3fcf2
00059
3ff8d
3ffa8
0005b
3fe00
3feae
3ffc0
3fdd3
3fec4
3ff38
000a0
00108
000b2
000b9
0009c
3ff9e
3ffdc
3ff49
3ff3f
000a4
0020c
00372
004c0
00306
00369
3fa71
3f874
000fb
003e7
000a8
3ffc6
3ff60
3fdde
3fe2d
3ff12
3fe50
3fe20
3ffe5
3fff0
00042
000c6
000ae
00052
00077
3fff4
3ff4d
00202
0034f
00520
0047d
00778
00876
007ff
3ffde
3fc06
00321
00515
00094
00037
000b2
3ffe1
00026
3ffc6
3fee1
3ff00
3ffb8
0011b
000a3
0001f
000ba
0001a
0004e
000dc
0026c
004ed
005b7
00692
0057d
00668
00a71
007ea
0001e
3fee0
003ab
003c4
0042f
002e3
0014c
002e4
00220
00103
3ff69
3ff7b
0000f
000e3
000a2
0001d
000e8
00013
00111
00225
00450
005ff
00690
004e7
004b0
005a6
006d8
004fc
0006a
3ff46
00153
00432
006e5
004af
0044e
00267
0019e
00086
0004c
3ffd4
0004a
0008a
00041
000c0
00113
000b0
000e3
001f0
00232
0036a
00325
0050f
00459
00306
00232
00298
00083
00215
002ea
0060c
0055f
003d7
00246
3ff63
000d8
00187
00029
3ff15
0007c
00020
0004e
00055
00002
0000a
3ffde
00087
0014c
0021d
003b1
0055f
003d4
00106
3ffdc
0010d
00150
004ee
006d1
00705
005d5
003f3
0007f
001a8
0025a
0008d
3ff9d
3ffe5
0003b
0006d
00072
00065
00067
000ce
3fffd
3ff70
3fed7
000b0
002ed
005a5
004e4
001c6
00165
00205
004d7
007ff
00654
0054b
001a3
00041
3fe3a
00088
00032
3feeb
3ff89
3ff4b
3ff99
000b6
000df
00070
000ab
00096
00016
3ff52
3fe91
3fe56
3fff8
00172
00054
3fed3
3ff4e
001d8
00215
00384
00302
00192
3fd91
3fdb2
3fc9f
3fdff
3fdec
3fd3b
3fddb
3ff71
3ffb4
00042
00009
0006c
000c8
0004c
0002e
3fe74
3fe14
3fd76
3fc30
3fbb3
3fb6a
3fa97
3fad3
3fb6b
3fd50
3ff34
000b3
3fdeb
3fe35
3fdcb
3fcf4
3fc98
3fcdd
3fccf
3fdd8
3ff6e
0006d
000c1
000b1
00120
0010a
0004d
0002e
3febf
3fdda
3fce1
3faec
3f9f7
3f99b
3f97d
3fb3c
3fc25
3fbb1
3fd4b
3fe97
3ff83
3ffba
3fee1
3fd93
3fe5e
3fe27
3fdc6
3fedc
3fee7
00015
00044
000c0
00035
00054
00016
00026
3fffd
3fec7
3fced
3fbb2
3fc20
3fb98
3fc2a
3fd26
3fda1
3fdce
3fd7c
3fed6
3fe73
00048
3ff8a
00015
3ffcc
3fe7e
3feb9
3ffc4
3fff5
00077
000a0
0009a
0008b
000a1
00040
000b1
3ffd6
3ff59
3febb
3fde8
3fd2c
3fe48
3fe3b
3fec6
3feb4
3fee3
3fe9c
3ff26
3ff2e
0004b
00141
0020c
00192
00108
3ff52
3ff54
3fffa
00073
00012
00058
0005a
00006
00050
0009d
00059
0006d
3ff53
3ff40
3fefc
00079
3fee8
0002d
3fede
3ff1d
3ff22
3fff0
0004a
000c4
0025b
0024c
001f6
000df
3ffad
00044
00085
000b6
0003b
000e3
000ab
000f5
00074
000c2
0002e
00095
00038
3feec
3fee7
3ffa6
3fed6
3ffcf
3ff29
3ff3a
3fe94
3fe68
3ff50
3ffa4
00020
0013d
000e7
3ffa1
3ffe5
0007a
000ca
00020
00034
000ae
00100
000f8
000e3
00033
000e4
0000b
3ff5d
3fef6
3fe70
3fe5b
3fd4d
3fcf5
3fd20
3fd24
3fd92
3fd6e
3fcac
3fc35
3fc98
3fe22
3fe4b
3ff62
0000a
000a7
0000c
000e8
0005d
00054
00078
000ad
00027
00073
3fff4
3ffd8
00045
00032
3ffcb
3ff0e
3fdb9
3fe03
3fdba
3fce9
3fca0
3fd60
3fd02
3fd76
3fdea
3fec2
3ff8c
000ac
000ab
00016
00070
00012
00113
00078
000a7
00018
00025
00108
00063
000dc
00065
0010d
3ffff
00074
0003b
3ffdb
3ffe5
0000a
3ff90
000d6
3ffc9
3ffc1
3ffeb
00070
00056
00056
0005b
0009c
00095
000c5
0008d
0005e
