3ff32
00005
3ff9a
3ff56
3ff97
3ff62
3ffbb
3ffc6
3ff2c
3ffaa
3ff3c
3ff7e
00027
00022
3ff37
3ffb8
3ff46
3ff48
00035
0000f
3ff67
3ffbf
3ff78
3ff20
3ff32
3ffb2
3fff6
3ffc8
3ffa9
3ff9b
00032
3ffcd
3ff3d
3ff36
3ff2f
3ff61
3ff63
3ffb7
00002
3ff44
3ff88
3ff3d
3ffbb
3ff20
3ffc5
3ff44
3ff82
3ff52
3ffb9
3ff49
3ff2a
3ff16
0000c
3ffcc
0000f
3ff73
3ff9c
3ff24
3ff38
3fffe
3ff2b
3ff3d
3ff92
3ffb2
3ffeb
3ff87
00074
0005f
00128
000ec
000d8
00056
00122
00063
00054
3ff6d
3fffc
3ffbc
3fed4
3ff96
3ffe0
00048
3ffaa
3ff86
3ff6e
3ff5a
3ffd0
3ff67
0002a
3ff46
3ffbc
00000
00035
001d7
002e1
002dc
002bd
00407
00232
000fa
001da
000d9
3ff33
3ffcd
3ff17
3feef
3feb2
3ff5a
00018
0004f
3ff48
3ffdb
3ff5f
3ff90
00038
3ff0f
3ff2b
3ffbc
0006d
00069
00130
00387
00390
0047a
003c8
00300
002ba
00134
0019c
0017d
3ff8e
3ff40
3ff6b
3fe3b
3fddc
3fdf1
3ffbc
3ffbc
3ff24
3ffd6
00013
3ffb8
3ff52
3ff18
3ff41
3ff5c
00065
001b9
00264
00417
00488
004ba
00454
004da
0047e
0042b
00485
003a8
002a4
3fee2
3feec
3fe3d
3fe36
3fd3a
3fecd
3ff52
0001c
3ff78
3ffa4
3ff5a
00025
3ffa7
3ff8b
0004a
001af
00343
0027e
002d5
003d5
00265
0028c
0034a
002e8
00195
001c0
00074
00055
3fef9
3ff51
3fdc3
3fdc7
3fce6
3fe27
3fef7
00022
3ffe5
3ff86
00018
0001b
3ff90
0000b
000e8
0022c
00325
00292
00266
000eb
00115
0002f
001af
00213
0006f
00047
3fd5f
3ff1c
3ff42
3ff29
3ff04
3ff44
3fd73
3fe3c
3ff76
3ff52
3ff2c
3ffcf
00020
3ffa6
0001d
00079
00178
00110
00180
00185
001b1
001b3
001f0
00127
00160
003a2
0020b
3ffc0
3ff01
3fff9
000ce
00005
3ff72
3fe85
3fd06
3fdb7
3ff0c
3ff8e
3ff45
3ff5f
3ffd9
3fff7
00061
000bd
001a5
00094
0001c
3ff6e
000e3
000b0
000e3
0003b
3ffe8
0025f
00290
000e2
00011
3ffc3
3fffb
3ffe4
3fff1
3ff0f
3fd78
3fdd7
3ff4c
0001d
3ff2f
00029
3ffd1
3ffa0
3ff78
0001d
3ff99
3ff2d
3fc01
3fc6d
3fd4d
3fbdf
3fb6c
3faac
3fa05
3fd7d
00075
000a6
0001c
00055
3ff84
3ffa5
3ff83
3febf
3fd17
3fe66
3ffef
3ffed
3ff54
3ff2b
00035
3ffea
3ff3c
3fe81
3fcba
3fa62
3f814
3f864
3f70a
3f703
3f7cc
3f74b
3f564
3f7d6
3fc19
3fea6
3fed6
3fee2
3ffc7
3ff54
3ff4c
3fe25
3febb
3ffc5
3ff90
3ff4e
3ffcf
3ffb6
3ffc3
00015
3ffa7
3fe63
3fb20
3f684
3f466
3f52d
3f5be
3f6a1
3f73b
3f741
3f6e6
3f887
3fb04
3fc94
3fced
3fe74
00002
3fff8
3ff22
3fe07
3fd00
3ffa2
3ff81
00039
3ffc3
3ff66
3ff9b
00035
3ff60
3fd64
3f9da
3f63f
3f70c
3f7a4
3fa41
3fbee
3fe18
3fcfc
3fea1
3fc8e
3fc7c
3fbd5
3fcfe
3fe58
3ffaf
3ff83
3feef
3fd85
3fdbe
3fedb
00049
3ff9e
3fffa
00021
3ffcb
00006
3ff79
3ff00
3fbd9
3fabf
3fbb8
3fe48
3ffb4
00112
0016b
001ae
0029e
0002e
3fe53
3fec1
3fdd8
3ffa3
3fe9d
3ff90
3fe67
3fd21
3fde9
3ff97
00104
00127
3ff5c
3ff8d
3ffa5
3ff89
000f3
00076
00035
00120
00151
00272
001ba
00212
00138
00114
00287
00030
000fe
00024
3fdff
3fe18
3fed4
3ff26
3feb6
3fd66
3fea9
000cd
0015d
000bd
3ff45
3ff71
3ff23
3ff05
00102
0021e
00375
00385
00218
000de
001cf
001ae
00188
00329
002c8
00095
3ffab
3fffd
3feb3
3fedc
3fe01
3ff4a
0001c
00070
000ee
002f3
003a7
0009d
3ff6e
3ff87
0002b
3ffa2
00139
0039e
0050a
0049b
00328
00232
002a9
00418
0035b
003d9
001cd
000ed
00140
00143
3ffce
000d2
3ff7a
00183
0019d
00133
001a9
004ba
00419
000f0
00020
3ffe5
3fff1
3fec1
00054
003eb
0069f
0063b
0047c
002fe
00353
00515
00497
00750
00556
004a9
00245
00190
002de
001da
00142
00362
0037f
003cf
00508
0063f
0039a
3ffa8
3ff42
3ff5e
3ff69
3ff22
3fffc
00227
00406
00515
00468
00411
0044e
0041f
00460
004e6
003c4
00270
00128
001cc
0031f
00182
00179
00283
00323
00419
00465
003c9
001fc
0002b
0000c
3ff37
3fff0
3ffca
3feec
001e9
0025c
003aa
00518
004d7
00335
00315
00529
002df
000f3
000a3
000c8
00103
0000c
0023b
0037c
0025d
0035d
004af
00410
002ed
00163
3fffb
3ffdf
3ffb1
3ff40
3ffde
3ff92
00066
00104
0028b
002db
00284
00324
002c7
002bb
00112
00083
3ffb9
0001e
0015b
0017d
00342
0036d
00181
0035c
00427
004bb
00255
000ed
00037
3ffe5
3ff36
3ffca
3ff52
00039
000cd
0004a
001bb
00184
0016a
001fd
001f9
00257
00041
3fe27
3fdac
3feaf
3fec2
000f7
00307
003de
00384
0035d
002ec
00339
00132
3ffde
3ffcc
3ff70
3ffcf
3ffd5
3ffa7
3ff98
3ff8c
3ff1a
3fee5
3ff0a
3fe6d
3ff14
3ff62
000cc
00013
3fec3
3fe53
3fdd0
3fda0
3fec3
0007c
00307
002a6
0033f
00254
000e4
0008a
00058
3ffed
3ff95
3ffb4
3ff63
3fff8
3ffe5
3ff5a
3fe4e
3fcba
3fd8d
3fd7b
3fd50
3fd55
3fdf5
3fdf1
3fee2
3fe8a
3fdeb
3fe06
3fe74
3fe1b
3fefa
3ff18
3ff1a
3ff79
3ff96
3fff0
00056
3ff4b
3ff50
3fff8
3ff1e
3ff8d
3ff75
3ff4d
3fece
3fe69
3fd95
3fd51
3fd83
3fdbf
3fd21
3fe14
3fe32
3fd9b
3fe07
3fe89
3fea1
3ff7a
3febf
3ff8d
3ff84
3fffb
3ff53
3ffbf
3ff57
3ff24
3ff5a
3ff2c
3ff7a
3ff9f
0000a
3ffdd
3ff96
3ffd5
3fff8
3ff91
0000d
3fffc
00007
00014
3ffbf
3ff6d
3ff10
3ff82
3ffbd
3ffb0
3ff55
00016
3fffc
3ff56
3ff7a
3ff29
0000a
00007
3fff5
3ffee
3ff64
3ff3d
3ffb3
3ff26
0002d
00029
3ff81
3fff3
3ff54
0001e
3ff20
3fff4
3ff94
3ffce
3ff42
3ffb2
3ff8b
3ffbd
3ffad
3ffe7
3ff18
3ff9c
00008
3ff18
3ffa8
3ffdf
3ff84
