3ff7b
0004c
3ffd7
3ffed
00059
3fff7
3ffac
3ffa6
3ffeb
3ffd4
00063
3fff8
0002e
3ff7f
3fff9
3ff4f
3ff6c
3ffd9
3ff68
00063
3ff6b
3ffd1
3ff60
3fff0
00031
3ffdd
3fff9
3fffb
00038
00045
00017
3ff64
3ff5d
00008
3ff7f
3ffdc
3ff9c
3ff49
3ff8b
0000a
0006f
3ff68
3ffad
00030
3ff82
3ff54
00020
0004d
3ff7b
00024
3ff90
3ff71
3ffe4
00009
3ffd3
00060
3ff5a
3ff9a
3ff91
0002f
0000d
3ff55
3ffd7
0005b
3ffc9
3ff85
3ff8a
3ff36
3ff29
3ffb6
3ff21
3fee2
3ff2f
3ffc9
3ff4f
3ff1b
3ffd9
00045
0000d
3ff82
00056
3ff4a
3ffd4
0002a
3ff56
3ffd8
00060
3ff5a
3ff89
0004e
0001f
00004
0000c
3ffd4
3ffc6
3ff1e
3fecb
3ff51
3ff0e
3feee
0002e
00016
3fecf
3fefb
3fe8b
3fef7
3fec0
3ff22
3ff66
0003a
00039
3ffa8
00016
3ff53
3ff86
3ff57
3ff41
3ffe7
3ffcc
3ff55
3ffc6
3ffdb
3feeb
3feee
3fef2
3feff
3ffba
3ffe5
3ff2c
3ff39
3ff33
3fee1
3ff8b
3fe8f
3ff70
3ffec
3ff5f
3ffb8
3ffa2
3fff0
0002d
3ffaf
3fffc
3ff68
3ffd7
3ffb6
3ffca
3ff8d
3ffcc
3ff31
3ffa3
0003d
000f2
0020b
00277
00270
002be
002f4
00320
0011a
00032
00082
3ffbf
3fff7
3feab
3ff08
3ffee
3ff7c
3ffbb
3ffe0
00012
3ffc7
00003
00009
00014
3fff8
3ff55
3fedd
0009f
3ffe7
001b1
0017f
0016e
0021f
00296
003aa
00369
002e8
002ce
00333
001d0
000a6
3fe9c
3fe8e
3ff05
00025
00056
0000e
3ffee
3ff26
3feae
3ffe2
3ff78
00002
3ff61
3ffd1
0001e
00135
00284
00251
000f3
0017a
0021c
003ef
002e5
00289
00109
001fd
0022f
0011e
3ff27
3fe9c
3fec0
3ffec
00061
00023
3ffd7
3fffe
3ff08
3ff3f
3ff62
3ff3d
3ff99
3ff94
00131
00141
000a5
00045
00072
001c5
0052a
0041c
003d1
00133
00102
000ec
00243
003f1
3ff91
3feb0
3ffdf
3ff50
3ffe5
3ffef
0001e
00016
3fec8
3ff22
3fec1
3ff49
3ff4c
3ffa4
000dc
3ff44
0006d
0014b
00126
000fb
002d4
003c5
00455
00282
000c3
3ffdc
001dc
00403
0012b
3ff03
00004
3ffe1
3ff5e
0004f
3ff77
3ff08
3ff1c
3ff4c
3ff67
00014
00069
3ffe8
3ff52
00039
00047
3ffd7
3fea4
3fda9
3fe98
0015b
00372
00392
00329
0024a
00365
004a4
00236
3ff17
3ff16
3ff4d
3ff87
3ff5e
00044
3ffce
3fe42
3ffa1
00046
00150
000fd
3ff9f
00058
00009
000ae
3ff8a
3fc4f
3f929
3f991
3fd7c
3ffaa
001d1
002e8
002b1
003ab
0042a
002fe
3ff6d
3fff6
3ff42
3ff80
3ffd7
3ffc6
3ffcf
3ff05
00028
0016f
0017f
000b9
3ffcd
00107
000ba
00158
3fee5
3f8c2
3f707
3f711
3fb1e
3ff23
3ffa4
00070
00140
004c2
0045a
00306
0001c
3ff86
3ff85
3ff4a
3fffc
00040
3ff52
3ffbd
000e3
001bc
0023e
001b2
00130
0019f
00142
000e8
3fb97
3f8be
3f6c7
3f86e
3fc3e
3fe2a
3fd89
3fe1d
000d4
0031f
004e7
002c8
00073
00001
00045
3ffe6
00037
3ff75
3ff9b
3ff28
0024b
002fa
0039e
001bc
00216
00311
001c3
0006e
3fc29
3f771
3f6c1
3f8a5
3fbfa
3fe3a
3fddc
00031
001be
00215
004f4
00294
3ff7b
3ffbe
3ff72
0004a
00029
3ff87
3ffe4
3fff6
0033d
00259
0033c
0023b
002f6
003be
00108
3fd2f
3f8d2
3f669
3f6df
3f9d5
3fcfd
3fee0
3feea
000f0
000d2
00325
003b2
001ea
3ffd0
0000e
3ff7f
00015
0005d
3ff44
3ff9b
0008c
002f0
003a6
002d3
001f6
001fa
00355
3ff90
3fa87
3f67c
3f6bb
3f8a6
3fc10
3fe29
3fffa
0009a
00163
0020f
002d5
002b4
00107
0000d
3ffaa
3ff8c
3ffbd
00017
3ff61
3fecc
0001a
00216
0029e
0028b
000cb
0020b
0033b
3ff81
3f972
3f69d
3f7bc
3fb13
3ff5a
00142
001cf
001ab
00221
0019f
00148
00175
3ffec
3ffc9
0001d
3ff7e
3ffa6
0001d
3ffc1
3ff8a
3ffbf
00155
002b7
00191
000f6
002b3
0052d
00034
3fbd3
3f943
3fb4d
3fe91
00184
0019e
001b2
000e2
00070
000bc
00169
000e1
3ffe4
3ff91
0000d
3ffc2
3ffc9
3ffb3
3ffbb
3fed4
00081
00176
0037c
0032b
0027a
0034a
00530
003a6
000c5
3fe53
3ff44
3ff88
000cb
3ffa3
3ff54
3ff97
000d1
000be
00175
3ffcf
00035
3ffae
3ff40
00043
00041
00057
3ffc2
3ff71
3ffab
0017f
002cd
00210
0028f
00324
004e6
004e4
00273
000bf
3ff7e
0005a
00055
3ff49
3ff75
3ff3d
00068
00080
000c5
00044
3ff92
3ffe7
3ff65
3ffaf
3ff8d
3ff56
3ffc3
3ff90
3ffb8
00063
001bb
002d1
001fa
00225
00431
004bd
00325
00130
00071
00018
3ffec
3feb4
3ff03
3ff6e
0007f
3fff7
3ff6a
3ff0f
3ffc5
3ffb1
3ff8b
3ff9c
3ff71
00009
0000d
3ffab
3ff69
00038
00142
00118
00329
00292
002d5
0035e
002df
003b1
00199
001a3
000e5
3ff3d
3ff65
3fff5
3ff25
3ff1b
3ff92
3ff89
3ffd5
3ffb6
3ffa1
3ffce
3ff70
3ffd9
3fffc
3ff52
3ff4e
3ffcd
3ffeb
000e0
0013c
002ee
00381
00449
0043e
0028b
00212
00125
0007c
3fff4
3fe63
3fdfa
3fe6e
3ff3a
3ff5f
3ffeb
3ffc3
00032
3ffaa
3ff4b
3ffb0
3ffdd
3ff4e
3fff9
3ffcf
3ffd2
3ff2a
3fee3
3ff61
3ff72
000a6
0007d
0012f
001bc
000ea
3ff4e
3feeb
3feb5
3fee6
3fe75
3fe87
3fe9c
3ffba
3ffa3
3ff6a
3ff92
00009
3ff7e
3ff93
00066
3ffca
00055
00060
3fffb
3ff40
3ffac
3fe89
3fe9d
3fe47
3fdc3
3fd71
3fdac
3fd4a
3fd8e
3fdb0
3fe9c
3fed9
3ff06
3feeb
3ff01
3ffab
00060
0002f
3ffbc
3ffa5
3ffdd
00051
00048
3ffb7
00005
3ff9c
3ffaf
3ff53
00022
3ffa4
3fec6
3fec5
3fee3
3ff8d
3fee3
3fef2
3ff9b
3fee0
3ff16
3ff52
3ff24
3ff93
3fef8
3ff21
00057
3ff78
00019
00048
3fff0
3ff6c
0003c
3ffe7
3ffb0
0004c
0000f
0001b
3ff4a
00059
00057
0001e
0003f
3ffd5
3ff94
0003b
3ff64
3ffc6
3ff92
3ffe5
3ff9f
3ff46
3ff5a
3ff13
3ffc9
00026
3ff6a
3ff43
00032
