7ff
000
000
7ff
7ff
7ff
000
7ff
000
000
000
000
7ff
000
7fe
7ff
7fe
7ff
000
000
7fe
7ff
000
7ff
7fe
7ff
000
7ff
000
7fe
000
7fe
000
7ff
7ff
7ff
7ff
000
000
7fe
7ff
7ff
7fe
000
7ff
7ff
7ff
7ff
000
7fe
000
7ff
000
000
7ff
7ff
7ff
000
7ff
7fe
7ff
7ff
000
000
7ff
7ff
000
7fe
000
7ff
7fe
7ff
7ff
7ff
7ff
7ff
000
000
000
7ff
7fe
7ff
000
000
000
7ff
7ff
000
7fe
7ff
7fe
7ff
7fe
7ff
7fd
7fc
7fe
7fe
7fd
7ff
000
7fe
7ff
000
000
7ff
7fe
7ff
7fe
000
000
7fe
7fe
7ff
000
000
000
7ff
7ff
7fd
7fb
7fa
7f7
7fa
7fa
7f8
7fc
000
000
001
000
7fe
7fd
7ff
7ff
7ff
7ff
000
000
7ff
7ff
000
7ff
7fe
7ff
7fd
7fc
7fc
7fd
000
001
001
7ff
7fe
7ff
7ff
002
002
004
002
002
003
006
005
003
002
001
000
7fe
7fe
000
7fe
7fe
7fb
7fe
000
000
002
004
003
001
001
7ff
7fe
7ff
7ff
000
004
002
003
008
009
00a
006
003
001
7ff
000
7ff
7fe
7fa
7f9
7fc
001
003
005
005
004
001
000
7ff
000
002
002
003
006
005
006
008
00b
00d
00a
001
000
000
000
000
7fd
7f8
7f9
7fb
000
004
001
002
004
003
7fd
7fa
7fc
7fe
000
001
005
005
007
00b
00f
013
00d
002
000
7fe
7ff
7fe
7fc
7fc
7fc
000
000
003
003
003
008
005
7fe
7f9
7f5
7f6
7fa
7ff
000
005
00a
00e
013
018
010
003
7ff
000
7ff
7ff
7ff
7ff
7ff
003
005
008
009
008
00a
008
006
7ff
7fb
7f7
7f7
7f7
7f6
7f9
7fe
001
006
00d
00a
003
7ff
7fe
000
7ff
7ff
7ff
000
004
005
008
007
005
006
009
009
000
7fb
7f9
7f9
7f6
7f2
7ec
7ee
7f1
7f5
7fc
000
001
7ff
7ff
7ff
7ff
7ff
7ff
002
005
004
003
002
005
00b
00b
00b
001
7fb
7f6
7f8
7fa
7f8
7f7
7f1
7ef
7f1
7f6
7fd
000
000
7ff
7ff
7fe
7ff
000
001
003
002
003
002
008
009
006
006
7ff
7f9
7f5
7fa
7fe
7fe
7ff
7fc
7f8
7f5
7f7
7ff
7fe
000
7ff
7fe
7ff
7fe
7ff
7ff
000
000
003
006
007
001
002
000
7fb
7fb
7f8
7f9
7fa
7fd
7fd
7fe
7ff
7fa
7fc
7fe
7ff
7fe
7fe
000
7fe
7ff
7fd
7fc
7fa
7fc
001
006
003
003
002
7fe
7f9
7f8
7f9
7f8
7fb
000
7fe
7fe
7fe
7fe
7ff
000
000
7ff
7ff
7ff
000
7fe
7ff
7fb
7f7
7f5
7f9
7fc
7fe
7fe
7fe
7fb
7f6
7f8
7fa
7fe
7fe
000
002
000
002
000
000
000
7ff
7ff
7ff
000
000
000
7ff
000
001
7f9
7f3
7f4
7f7
7fb
7f8
7f5
7f6
7fb
7fe
003
005
003
003
001
000
002
002
7ff
000
000
000
7ff
7ff
7ff
003
003
008
001
7f8
7f5
7f1
7f3
7f6
7fb
7fd
7ff
000
004
002
003
002
003
003
004
002
000
7ff
000
000
7ff
7ff
000
004
007
009
006
004
001
7fd
7fd
000
004
001
002
002
7ff
001
001
000
002
004
003
000
000
000
7fe
000
7fe
7ff
7ff
001
004
005
006
009
007
006
009
006
004
7ff
7ff
003
002
003
004
003
002
006
004
7ff
7fe
7ff
7ff
7ff
000
7fe
7ff
002
7ff
002
006
008
005
005
002
003
002
002
002
001
002
001
003
003
005
007
001
000
7fe
7ff
7ff
000
7fe
7ff
7ff
001
7ff
7fe
000
003
005
001
004
007
008
004
001
000
001
002
002
004
003
003
001
000
000
7ff
000
7ff
7ff
000
7ff
7ff
7ff
7fd
7ff
003
002
002
004
004
003
003
003
003
001
7fe
000
001
001
002
7ff
000
7ff
7ff
000
000
7ff
7ff
000
7fe
7fe
7ff
000
000
003
004
003
002
003
005
004
003
001
002
002
000
000
7ff
000
7ff
000
000
7fe
7ff
000
000
7fe
000
7ff
7fe
7ff
7fe
001
001
002
002
004
000
001
001
002
7ff
000
7fe
000
7ff
7ff
000
000
7fe
7ff
7ff
7ff
7ff
7ff
7ff
7ff
000
7ff
7fe
7ff
7ff
000
000
000
7ff
7ff
000
7ff
7fd
7fe
000
000
7ff
000
7ff
7ff
7ff
7fe
000
000
000
7ff
7fe
000
7ff
7ff
000
7ff
7ff
000
7ff
7fe
000
7ff
7fe
7fe
7ff
7fe
000
7ff
000
7fe
000
7ff
7fe
000
