001
001
000
001
001
001
000
000
001
000
000
001
002
001
7ff
000
000
001
001
000
000
000
000
000
001
000
7ff
001
001
001
000
000
7ff
000
000
002
7ff
001
000
001
001
001
000
7ff
000
001
000
000
001
000
000
000
001
001
000
000
001
001
000
001
001
000
000
000
001
000
000
001
001
001
7ff
001
000
000
000
7ff
001
000
000
001
000
000
000
001
002
000
000
000
001
7ff
001
001
000
001
000
001
000
7ff
000
7fe
000
7ff
000
000
000
000
001
000
000
001
001
001
000
000
000
000
7ff
001
001
000
7ff
000
7ff
7fe
7fd
7fb
7fa
7f8
7fa
7fa
7fb
7fe
7ff
7ff
000
001
001
001
000
000
001
001
001
001
001
7ff
7ff
7ff
7fd
7fd
7fd
7fc
7fb
7fa
7f7
7f6
7f4
7f8
7fb
7fe
7fd
7fd
7fd
7fe
7ff
000
000
001
001
001
7ff
001
001
7fd
7fc
7fc
7fb
7fa
7fc
7ff
000
005
008
006
004
004
005
7ff
7ff
7fc
7fa
7fa
7fd
7fe
000
001
002
000
7ff
7ff
7fd
7fb
7fa
7f9
7f9
7fe
000
002
007
009
00c
00c
00d
006
004
000
001
001
7fc
7f8
7fb
7ff
7ff
001
002
002
001
000
7fc
7fb
7fa
7f7
7fe
7ff
7ff
7fd
000
004
00a
006
006
001
000
000
7fe
001
7fe
7fa
7fb
7fd
7ff
001
000
000
000
7fd
7fa
7fc
7ff
7fe
7ff
7ff
003
002
000
004
007
006
000
7fe
000
7fc
7fe
7fc
7fc
7fb
7fd
7ff
7ff
001
000
000
7ff
7ff
7fc
7fe
002
003
006
006
005
007
004
001
001
7fc
7fe
000
003
000
002
7ff
7fd
7fe
7fd
7ff
7ff
001
000
000
7ff
000
7ff
004
009
007
00b
004
004
008
7fe
7fe
7ff
001
003
00a
005
005
008
006
003
001
7ff
7ff
000
000
001
001
7ff
7ff
003
009
00a
006
007
009
006
000
7fa
005
00b
009
007
00b
00b
00c
00c
008
004
000
7fe
000
001
001
002
001
7ff
000
005
008
007
005
006
004
003
7fe
7fd
008
00b
008
009
008
00b
00b
009
005
000
7fc
7fe
7ff
001
001
000
000
001
001
002
002
006
004
002
000
001
000
7fe
003
001
007
007
007
005
003
004
000
7fc
7fa
7fe
000
000
000
001
001
001
7ff
000
003
003
002
002
7fd
7ff
7ff
7fe
7fe
7fe
008
00b
00b
005
001
7fe
7fa
7f8
7fb
7fe
000
001
000
001
000
7ff
000
000
001
7fe
002
005
7ff
003
004
7ff
7fc
7ff
004
008
008
002
7fc
7f9
7f6
7f9
7fa
7fc
000
7ff
001
000
000
7ff
7fe
7fd
7fd
7fd
001
002
003
004
006
004
002
002
006
002
7ff
7fd
7fa
7fa
7f9
7fa
7fb
7fd
000
000
000
001
000
7ff
000
7fe
7fa
7fa
7fa
7fe
001
007
006
7fd
7fd
000
004
7fd
7fd
7fb
7fd
7fd
7fb
7fb
7fb
7fc
7ff
000
001
001
002
000
7ff
7fe
7fc
7fa
7f9
7f9
7f9
7f9
7fa
7f8
7fa
7fb
7fb
7fb
7fe
7fc
7ff
7fe
7fd
7fd
7fe
7fe
000
000
000
000
000
001
000
7fe
7fc
7fa
7f7
7f5
7f4
7f0
7f4
7f4
7fc
7fb
7fd
7fd
7ff
7fb
7fe
7fe
7fd
7ff
7fe
000
001
001
000
000
000
001
7ff
7fe
7fc
7fb
7f8
7f7
7f6
7f5
7f6
7fa
7fa
7fa
7fc
7fc
7fa
7f9
7fd
7fe
7ff
000
000
001
001
000
000
001
000
000
001
7ff
7fd
7fb
7f9
7fb
7fb
7fa
7fc
7fc
7fa
7fb
7f9
7f8
7f9
7fa
7fb
7ff
002
001
001
002
000
000
001
001
001
000
000
7ff
7fd
7fd
7fc
000
7fe
7ff
7fb
7fc
7fb
7fc
7f9
7f8
7f9
7fc
000
002
004
006
005
002
000
002
000
000
7ff
000
001
001
002
001
002
002
001
7ff
7fd
000
7fc
7fb
7fb
7fe
002
003
003
007
007
004
003
002
000
001
000
000
001
001
000
000
002
002
005
005
006
005
002
005
005
004
004
008
008
009
00a
00b
008
003
001
000
000
000
000
000
001
000
000
001
002
003
004
004
006
007
007
009
009
00b
006
004
004
005
006
004
003
001
000
000
000
000
000
000
001
7ff
001
001
000
000
001
001
001
000
000
000
000
000
001
000
001
002
001
001
001
000
002
001
000
000
000
