000
001
7ff
000
000
000
000
001
7ff
7ff
000
7ff
000
001
001
7ff
000
001
000
000
7ff
7ff
000
001
001
001
7ff
7ff
001
001
001
000
7ff
7ff
001
002
001
000
001
001
002
001
001
001
7ff
001
001
001
000
7ff
001
001
000
001
000
001
7ff
7ff
7ff
000
001
000
001
002
001
002
003
004
004
004
002
001
003
001
001
001
001
001
001
000
001
000
7ff
000
7ff
000
001
000
001
7ff
001
001
002
003
003
004
003
003
005
005
003
004
006
006
006
005
006
003
003
001
000
001
000
000
000
001
001
000
000
002
000
000
002
001
001
000
001
001
004
004
006
006
008
008
007
005
001
001
000
000
000
001
000
000
7ff
000
7ff
7ff
001
7ff
000
7fc
7fe
7fe
7ff
7fe
7fe
000
003
005
005
004
003
002
000
000
7ff
001
000
001
001
7ff
000
000
000
000
7fe
7fe
7fb
7f9
7fc
7f8
7fd
7fe
7fc
7fd
7ff
7fe
7fd
7fd
7fb
7fd
7fd
7fd
000
001
000
001
000
000
000
7ff
7fe
000
7fd
7fc
7fb
7fc
7f9
7f8
7fc
7fc
7fa
7fa
7f9
7f6
7f6
7f7
7f7
7f9
7fd
7fe
7ff
7ff
000
000
001
7ff
7ff
7fe
7fc
7ff
7ff
7fc
7fb
7fb
7f9
7f8
7f9
7f8
7f7
7f5
7f1
7f2
7f3
7f3
7f7
7f8
7fb
7fd
7fe
000
000
7ff
000
7ff
000
7ff
7ff
7ff
001
7fe
7fb
7fc
7fe
7fc
7fc
7f7
7f6
7f1
7f0
7f3
7f6
7f8
7f6
7fa
7fb
7fc
7ff
001
7ff
001
001
7ff
7fe
000
001
001
005
000
001
000
7fd
7fe
7fc
7f7
7f7
7f5
7f5
7f7
7fa
7fc
7fa
7ff
7fc
7fd
7ff
000
7ff
000
7ff
000
7ff
000
000
004
003
001
002
001
001
000
7fe
7f9
7f9
7fa
7fa
7fc
7fe
001
003
004
000
7fe
7ff
000
7ff
000
7ff
000
001
002
003
004
002
002
002
004
004
003
7fd
7fb
000
000
7fb
7fc
7ff
003
006
00b
006
7fe
7fe
7ff
7ff
001
001
7ff
7fe
001
005
003
002
001
005
004
004
001
7ff
000
000
7ff
7fc
7ff
7fe
003
008
00d
007
7ff
000
001
000
000
001
000
7fe
002
004
004
005
005
005
006
002
7fd
000
002
001
7fe
7fe
000
004
004
00a
00b
007
000
7fe
7ff
001
000
000
7ff
7fd
000
005
006
004
006
008
009
002
7ff
004
003
001
7fe
000
002
004
006
005
007
004
7fe
7ff
7ff
000
7ff
7ff
7ff
7fc
7fe
007
007
005
007
00c
00c
004
002
005
003
7ff
7fd
001
003
001
000
003
002
7ff
7fe
7ff
000
000
001
001
000
7fa
7fd
003
005
006
008
00d
00d
007
004
004
002
000
001
005
002
001
7ff
001
000
7fe
7fd
000
000
000
7ff
000
7fe
7fb
7fb
7fd
004
006
005
009
00b
00d
006
002
003
006
004
005
003
000
001
001
7ff
7fe
7ff
7ff
7ff
000
7ff
001
7fe
7fd
7fa
7fc
000
004
006
008
00d
00e
007
007
007
005
004
006
004
003
001
7ff
7ff
7ff
000
7ff
001
7ff
7ff
000
7ff
7fc
7fb
7fb
7fe
001
004
007
004
009
00a
00c
00a
006
004
007
005
003
7ff
7fd
000
7ff
000
7ff
000
000
000
000
000
7fe
7fc
7fa
7fd
7fe
003
005
008
00a
00a
009
007
005
006
006
004
000
7fe
7fd
7fe
000
7ff
000
7ff
7ff
000
001
000
7ff
7fd
7fc
7fb
7fd
7fe
7ff
001
003
001
001
003
002
000
7ff
7fc
7fd
7fd
7fd
000
000
7ff
001
000
001
000
000
000
000
7ff
7fe
7fb
7fa
7f8
7f8
7f6
7fa
7fb
7fc
7fb
7f9
7f8
7fa
7fd
7fd
7fd
7ff
000
7ff
7ff
000
000
001
000
000
7ff
7ff
000
7ff
7fe
7ff
7fe
7fd
7fc
7fc
7fc
7fb
7fb
7fb
7fc
7ff
7ff
000
7ff
001
000
7ff
000
7ff
7ff
001
7ff
000
000
7ff
000
001
000
7ff
000
7ff
000
000
7ff
7ff
000
000
7ff
7ff
7ff
7ff
000
000
001
001
001
000
001
001
000
000
000
7ff
001
001
7ff
000
001
000
000
000
001
001
7ff
7ff
001
001
000
001
000
000
000
000
000
7ff
000
001
000
001
7ff
000
000
001
000
000
7ff
7ff
000
7ff
7ff
7ff
7ff
7ff
000
7ff
7ff
7ff
000
001
7ff
7ff
7ff
7ff
000
