7ff
001
000
000
001
000
7ff
7ff
000
000
001
000
000
7ff
000
7ff
7ff
000
7ff
001
7ff
000
7ff
000
000
000
000
000
000
001
000
7ff
7ff
000
7ff
000
7ff
7ff
7ff
000
001
7ff
7ff
000
7ff
7ff
000
001
7ff
000
7ff
7ff
000
000
000
001
7ff
7ff
7ff
000
000
7ff
000
001
000
7ff
7ff
7fe
7fe
7ff
7fe
7fe
7fe
000
7ff
7fe
000
001
000
7ff
001
7ff
000
000
7ff
000
001
7ff
7ff
001
000
000
000
000
000
7fe
7fe
7ff
7fe
7fe
000
000
7fe
7fe
7fd
7fe
7fd
7fe
7ff
000
000
7ff
000
7ff
7ff
7ff
7ff
000
000
7ff
000
000
7fe
7fe
7fe
7fe
7ff
000
7fe
7fe
7fe
7fe
7ff
7fd
7ff
000
7ff
7ff
7ff
000
000
7ff
000
7ff
000
7ff
000
7ff
000
7fe
7ff
000
002
004
005
005
005
006
006
002
000
001
7ff
000
7fd
7fe
000
7ff
7ff
000
000
000
000
000
000
000
7ff
7fe
001
000
003
003
003
004
005
007
007
006
006
006
004
001
7fd
7fd
7fe
000
001
000
000
7fe
7fd
000
7ff
000
7ff
000
000
002
005
005
002
003
004
008
006
005
002
004
004
002
7fe
7fd
7fe
000
001
000
000
000
7fe
7fe
7ff
7fe
7ff
7ff
002
003
001
001
001
004
00a
008
008
002
002
002
005
008
7ff
7fd
000
7ff
000
000
000
000
7fe
7fe
7fe
7ff
7ff
7ff
002
7ff
001
003
002
002
006
008
009
005
002
000
004
008
002
7fe
000
000
7ff
001
7ff
7fe
7fe
7ff
7ff
000
001
000
7ff
000
001
000
7fd
7fb
7fd
003
007
007
006
005
007
009
004
7fe
7fe
7ff
7ff
7ff
001
000
7fd
7ff
001
003
002
7ff
001
000
001
7ff
7f9
7f2
7f3
7fb
7ff
004
006
005
007
008
006
7ff
000
7ff
7ff
000
000
000
7fe
000
003
003
001
000
002
001
003
7fe
7f2
7ee
7ee
7f6
7fe
7ff
001
003
00a
009
006
000
7ff
7ff
7ff
000
000
7ff
7ff
002
003
004
003
002
003
003
002
7f7
7f1
7ee
7f1
7f8
7fc
7fb
7fc
002
006
00a
006
001
000
001
000
000
7ff
7ff
7fe
005
006
007
003
004
006
004
001
7f8
7ef
7ee
7f1
7f8
7fc
7fc
000
003
004
00a
005
7ff
7ff
7ff
001
000
7ff
000
000
006
005
006
004
006
007
002
7fa
7f2
7ed
7ee
7f4
7fa
7fe
7fe
002
002
006
007
004
000
000
7ff
000
001
7ff
7ff
001
006
007
006
004
004
007
7ff
7f5
7ed
7ed
7f1
7f8
7fc
000
001
003
004
006
005
002
000
7ff
7ff
7ff
000
7ff
7fe
000
004
005
005
002
004
006
7ff
7f3
7ed
7ef
7f6
7ff
003
004
003
004
003
003
003
000
000
000
7ff
7ff
000
000
7ff
7ff
003
005
003
002
005
00a
000
7f8
7f3
7f7
7fd
003
003
003
002
001
001
003
002
000
7ff
000
000
000
7ff
7ff
7fe
001
003
007
006
005
007
00a
007
002
7fd
7ff
7ff
002
7ff
7ff
7ff
002
001
003
000
000
7ff
7fe
001
001
001
000
7ff
7ff
003
006
004
005
006
00a
00a
005
001
7ff
001
001
7ff
7ff
7fe
001
001
002
001
7ff
000
7ff
7ff
7ff
7ff
000
7ff
7ff
001
003
006
004
004
008
009
006
002
001
000
000
7fd
7fe
7ff
001
000
7ff
7fe
000
7ff
7ff
7ff
7ff
000
000
7ff
7ff
000
003
002
006
005
006
007
006
007
003
003
002
7fe
7ff
000
7fe
7fe
7ff
7ff
000
7ff
7ff
000
7ff
000
000
7ff
7ff
000
000
002
002
006
007
009
008
005
004
002
001
000
7fd
7fc
7fd
7fe
7ff
000
000
000
7ff
7ff
7ff
000
7ff
000
000
000
7fe
7fe
7ff
7ff
001
001
002
003
002
7ff
7fe
7fd
7fe
7fd
7fd
7fd
7ff
7ff
7ff
7ff
000
7ff
7ff
001
000
001
001
000
7fe
7ff
7fd
7fd
7fd
7fc
7fb
7fb
7fb
7fb
7fb
7fd
7fe
7fe
7fe
7fe
7ff
001
000
7ff
7ff
000
001
001
7ff
000
7ff
7ff
7ff
000
7ff
7fe
7fe
7fe
7ff
7fe
7fe
7ff
7fe
7fe
7ff
7fe
7ff
7fe
7fe
001
7ff
000
001
000
7ff
000
000
7ff
001
000
000
7ff
001
001
000
000
000
7ff
000
7ff
000
7ff
000
7ff
7ff
7ff
7fe
000
000
7ff
7ff
000
