002
001
001
000
002
002
002
000
002
000
002
001
002
002
002
001
001
000
002
002
001
002
001
002
001
002
001
002
000
002
001
001
001
001
001
002
002
001
001
001
002
002
003
001
001
002
001
001
002
002
001
002
002
001
002
002
002
002
002
000
000
002
001
001
001
001
000
001
000
001
001
002
002
000
001
001
002
001
002
002
002
000
002
002
001
001
001
001
002
001
000
002
000
000
000
7ff
000
000
001
002
7ff
000
000
7ff
000
001
001
001
000
002
001
002
002
001
002
002
000
000
002
001
000
7fe
000
001
001
002
002
005
001
7ff
7ff
001
003
003
003
004
002
001
001
001
000
002
000
001
000
001
000
7ff
7fc
7fc
7fe
000
002
002
003
003
002
7fe
000
001
002
004
007
004
003
7ff
001
001
000
001
000
001
000
7ff
7fe
7fe
7fa
7f9
7fc
7ff
7ff
7fe
7ff
7fb
7fb
7fb
7fe
7fe
002
004
004
003
001
7ff
000
001
001
001
001
000
002
000
7fe
7fb
7f8
7f6
7fa
7fd
7fd
7fc
7fb
7f9
7fa
7fa
7fb
000
001
001
001
7fe
7fd
7ff
001
001
001
001
001
002
001
000
7fd
7fc
7f7
7f6
7f7
7fb
7fe
7fd
7fe
001
7fc
7ff
000
001
7fd
7fd
7fb
7fa
7fb
7ff
002
002
002
001
001
001
000
000
7fc
7fd
7fa
7f7
7f8
7fd
7fe
002
006
009
003
000
7ff
7fa
7f9
7f9
7f7
7f8
7fc
000
002
001
002
002
002
000
002
7fe
7fd
7fe
7fb
7fb
7fd
7fe
7fe
005
00f
010
008
000
7fb
7fa
7f9
7fa
7fa
7fc
7ff
000
002
001
000
000
002
002
000
7ff
000
7fd
7fe
7fd
7fc
7fa
7ff
008
013
014
007
7fe
7ff
7fc
7fc
7fc
7fc
7fe
7ff
002
002
002
000
002
001
001
002
000
7ff
7ff
7fd
7fc
7f8
7f5
000
008
016
00f
003
002
7ff
7fc
7fd
7ff
7ff
7ff
000
002
000
002
000
001
001
001
002
000
000
7ff
7ff
7fa
7f3
7f3
000
007
012
00a
003
001
7fc
7fa
7fe
7ff
7ff
000
001
002
002
001
001
002
001
002
002
000
000
7ff
7fc
7f9
7f3
7f6
000
007
00f
00a
003
7fb
7f9
7fa
7fd
7ff
7ff
7ff
002
000
000
001
002
000
002
001
001
001
7ff
7fe
7fd
7f8
7f8
7fe
003
00a
010
006
001
7f6
7f7
7fa
7fd
7fe
7ff
000
001
001
002
000
002
001
002
001
001
7ff
7fe
7fe
7fa
7fc
7fd
7fe
000
00d
00f
001
7fb
7f5
7f7
7fa
7fb
7fe
7fe
000
7ff
000
001
001
001
002
001
002
002
7ff
7fb
7fb
7fc
7fe
002
000
004
00f
00d
7fd
7f7
7f5
7f7
7fa
7fe
7ff
7ff
7ff
7fe
001
001
002
001
001
001
002
001
7fe
7fb
7fb
7fe
002
002
003
007
00b
008
7fb
7f8
7f9
7fa
7fc
7fe
7fd
7ff
7fe
7ff
001
002
002
002
002
002
002
000
7fd
7fa
7fc
7fe
001
001
000
001
005
001
7fc
7fd
7fd
7fc
7fd
7fc
7fc
7fe
7fe
000
001
001
000
000
002
001
001
7ff
7fe
000
7ff
000
001
7fe
7ff
7fd
7ff
7ff
000
002
001
7ff
7fd
7fc
7fc
7fd
7ff
000
002
001
002
002
001
001
002
001
004
003
001
000
7ff
000
7fe
7fb
7fb
000
002
003
003
002
7fd
7fd
7fc
7fd
7fe
000
001
000
000
001
001
002
000
003
007
007
004
001
000
7fe
7f9
7f5
7f7
000
002
006
00b
005
001
7fe
7fe
000
000
000
001
002
001
002
001
002
001
003
006
006
003
001
7fe
7ff
7fc
7fd
7fe
7fd
001
008
009
004
7ff
7fe
7fd
7ff
7ff
001
000
001
000
001
000
001
000
001
003
003
7ff
7fc
7fc
7f9
7f9
7fa
7fb
7fb
7fb
7fe
001
001
002
001
000
001
002
001
001
002
001
002
001
001
001
002
002
000
7ff
000
7ff
7fc
7fb
7fc
7fb
7fd
7fc
7fe
000
001
002
000
001
001
002
001
001
001
001
001
002
001
000
002
002
001
001
002
002
000
001
001
001
000
001
001
002
002
000
001
001
001
001
001
002
002
002
002
002
000
001
002
002
002
002
002
001
002
002
000
000
002
002
001
000
001
000
000
001
001
002
002
002
002
001
