7fe
000
7ff
7ff
7ff
7ff
7ff
000
7fe
7ff
7fe
7ff
000
000
7fe
7ff
7ff
7ff
000
000
7ff
7ff
7ff
7fe
7fe
7ff
000
000
7ff
7ff
000
000
7fe
7fe
7fe
7ff
7ff
7ff
000
7ff
7ff
7fe
7ff
7fe
000
7ff
7ff
7ff
7ff
7ff
7fe
7fe
000
000
000
7ff
7ff
7fe
7fe
000
7fe
7fe
7ff
7ff
000
7ff
001
001
002
002
002
001
002
001
001
7ff
000
7ff
7fe
7ff
000
001
7ff
7ff
7ff
7ff
000
7ff
000
7ff
7ff
000
000
004
006
006
005
008
004
002
004
002
7fe
000
7fe
7fe
7fd
7ff
000
001
7ff
000
7ff
7ff
000
7fe
7fe
7ff
001
001
002
007
007
009
008
006
005
002
003
003
7ff
7fe
7ff
7fc
7fc
7fc
7ff
7ff
7fe
000
000
7ff
7ff
7fe
7ff
7ff
001
003
005
008
009
009
009
00a
009
008
009
007
005
7fe
7fe
7fc
7fc
7fa
7fe
7ff
000
7ff
7ff
7ff
000
7ff
7ff
001
003
007
005
006
008
005
005
007
006
003
003
001
001
7fe
7ff
7fc
7fc
7fa
7fc
7fe
000
000
7ff
000
000
7ff
000
002
004
006
005
005
002
002
000
003
004
001
001
7fb
7fe
7ff
7fe
7fe
7ff
7fb
7fc
7ff
7ff
7fe
000
000
7ff
000
001
003
002
003
003
003
003
004
002
003
007
004
7ff
7fe
000
002
000
7ff
7fd
7fa
7fb
7fe
7ff
7ff
7ff
000
000
001
001
003
001
000
7ff
002
001
002
000
000
005
005
002
000
000
000
000
000
7fe
7fb
7fc
7ff
000
7fe
000
000
7ff
7ff
000
7ff
7fe
7f8
7f9
7fb
7f8
7f7
7f5
7f4
7fb
001
001
000
001
7ff
7ff
7ff
7fd
7fa
7fd
000
000
7ff
7fe
000
000
7fe
7fd
7f9
7f5
7f0
7f1
7ee
7ee
7f0
7ef
7eb
7f0
7f8
7fd
7fe
7fe
000
7ff
7ff
7fc
7fd
000
7ff
7ff
000
7ff
000
000
7ff
7fd
7f6
7ed
7e9
7ea
7eb
7ed
7ee
7ef
7ee
7f1
7f6
7f9
7fa
7fd
000
000
7fe
7fc
7fa
7ff
7ff
000
000
7ff
7ff
000
7ff
7fb
7f4
7ec
7ee
7ef
7f5
7f8
7fc
7fa
7fd
7f9
7f9
7f8
7fa
7fd
7ff
7ff
7fe
7fb
7fb
7fe
001
7ff
000
000
000
000
7ff
7fe
7f8
7f5
7f7
7fd
7ff
002
003
003
005
000
7fd
7fe
7fc
7ff
7fd
7ff
7fd
7fa
7fc
7ff
002
002
7ff
7ff
7ff
7ff
002
001
000
002
003
005
003
004
002
002
005
000
002
000
7fc
7fc
7fe
7fe
7fd
7fb
7fd
002
003
001
7ff
7ff
7fe
7fe
002
004
007
007
004
002
004
003
003
006
006
001
7ff
000
7fd
7fe
7fc
7ff
000
001
002
006
007
001
7ff
7ff
000
7ff
002
007
00a
009
006
004
005
008
007
008
004
002
003
003
000
002
7ff
003
003
002
003
009
008
002
000
000
000
7fe
001
008
00d
00c
009
006
007
00a
009
00f
00b
009
005
003
006
004
003
007
007
008
00a
00c
007
7ff
7ff
7ff
7ff
7fe
000
004
008
00a
009
008
009
008
009
00a
008
005
002
004
006
003
003
005
006
008
009
008
004
000
000
7fe
000
000
7fe
004
005
007
00a
00a
006
006
00a
006
002
001
002
002
000
004
007
005
007
009
008
006
003
000
000
7ff
7ff
000
7ff
001
002
005
006
005
006
006
005
002
001
7ff
000
003
003
007
007
003
007
008
009
005
002
000
000
7fe
000
7ff
000
002
001
003
003
003
004
004
005
001
7fc
7fb
7fd
7fe
002
006
008
007
007
006
006
002
000
000
7ff
000
000
7ff
7ff
7ff
7fe
7fe
7fe
7fd
7fe
7ff
002
000
7fe
7fd
7fc
7fb
7fe
001
006
005
006
005
002
001
001
000
7ff
7ff
7ff
000
000
7ff
7fd
7f9
7fb
7fb
7fb
7fb
7fc
7fc
7fe
7fd
7fc
7fc
7fd
7fc
7fe
7fe
7fe
7ff
7ff
000
001
7ff
7ff
000
7fe
7ff
7ff
7ff
7fe
7fd
7fb
7fb
7fb
7fb
7fa
7fc
7fc
7fb
7fc
7fd
7fd
7ff
7fd
7ff
7ff
000
7ff
7ff
7ff
7fe
7ff
7fe
7ff
7ff
000
000
7ff
000
000
7ff
000
000
000
000
7ff
7ff
7fe
7ff
7ff
7ff
7ff
000
000
7ff
7ff
7fe
000
000
000
000
7ff
7fe
7ff
7fe
000
000
7ff
000
7ff
000
7fe
000
7ff
000
7ff
7ff
7ff
7ff
7ff
000
7fe
7ff
000
7fe
7ff
000
7ff
