000
000
002
002
000
000
001
000
000
000
000
001
002
001
001
000
001
002
000
001
000
001
002
000
002
000
002
001
001
001
000
000
001
002
000
000
001
000
001
7ff
001
7ff
000
001
001
000
000
000
002
000
000
000
001
001
000
001
002
001
002
002
002
001
002
7ff
7ff
000
000
7ff
7fc
7fe
7fe
7fd
7fe
000
001
002
002
001
002
000
001
001
000
001
002
001
001
001
001
000
001
7ff
7fe
7ff
7fc
7fc
7f9
7f9
7fa
7f8
7fb
7fd
000
001
001
002
001
001
002
002
001
001
002
001
002
001
001
002
7ff
000
7fd
7fe
7fa
7fa
7f8
7f9
7f8
7f9
7fd
7fd
7fe
002
002
003
003
003
001
002
000
000
002
001
001
000
001
000
001
7ff
000
7ff
7fb
7fd
7fb
7fa
7fc
7fc
7ff
001
7ff
001
002
002
006
007
004
000
001
000
002
002
001
002
002
002
001
000
000
7fe
7fc
7fa
7f6
7f5
7f4
7f6
7f5
7fa
7fa
7fd
7fe
000
008
009
003
003
002
000
001
000
001
001
001
002
7ff
000
7ff
7fe
7fa
7f6
7f4
7f7
7f5
7f5
7f5
7f9
7f9
7fb
7fa
7fd
005
007
004
002
002
001
002
002
002
000
001
001
001
000
7fb
7fe
7fd
7fa
7f7
7fa
7f3
7f2
7f5
7f9
7fa
7fe
7fc
7fc
002
004
003
001
001
001
002
002
002
000
7ff
000
7fd
7fe
7ff
000
7fe
7fe
7fe
7fb
7ed
7f2
7fd
7fd
7ff
000
7fe
7fe
001
000
7fe
7fe
7ff
002
001
001
001
000
001
7fd
7fc
7fe
001
005
003
002
003
7f9
7ec
7fa
001
7ff
7ff
001
7fc
7fd
000
7fc
7fe
7fe
001
002
001
001
001
7ff
000
7ff
7fe
001
004
007
00a
006
007
7f5
7f1
002
008
001
000
7ff
7fc
7fc
7fe
7fd
7fc
000
000
001
002
001
001
001
000
7ff
004
007
00a
009
00f
011
010
000
7f8
006
00a
001
000
001
000
000
000
7fe
7fe
7ff
002
001
000
001
000
001
002
005
00a
00b
00d
00b
00d
015
010
000
7fe
007
008
008
006
003
006
004
002
7ff
7ff
000
002
001
000
002
000
002
004
009
00c
00d
00a
009
00b
00e
00a
001
7ff
003
008
00e
009
009
005
003
001
001
000
001
001
001
001
002
001
002
004
004
007
006
00a
009
006
004
005
001
004
006
00c
00b
008
005
7ff
002
003
000
7fe
001
000
001
001
000
000
000
001
003
004
007
00b
008
002
000
002
003
00a
00e
00e
00c
008
001
003
005
001
7ff
000
000
001
001
001
001
002
000
7ff
7fe
001
006
00b
00a
004
003
004
00a
010
00d
00b
003
001
7fc
001
000
7fe
7ff
7ff
7ff
001
002
001
001
001
000
7ff
7fd
7fd
000
003
001
7fe
7ff
004
004
007
006
003
7fb
7fb
7f9
7fc
7fc
7fa
7fc
7ff
7ff
001
000
001
002
001
000
7fd
7fc
7fb
7f8
7f7
7f7
7f5
7f6
7f7
7fb
7fe
001
7fc
7fc
7fc
7fa
7f9
7fa
7fa
7fc
7ff
001
002
001
002
002
001
000
7fd
7fc
7fa
7f6
7f4
7f3
7f3
7f6
7f8
7f7
7fb
7fd
7ff
7ff
7fe
7fb
7fd
7fc
7fc
7fe
7fe
000
001
002
000
001
000
000
000
7fe
7fa
7f7
7f8
7f7
7f8
7fa
7fb
7fc
7fb
7fe
7fd
001
7ff
000
000
7fd
7fd
000
000
001
001
001
001
001
001
001
000
7ff
7fd
7fc
7fa
7fd
7fc
7fe
7fd
7fe
7fd
7fe
7fe
001
003
004
003
002
7ff
7ff
000
001
000
001
001
000
001
001
001
001
7ff
7fe
7fe
001
7fe
000
7fe
7fe
7fe
000
001
002
005
005
004
002
7ff
001
001
001
000
002
001
002
001
002
000
001
000
7fe
7fe
7ff
7fe
000
7fe
7fe
7fd
7fd
7ff
7ff
000
002
002
7ff
000
001
002
000
000
001
002
002
002
000
002
000
7ff
7fe
7fd
7fd
7fb
7fa
7fa
7fa
7fb
7fb
7f9
7f8
7f9
7fc
7fd
7ff
000
001
000
002
001
001
001
001
000
001
000
000
001
000
000
7fe
7fb
7fc
7fb
7fa
7f9
7fb
7fa
7fb
7fc
7fe
7ff
001
001
000
001
000
002
001
001
000
000
002
001
002
001
002
000
001
000
000
000
000
7ff
002
000
000
000
001
001
001
001
001
001
002
001
001
