000
000
001
000
002
7ff
000
001
001
001
7ff
000
000
000
001
000
000
000
000
000
001
002
000
001
000
001
000
000
001
000
000
001
001
000
001
000
000
000
000
7ff
001
000
001
000
001
001
001
001
000
001
000
002
001
000
000
001
001
001
001
000
001
7ff
000
001
001
000
000
001
000
000
000
001
001
000
000
001
001
001
7ff
001
000
001
001
001
000
000
001
000
000
000
000
001
000
001
7ff
000
001
7ff
001
7ff
7ff
7ff
7ff
7ff
000
7ff
000
000
001
002
7ff
001
001
7ff
001
7ff
000
000
000
7ff
000
000
7ff
7fd
7fd
7fd
7fd
7fb
7fd
7fe
7fe
7ff
7fe
001
000
7ff
001
000
001
001
001
000
001
000
7ff
000
7ff
000
7ff
7fe
7fb
7fa
7f8
7f7
7f5
7f5
7f4
7f6
7f7
7f9
7fb
7fe
7fd
000
001
001
000
000
001
001
000
000
002
002
002
003
005
004
004
001
7fd
7f9
7f9
7fc
7fe
7fd
7fd
7fc
7fa
7fe
7fc
7fd
7fe
7ff
7ff
000
001
001
001
003
003
003
004
007
009
007
005
006
006
001
001
002
006
007
005
004
001
7ff
000
7ff
7ff
000
001
000
7ff
002
001
002
005
004
006
00a
007
005
006
008
008
004
002
003
006
009
006
005
004
000
002
002
7ff
7ff
001
001
001
001
002
003
005
005
002
003
003
002
005
006
007
006
009
00b
00a
00b
007
007
006
005
002
7ff
7fe
7ff
001
000
000
001
001
004
005
004
001
001
7fe
000
003
005
004
008
00b
00d
00f
00b
009
009
008
007
003
7ff
7fe
7ff
000
000
001
001
001
004
005
003
001
001
000
003
002
002
003
003
003
00a
00d
009
009
007
007
004
003
7ff
7fd
000
000
001
001
000
001
003
003
001
001
003
002
000
7fe
7fa
7f2
7eb
7f0
000
009
008
003
001
000
7ff
7ff
7fe
7ff
001
001
000
001
001
001
002
001
000
7ff
001
000
7fe
7f9
7f2
7e7
7e4
7f1
7fe
005
003
001
001
7fd
7fd
7ff
000
7ff
7ff
001
7ff
000
001
002
003
002
002
7ff
7ff
7fd
7f9
7f5
7ef
7eb
7ee
7f9
000
001
003
008
009
005
003
003
003
001
000
000
000
001
001
000
001
001
7fd
7ff
7fe
7f8
7f6
7f3
7f1
7f0
7f4
7f9
000
001
00b
00d
00b
00a
008
005
002
000
7ff
000
001
001
001
000
001
001
7ff
7fe
000
7fa
7f9
7f4
7f2
7f7
7fb
7f9
004
004
009
008
008
007
005
001
7fe
7ff
7ff
001
001
000
000
001
000
000
7ff
7fc
7fa
7f9
7fa
7f8
7fa
7fe
001
001
001
7ff
002
002
001
001
7ff
7fd
7ff
7ff
7ff
000
000
000
000
001
000
7fe
7fc
7f9
7f7
7f8
7f9
7f7
7fd
7ff
000
003
7fd
7fd
7fe
7fc
7fd
7fc
7f9
7fb
7fd
7fd
000
000
000
001
001
001
001
7ff
7fb
7f7
7f7
7f7
7f6
7fa
7fb
7fd
001
004
7fc
7fc
7fb
7f8
7f9
7f7
7f8
7fa
7fc
7fe
7ff
001
7ff
7ff
000
001
000
7ff
7fc
7f7
7f7
7f7
7f8
7fa
7fa
000
001
002
7fb
7f9
7f7
7f4
7f8
7f6
7f8
7fa
7fe
7fe
001
001
001
001
001
000
7fe
7ff
7fc
7fc
7fa
7fa
7fd
7fb
7fc
7fe
000
7ff
7fc
7fc
7f7
7f8
7f8
7f7
7f8
7fc
7fd
000
001
001
000
000
000
000
7ff
000
001
7ff
001
001
7fe
7fd
7fa
7fb
7fe
001
001
7fd
7fc
7f9
7f9
7f8
7f9
7fd
7ff
001
7ff
000
000
001
001
7ff
7ff
001
002
004
005
003
001
7fe
7fc
7fd
000
002
002
7ff
7ff
7fc
7fa
7fa
7fb
7fc
7fd
7ff
000
000
000
000
000
000
001
002
004
007
008
007
003
007
004
004
005
003
005
003
002
000
7fe
7fe
7fd
7fd
7fd
000
000
7ff
001
7ff
001
001
001
001
002
003
005
008
008
009
009
008
006
006
007
005
005
004
001
7fe
000
7ff
7ff
000
000
002
001
7ff
000
001
000
000
001
000
001
001
000
002
003
001
002
005
006
005
006
003
002
000
001
000
000
000
000
000
000
7ff
001
000
001
001
001
000
000
002
001
000
001
000
002
001
001
003
001
001
002
000
000
001
001
000
000
7ff
001
