7ff
7fe
000
000
000
000
7ff
000
7ff
000
000
7ff
7ff
7ff
7ff
7ff
000
000
7fe
000
7ff
000
7fe
000
000
7fe
7ff
000
7fe
7ff
7fe
7ff
7fe
7ff
000
000
7fe
7fe
7fe
7ff
000
7ff
7ff
7ff
000
7fe
000
7ff
7ff
7fe
7ff
000
7fe
000
7ff
7fe
7ff
7ff
7ff
7fe
000
000
7ff
000
000
7ff
7fe
7fe
7fe
7fe
7ff
7ff
7ff
7ff
000
000
7ff
7fe
000
000
000
7ff
7fe
7ff
000
000
7ff
000
000
000
7ff
000
000
7ff
001
002
005
004
004
005
003
004
003
000
000
7fd
7fe
000
000
7ff
7ff
7ff
7ff
000
7ff
000
001
000
003
002
007
006
007
008
00a
00b
009
007
004
003
005
001
7fc
7fb
7fb
7fb
7ff
7ff
7ff
000
7fe
7fe
7ff
7ff
000
003
005
004
005
004
004
005
005
006
001
004
005
000
000
7fe
7fd
7f9
7f8
7f9
7fe
000
7ff
7ff
7fe
7ff
7ff
001
004
007
005
004
006
005
004
004
006
008
006
002
005
005
005
7fe
002
7fe
7f9
7f9
7fc
7ff
000
7ff
000
000
000
003
008
008
006
002
002
004
001
002
005
005
007
004
001
004
003
003
003
000
7fd
7f8
7fa
7fe
7fe
7ff
7ff
7ff
000
003
007
006
005
002
003
002
004
001
001
002
008
007
002
004
005
004
005
003
7ff
7f9
7fa
7fe
7fe
7ff
7ff
7fe
7ff
001
003
005
004
001
000
7fc
7f9
7f4
7f6
7ff
00a
00f
009
005
005
005
008
005
7ff
7f9
7fc
7fe
7fe
7ff
000
000
000
002
002
001
7fe
7fb
7f6
7f2
7ee
7ee
7f3
7fd
008
009
008
007
004
008
007
003
7fd
7fb
7fe
7fe
7ff
000
000
000
7fe
002
7ff
7fa
7f8
7f4
7f1
7f3
7f6
7fb
7fd
003
005
005
002
005
007
007
006
000
7fd
7fe
7fe
7ff
7fe
7fe
000
7ff
000
000
7fe
7fa
7f6
7f4
7f5
7fa
000
001
002
004
009
005
003
004
004
000
7fb
7fa
7f9
7fc
7ff
7ff
7ff
000
7ff
7ff
7ff
7ff
7fd
7fc
7f8
7f7
7fa
7ff
7fe
7fb
000
008
008
001
003
004
002
7fd
7f9
7f9
7fa
7fc
7fe
000
000
7ff
000
7fe
7ff
7ff
000
7fd
7f9
7f9
7fc
7ff
7fb
7fb
001
004
004
7ff
7fe
7ff
001
7fd
7fc
7fe
7fd
7fe
7fd
7fe
000
000
000
7fe
000
001
7ff
7fc
7f9
7f9
7fb
7fd
7fd
7ff
001
006
003
000
7fb
7ff
000
001
003
003
001
000
7fe
000
7ff
7fe
7ff
000
001
000
001
7fe
7fd
7fb
7f6
7f5
7f6
7fe
003
007
7ff
7fb
7fa
7fe
002
006
004
006
005
002
7ff
000
000
000
000
000
000
003
002
001
7fe
7fa
7f5
7ee
7ea
7ec
7f1
7f7
7f8
7f9
000
002
004
006
001
008
008
002
7ff
7fe
7fe
7ff
7ff
7ff
001
005
004
002
001
7ff
7fc
7f3
7ed
7ee
7ea
7ee
7f5
7fd
005
006
007
007
005
009
009
003
7fd
7fe
7ff
000
000
7ff
7ff
006
007
008
007
002
001
7fd
7fe
7fa
7f7
7f6
7f9
002
006
008
009
008
007
008
003
000
7fd
000
000
7ff
000
7fe
001
007
009
009
00a
005
006
007
002
7ff
7fe
7fd
001
002
003
006
006
004
008
004
7ff
7fe
7fe
7ff
7ff
7ff
7ff
000
000
003
008
008
007
004
004
001
7ff
7fe
001
000
7ff
7ff
002
001
004
006
004
001
7ff
7fc
7ff
7fe
7fe
7fe
7ff
7ff
000
002
004
006
005
003
000
002
003
003
001
7ff
7ff
7fe
001
001
001
004
002
7ff
7ff
7ff
7fd
7fe
000
000
7ff
7fe
7ff
001
005
007
005
005
001
003
002
000
7fe
000
001
002
001
003
004
7ff
7fd
7fd
7ff
7fe
000
000
7fe
7fe
7ff
000
000
000
003
005
006
007
007
005
008
008
009
007
006
004
004
000
7fd
7fb
7fc
7fd
7fe
7ff
7ff
000
7ff
000
000
7fe
000
000
7ff
002
003
002
004
004
007
008
009
007
005
002
7ff
7fd
7fd
7fe
7fe
7ff
7ff
000
7fe
000
7fe
000
7ff
7fe
7fe
000
000
7ff
7fe
7ff
000
7ff
7ff
7ff
7ff
7ff
7ff
7fe
7ff
7ff
7ff
7ff
7fe
7fe
000
7ff
000
7ff
000
000
7ff
7fe
7ff
7fe
000
7ff
000
7ff
000
7fe
7fe
000
7fe
000
7ff
7ff
7ff
000
7fe
7fe
000
7ff
7fe
000
7fe
7fe
000
7ff
