7ff
7ff
7ff
000
7ff
000
7fe
000
7ff
7ff
7ff
000
7ff
000
7fe
000
000
7fe
000
7ff
7ff
7ff
7ff
000
000
7ff
7ff
7ff
7ff
7fe
000
000
7fe
7fe
7fe
7fe
000
7ff
7ff
7fe
000
000
7ff
7ff
000
7ff
7ff
7ff
000
7fe
000
7ff
000
000
7ff
7ff
7fe
000
7ff
7ff
7ff
7fe
7ff
7fe
000
7fe
7fe
000
7ff
7fe
000
7ff
7fe
7ff
7ff
000
000
000
000
7ff
000
7ff
000
000
7ff
7ff
7ff
7fe
000
7fe
7fe
7ff
7fe
7ff
7ff
7fd
7fd
7fd
7fd
7fe
7fd
7fe
7fe
7ff
7fe
000
7ff
000
7ff
000
7ff
7fe
7ff
000
7ff
7fe
000
000
7ff
7fe
7fe
7ff
7ff
000
002
002
005
004
002
001
002
7ff
7fe
7ff
7fe
7fe
000
000
7ff
7ff
7ff
000
000
000
7ff
7ff
7ff
7fd
7ff
001
7fd
004
007
006
006
003
002
006
000
000
002
001
7fd
7fd
7fe
001
7ff
000
7ff
7ff
7fe
7fe
7fe
7fe
7fd
7fd
000
001
000
002
003
002
003
006
003
003
001
004
001
002
002
002
002
001
7ff
000
000
7ff
7fe
7ff
7fe
7ff
7fe
000
002
001
001
7ff
7fd
7fe
7fd
002
002
000
002
7fe
002
004
001
008
005
000
000
000
000
000
000
7ff
000
7ff
003
002
001
005
000
000
004
005
7fc
7fd
003
7fe
001
002
002
005
003
006
005
7ff
000
001
000
000
7ff
7ff
7ff
003
002
005
006
005
003
006
002
002
7f9
7f6
7fd
001
001
002
003
002
005
005
7ff
7ff
001
7fe
7ff
000
7ff
000
001
004
004
007
005
006
009
004
004
004
7ff
7f7
7f8
7fe
003
003
003
006
007
006
000
000
7ff
7ff
7ff
000
000
7fe
002
004
008
00b
008
00a
007
003
004
00a
00d
7fe
7f8
7fd
7fe
001
006
007
009
009
006
001
001
000
7ff
000
7ff
000
000
005
004
006
006
008
001
002
001
00d
00d
003
000
7ff
7ff
003
005
009
00b
009
006
002
001
7fe
7fe
7ff
000
7fe
7ff
000
7ff
7ff
001
7ff
7fd
001
005
00c
004
009
003
7fe
000
000
004
003
002
003
001
000
000
000
7ff
7fe
000
7ff
7fe
7fd
7fa
7f8
7f7
7f9
7ff
005
005
00a
008
005
7ff
001
7ff
7fd
7fb
7fb
7fc
7fb
7fe
000
7fe
000
000
7ff
7ff
7ff
7fe
7fd
7f8
7f7
7f7
7fe
000
000
007
008
007
004
7fe
7fe
7ff
7f9
7f7
7f9
7fc
7fc
7fd
7ff
7fe
000
7ff
7fe
7ff
7ff
7fd
7fb
7f8
7fb
003
003
001
003
006
006
002
003
001
7fd
7fa
7f8
7f8
7f8
7fa
7fe
7fd
7ff
7ff
7fe
000
000
7ff
7fe
7fe
7fb
7f9
001
007
008
003
006
00a
006
001
7fe
001
7fd
7f8
7fc
7fc
7fb
7fc
7fd
7ff
7fe
000
7ff
7ff
000
7fe
7fe
7fd
7fd
7fe
002
005
00a
007
009
006
003
7fc
7ff
7fe
7fa
7fe
7ff
000
7fd
7ff
7fd
7fc
7fe
000
000
7ff
7ff
000
7fd
7fd
7ff
001
003
003
007
003
000
002
7fc
7fb
7fe
7fe
7fe
002
000
002
000
001
7ff
7fd
7fe
7fe
000
7ff
000
7ff
7fe
7fc
7ff
001
006
002
7ff
000
7fb
000
000
7fb
7ff
7fb
7fe
001
001
002
003
003
7ff
7fe
7fe
7ff
7ff
000
7ff
000
7fd
7fb
000
002
005
001
002
000
7fd
7fe
001
000
7ff
7fc
7fe
7ff
000
000
001
001
7ff
7ff
000
000
7ff
000
7fe
7ff
7fe
7fc
7fa
001
001
000
7fe
001
000
007
007
005
004
000
000
002
7fe
7fe
001
000
7ff
000
000
000
7ff
7ff
000
7ff
7fe
7fc
7f7
7f9
7fc
001
001
003
004
008
00b
00a
008
006
004
004
004
003
001
000
7ff
7fe
000
7fe
000
000
000
000
7fe
7fe
7fa
7f8
7f9
000
002
7ff
003
002
001
004
008
009
006
008
008
002
000
7fe
000
7ff
7ff
000
000
000
000
000
7fe
7ff
7fe
7fd
7fc
7fc
7fc
7fe
7fd
7fe
7fe
000
003
002
003
003
000
7ff
000
7fe
7fe
000
7ff
7ff
7ff
000
000
7ff
7ff
7fe
7fe
7fe
7ff
7fe
7fe
7fe
7ff
7ff
7ff
7fe
7ff
7fe
7fe
7fe
7ff
7ff
000
7ff
000
000
7fe
7ff
7ff
000
7ff
7ff
7ff
000
7fe
000
7ff
000
7ff
7fe
000
7ff
7fe
7ff
000
7ff
000
000
000
000
7ff
000
7ff
7ff
000
7fe
7ff
