FFFF7B
00004B
FFFFD6
FFFFEC
000059
FFFFF6
FFFFAB
FFFFA6
FFFFEB
FFFFD3
000063
FFFFF8
00002D
FFFF7E
FFFFF8
FFFF4E
FFFF6C
FFFFD8
FFFF68
000062
FFFF6B
FFFFD0
FFFF60
FFFFEF
000031
FFFFDC
FFFFF8
FFFFFA
000038
000045
000016
FFFF64
FFFF5C
000008
FFFF7E
FFFFDB
FFFF9B
FFFF49
FFFF8B
000009
00006F
FFFF67
FFFFAD
000030
FFFF81
FFFF53
000020
00004D
FFFF7B
000024
FFFF8F
FFFF71
FFFFE3
000009
FFFFD2
00005F
FFFF5A
FFFF9A
FFFF90
00002F
00000C
FFFF54
FFFFD7
00005B
FFFFC8
FFFF85
FFFF89
FFFF35
FFFF28
FFFFB5
FFFF20
FFFEE1
FFFF2F
FFFFC9
FFFF4E
FFFF1B
FFFFD8
000044
00000C
FFFF81
000056
FFFF49
FFFFD3
000029
FFFF55
FFFFD7
000060
FFFF5A
FFFF89
00004D
00001F
000003
00000C
FFFFD4
FFFFC6
FFFF1E
FFFECB
FFFF51
FFFF0E
FFFEEE
00002D
000015
FFFECF
FFFEFB
FFFE8A
FFFEF6
FFFEBF
FFFF21
FFFF65
00003A
000038
FFFFA7
000016
FFFF53
FFFF86
FFFF57
FFFF41
FFFFE7
FFFFCC
FFFF54
FFFFC6
FFFFDA
FFFEEA
FFFEEE
FFFEF2
FFFEFE
FFFFB9
FFFFE4
FFFF2B
FFFF38
FFFF32
FFFEE1
FFFF8B
FFFE8F
FFFF70
FFFFEB
FFFF5F
FFFFB7
FFFFA1
FFFFF0
00002D
FFFFAE
FFFFFC
FFFF68
FFFFD6
FFFFB6
FFFFC9
FFFF8D
FFFFCC
FFFF31
FFFFA2
00003C
0000F1
00020A
000277
000270
0002BE
0002F3
00031F
000119
000032
000082
FFFFBF
FFFFF6
FFFEAA
FFFF08
FFFFEE
FFFF7C
FFFFBB
FFFFDF
000012
FFFFC7
000002
000008
000013
FFFFF8
FFFF54
FFFEDC
00009F
FFFFE6
0001B1
00017F
00016D
00021F
000296
0003AA
000368
0002E8
0002CD
000333
0001D0
0000A6
FFFE9C
FFFE8D
FFFF05
000025
000055
00000D
FFFFEE
FFFF25
FFFEAD
FFFFE2
FFFF77
000002
FFFF61
FFFFD1
00001E
000135
000283
000250
0000F2
00017A
00021B
0003EF
0002E5
000288
000109
0001FD
00022F
00011E
FFFF26
FFFE9B
FFFEC0
FFFFEC
000060
000023
FFFFD6
FFFFFE
FFFF07
FFFF3F
FFFF61
FFFF3D
FFFF99
FFFF93
000131
000141
0000A4
000045
000072
0001C5
000529
00041B
0003D0
000133
000102
0000EC
000243
0003F1
FFFF90
FFFEB0
FFFFDE
FFFF4F
FFFFE4
FFFFEF
00001D
000016
FFFEC8
FFFF21
FFFEC1
FFFF49
FFFF4B
FFFFA3
0000DB
FFFF44
00006D
00014A
000126
0000FA
0002D3
0003C4
000454
000281
0000C3
FFFFDB
0001DB
000402
00012B
FFFF03
000003
FFFFE0
FFFF5D
00004F
FFFF77
FFFF07
FFFF1C
FFFF4B
FFFF67
000014
000068
FFFFE7
FFFF51
000038
000047
FFFFD6
FFFEA3
FFFDA9
FFFE98
00015B
000372
000392
000328
00024A
000364
0004A4
000235
FFFF16
FFFF15
FFFF4D
FFFF86
FFFF5D
000044
FFFFCD
FFFE42
FFFFA0
000045
000150
0000FC
FFFF9F
000058
000008
0000AD
FFFF89
FFFC4E
FFF929
FFF990
FFFD7C
FFFFAA
0001D0
0002E7
0002B0
0003AB
000429
0002FE
FFFF6C
FFFFF6
FFFF42
FFFF80
FFFFD7
FFFFC5
FFFFCF
FFFF04
000028
00016E
00017F
0000B9
FFFFCC
000106
0000BA
000157
FFFEE5
FFF8C1
FFF706
FFF710
FFFB1D
FFFF22
FFFFA4
000070
000140
0004C2
00045A
000306
00001B
FFFF86
FFFF84
FFFF4A
FFFFFB
00003F
FFFF52
FFFFBD
0000E3
0001BC
00023D
0001B1
00012F
00019E
000142
0000E8
FFFB96
FFF8BE
FFF6C7
FFF86D
FFFC3D
FFFE29
FFFD88
FFFE1D
0000D3
00031F
0004E6
0002C8
000072
000000
000045
FFFFE6
000036
FFFF74
FFFF9B
FFFF27
00024A
0002FA
00039D
0001BC
000215
000310
0001C2
00006E
FFFC29
FFF771
FFF6C0
FFF8A4
FFFBF9
FFFE3A
FFFDDB
000031
0001BE
000214
0004F3
000293
FFFF7A
FFFFBD
FFFF71
000049
000028
FFFF87
FFFFE4
FFFFF6
00033C
000259
00033B
00023B
0002F5
0003BD
000108
FFFD2E
FFF8D1
FFF669
FFF6DE
FFF9D5
FFFCFD
FFFEE0
FFFEE9
0000EF
0000D2
000325
0003B2
0001EA
FFFFCF
00000D
FFFF7E
000015
00005C
FFFF44
FFFF9A
00008B
0002EF
0003A6
0002D2
0001F5
0001F9
000355
FFFF8F
FFFA87
FFF67B
FFF6BB
FFF8A5
FFFC0F
FFFE29
FFFFF9
00009A
000162
00020F
0002D5
0002B4
000107
00000C
FFFFAA
FFFF8C
FFFFBC
000016
FFFF61
FFFECB
00001A
000216
00029E
00028B
0000CB
00020A
00033A
FFFF81
FFF971
FFF69C
FFF7BC
FFFB12
FFFF5A
000141
0001CF
0001AB
000220
00019F
000148
000174
FFFFEB
FFFFC8
00001C
FFFF7D
FFFFA6
00001D
FFFFC1
FFFF8A
FFFFBF
000154
0002B6
000191
0000F6
0002B2
00052C
000034
FFFBD2
FFF942
FFFB4D
FFFE91
000184
00019E
0001B1
0000E1
000070
0000BB
000169
0000E1
FFFFE4
FFFF91
00000D
FFFFC1
FFFFC8
FFFFB2
FFFFBA
FFFED3
000080
000175
00037C
00032A
00027A
000349
00052F
0003A5
0000C5
FFFE52
FFFF44
FFFF87
0000CA
FFFFA2
FFFF53
FFFF97
0000D0
0000BE
000174
FFFFCE
000035
FFFFAE
FFFF3F
000042
000041
000056
FFFFC1
FFFF71
FFFFAB
00017E
0002CD
000210
00028E
000324
0004E5
0004E4
000273
0000BF
FFFF7D
00005A
000055
FFFF49
FFFF75
FFFF3D
000067
000080
0000C5
000044
FFFF91
FFFFE6
FFFF64
FFFFAF
FFFF8C
FFFF55
FFFFC3
FFFF8F
FFFFB8
000063
0001BB
0002D0
0001F9
000224
000431
0004BD
000324
000130
000071
000017
FFFFEC
FFFEB3
FFFF02
FFFF6E
00007E
FFFFF6
FFFF69
FFFF0F
FFFFC4
FFFFB0
FFFF8B
FFFF9B
FFFF70
000008
00000D
FFFFAB
FFFF68
000037
000142
000117
000328
000291
0002D4
00035E
0002DF
0003B1
000199
0001A2
0000E5
FFFF3D
FFFF65
FFFFF4
FFFF25
FFFF1A
FFFF91
FFFF88
FFFFD5
FFFFB6
FFFFA0
FFFFCD
FFFF70
FFFFD9
FFFFFC
FFFF52
FFFF4E
FFFFCC
FFFFEA
0000DF
00013C
0002ED
000381
000449
00043E
00028B
000212
000125
00007B
FFFFF3
FFFE62
FFFDF9
FFFE6E
FFFF39
FFFF5E
FFFFEB
FFFFC2
000032
FFFFA9
FFFF4B
FFFFAF
FFFFDC
FFFF4E
FFFFF8
FFFFCF
FFFFD1
FFFF2A
FFFEE2
FFFF61
FFFF71
0000A5
00007D
00012F
0001BB
0000EA
FFFF4D
FFFEEB
FFFEB5
FFFEE6
FFFE74
FFFE87
FFFE9C
FFFFBA
FFFFA2
FFFF6A
FFFF91
000008
FFFF7E
FFFF93
000065
FFFFC9
000054
000060
FFFFFB
FFFF3F
FFFFAB
FFFE89
FFFE9D
FFFE46
FFFDC3
FFFD71
FFFDAB
FFFD49
FFFD8D
FFFDAF
FFFE9B
FFFED8
FFFF06
FFFEEB
FFFF00
FFFFAA
00005F
00002E
FFFFBB
FFFFA4
FFFFDD
000050
000048
FFFFB6
000004
FFFF9B
FFFFAF
FFFF52
000022
FFFFA3
FFFEC5
FFFEC4
FFFEE2
FFFF8D
FFFEE3
FFFEF1
FFFF9B
FFFEE0
FFFF16
FFFF51
FFFF24
FFFF92
FFFEF8
FFFF21
000056
FFFF77
000019
000047
FFFFEF
FFFF6B
00003B
FFFFE6
FFFFAF
00004C
00000E
00001A
FFFF4A
000059
000056
00001E
00003E
FFFFD4
FFFF94
00003B
FFFF63
FFFFC6
FFFF92
FFFFE5
FFFF9E
FFFF46
FFFF59
FFFF13
FFFFC9
000026
FFFF69
FFFF42
000031
