0000FF
000079
000087
000037
0000D8
0000D2
0000E8
000039
0000CA
00003E
0000C0
00009B
0000D9
000121
0000FE
0000AE
0000B1
00003E
000129
000127
0000A8
0000D8
0000A7
000103
000062
000112
0000A7
0000F1
00001F
000100
00004B
0000B6
0000A3
000040
00005B
0000F1
0000E7
0000BC
0000BA
000089
0000DD
0000F9
000143
0000A0
000081
000103
0000AE
000076
000119
00010E
00006E
000122
000136
0000A4
000108
0000D4
000105
0000C4
000139
00003C
00003A
0000CD
000098
000092
000062
0000AC
000004
000056
00000B
00004B
00009E
0000FF
0000C1
000000
0000BE
000072
0000FA
00006C
000113
0000C8
0000D8
000024
0000EA
0000F0
00005D
000068
0000B0
000090
000126
00009A
000021
00011F
FFFFE0
FFFFC5
FFFFC8
FFFF5F
FFFFC7
000015
000077
0000EF
FFFF89
FFFFD4
FFFFF9
FFFF47
FFFFEC
00004C
0000BF
0000BB
FFFFDD
000109
000063
000118
0000D7
000082
000129
000126
000020
00003A
000103
0000A5
00003E
FFFEF0
000018
00005F
000093
000108
000135
000279
0000AD
FFFF7A
FFFF6E
000062
00015E
000188
000186
0001C9
0000EF
000071
000063
00006D
000027
0000FF
000031
0000B3
00002D
0000AC
000033
FFFFBD
FFFDC5
FFFDC0
FFFEF8
000003
0000D7
0000F3
0001A6
000148
0000C2
FFFEC0
FFFFDF
000042
000138
0001F6
000344
000209
0001AB
FFFF91
000076
000041
000036
0000B9
000022
000090
000021
FFFFAA
FFFEC6
FFFEC9
FFFD36
FFFCA2
FFFDE4
FFFF81
FFFF7C
FFFEF1
FFFF83
FFFD95
FFFD66
FFFD61
FFFEE7
FFFF30
000139
000204
0001DE
000193
000068
FFFFAA
000007
000097
00007A
000044
000055
000013
0000CA
FFFFD4
FFFED3
FFFD98
FFFC3D
FFFB36
FFFCC0
FFFE94
FFFEB3
FFFE21
FFFDB0
FFFC67
FFFCDC
FFFD0D
FFFD58
FFFFE8
00008E
000058
000054
FFFEFD
FFFE9E
FFFF72
000072
000085
000094
00007D
00007B
000105
000053
FFFFF7
FFFE9A
FFFDE1
FFFB9E
FFFB3E
FFFB78
FFFD90
FFFEE1
FFFE9F
FFFEE0
00007D
FFFE02
FFFF53
FFFFE3
000042
FFFE80
FFFE8D
FFFDAE
FFFCF4
FFFD94
FFFF67
0000E6
00012F
000133
000046
00007D
00006B
FFFFEC
FFFFDE
FFFE38
FFFE50
FFFCFC
FFFB67
FFFBCA
FFFE56
FFFEC1
0000F1
0002F9
000442
000194
FFFFE3
FFFF49
FFFD1C
FFFC72
FFFC7E
FFFB95
FFFC2C
FFFDF2
00003D
0000FD
0000B7
000117
000135
000100
000021
0000D1
FFFF0D
FFFE51
FFFF38
FFFDA9
FFFDA0
FFFE44
FFFED7
FFFF38
00025F
0007AF
00081D
0003DA
FFFFEA
FFFDB1
FFFD38
FFFCA2
FFFCF6
FFFD23
FFFE39
FFFF67
FFFFE5
000107
00006C
000034
00002F
0000D5
0000E3
000000
FFFFBB
FFFFDC
FFFE89
FFFF0E
FFFE8A
FFFDDA
FFFCC1
FFFFA0
00040F
000944
0009D1
0003A3
FFFF34
FFFF44
FFFE10
FFFDF3
FFFE19
FFFE3D
FFFF2D
FFFFA6
0000D0
000124
0000CD
000020
000118
000086
00005A
00011E
FFFFC9
FFFFA8
FFFF83
FFFE9B
FFFE2C
FFFC21
FFFA92
FFFFD3
00041F
000AE8
000790
00017F
0000CA
FFFF88
FFFDCA
FFFE9A
FFFF52
FFFF9E
FFFF87
000012
00011C
00002A
0000C8
00001C
0000BE
0000B1
0000BD
00013B
000001
00001A
FFFF72
FFFF41
FFFCF4
FFF98B
FFF973
000002
000370
0008FD
000514
000157
0000A6
FFFDF2
FFFD04
FFFEEA
FFFF9E
FFFF9A
FFFFDB
000080
0000C0
000115
0000B3
00008C
00012B
0000A8
0000EF
0000F0
FFFFFF
000029
FFFFA3
FFFDFC
FFFC8B
FFF991
FFFB1E
FFFFE4
00037D
0007AA
0004EF
000179
FFFD42
FFFC49
FFFD2E
FFFE55
FFFF84
FFFF79
FFFFA4
0000D5
000020
00003B
0000AA
00013D
000034
0000CB
000081
000048
0000B8
FFFF4B
FFFF32
FFFEBB
FFFC37
FFFBC2
FFFEEE
00018E
0004E8
000834
0002E6
000087
FFFAD5
FFFB6C
FFFD32
FFFE50
FFFECA
FFFFB1
000017
00006F
00008F
000127
000031
000133
000096
000118
0000AB
00005A
FFFF83
FFFEE2
FFFECD
FFFD12
FFFE3F
FFFE9A
FFFF39
FFFFCD
000674
0007BE
000071
FFFD9A
FFFA69
FFFB60
FFFD06
FFFDBD
FFFF09
FFFF05
000003
FFFF91
000011
00004B
00009F
00007F
00012F
000043
00012B
0000DD
FFFF51
FFFD8C
FFFD57
FFFE19
FFFEC8
0000DF
000002
00021B
000764
000657
FFFEB6
FFFB98
FFFA64
FFFB68
FFFD18
FFFEE8
FFFF73
FFFF9B
FFFF79
FFFF18
000042
0000B0
0000CE
0000BB
0000AC
00006A
0000FA
00008A
FFFF08
FFFD62
FFFD67
FFFF06
0000FE
0000D2
000150
00036E
000585
0003D1
FFFD7D
FFFBE0
FFFC77
FFFCFB
FFFDFA
FFFF01
FFFE51
FFFF41
FFFEDA
FFFF4C
0000A2
000119
00011F
000127
0000D0
0000D8
0000F0
00001B
FFFE8B
FFFCC0
FFFDCF
FFFF1B
000083
000042
00002D
000074
00028B
00008F
FFFDEC
FFFE45
FFFE7E
FFFE1C
FFFE88
FFFDDA
FFFE36
FFFEEB
FFFF0C
00000D
00005D
000066
000028
00002F
000136
0000A7
00006B
FFFFAC
FFFEF7
FFFFCE
FFFF49
FFFFFB
00004D
FFFF33
FFFFB6
FFFEB2
FFFF8E
FFFFAC
000015
00013C
000071
FFFF88
FFFE43
FFFDDD
FFFE06
FFFE72
FFFFA6
000029
0000FD
000065
000138
0000DD
000074
0000B5
0000D9
0000AC
0001D1
00017E
0000B4
00001E
FFFF7B
000005
FFFEF3
FFFD9D
FFFD47
FFFFC1
0000D1
00014E
00017C
000106
FFFE45
FFFE4C
FFFE0F
FFFEAA
FFFF3A
00002C
000086
00001A
000026
0000AC
0000AF
0000C6
000028
000193
000384
0003A5
000233
00004C
FFFFC1
FFFF2A
FFFC86
FFFA5C
FFFBB0
000003
0000D8
00033B
00054C
000251
00007B
FFFECE
FFFF12
FFFFEA
000028
000013
000083
00012C
000090
000117
0000AE
0000DF
00007C
000168
000306
000339
00017A
000068
FFFF3F
FFFF7D
FFFE09
FFFEA0
FFFEC6
FFFE5C
0000A4
0003C2
000488
000209
FFFFA3
FFFF22
FFFEA8
FFFF89
FFFF93
000044
000022
000040
00001F
000043
00002B
000071
000023
0000AF
000156
000161
FFFF8D
FFFDFE
FFFDFC
FFFC75
FFFC9B
FFFCF5
FFFD64
FFFD67
FFFD66
FFFF3F
000050
000092
0000D4
0000B2
00002B
00005C
0000F7
00004A
000079
0000EA
00004D
00012F
000060
000073
0000A3
0000EA
0000D5
000003
FFFF7B
FFFFCB
FFFF86
FFFE05
FFFD96
FFFE37
FFFD80
FFFE78
FFFE10
FFFEE2
FFFFCC
000062
0000CC
000013
0000B9
00006E
000109
000042
00004F
000071
000061
00006F
0000D6
0000BF
00003A
0000CE
000112
0000BA
0000AB
0000F5
0000CF
00001C
0000A9
000099
000059
FFFFFA
000050
0000B4
000116
0000CD
000020
0000BF
0000B3
0000AB
000051
000047
0000CF
00011B
0000E6
0000E7
000124
00002E
0000A1
000133
0000F4
000114
0000FF
000114
000082
0000F2
0000FC
000019
000034
00012D
0000C4
0000B5
00001A
000083
000039
000035
000062
0000B1
0000FF
00011B
000114
000110
00005B
