00
00
00
00
00
00
00
00
00
00
00
00
00
00
00
00
00
00
00
00
00
00
00
00
00
00
00
00
00
00
00
00
00
00
00
00
00
00
00
00
00
00
00
00
00
00
00
00
00
00
00
00
00
00
00
00
00
00
00
00
00
00
00
00
00
00
00
00
00
00
00
00
00
00
00
00
00
00
00
00
00
00
00
00
00
00
00
00
00
00
00
00
00
00
00
00
00
00
00
00
00
00
00
00
00
00
00
00
00
00
00
00
00
00
00
00
00
00
00
00
00
00
00
00
00
00
00
ff
00
00
00
00
00
00
00
00
00
00
00
00
00
00
00
00
00
00
00
00
00
00
ff
ff
ff
ff
ff
ff
ff
ff
ff
ff
ff
00
00
00
00
00
00
00
00
00
00
00
00
00
00
00
01
00
01
00
00
ff
ff
00
00
00
00
00
ff
00
ff
00
00
00
00
00
00
00
00
00
00
00
01
01
01
01
01
01
01
00
00
00
01
01
01
00
00
00
00
00
00
00
00
00
00
00
00
00
01
01
01
01
01
01
01
01
01
00
00
00
01
01
01
01
01
00
00
00
00
00
00
00
00
00
00
00
01
01
00
00
00
00
01
01
01
01
01
01
01
01
01
01
01
01
00
00
00
00
00
00
00
00
00
01
01
01
00
00
00
00
00
01
00
01
01
02
02
01
01
01
01
01
00
00
00
00
00
00
00
00
00
01
01
00
00
00
00
00
00
00
00
00
00
01
02
01
01
01
01
01
00
00
00
00
00
00
00
00
00
00
00
00
00
00
00
00
00
ff
fe
fd
fe
00
01
01
00
00
00
00
00
00
00
00
00
00
00
00
00
00
00
00
00
00
00
00
ff
fe
fd
fd
fe
00
01
00
00
00
00
00
00
00
00
00
00
00
00
00
00
00
00
00
00
00
00
ff
ff
fe
fd
fe
ff
00
00
00
01
01
01
00
00
00
00
00
00
00
00
00
00
00
00
00
00
00
ff
ff
fe
fe
fe
ff
ff
00
00
01
02
01
01
01
01
00
00
00
00
00
00
00
00
00
00
00
00
00
ff
ff
ff
fe
ff
ff
ff
00
01
01
01
01
01
01
00
00
00
00
00
00
00
00
00
00
00
00
ff
ff
ff
ff
ff
ff
00
00
00
00
00
00
00
00
00
00
00
00
00
00
00
00
00
00
00
00
00
ff
ff
ff
ff
ff
ff
00
00
00
00
00
00
00
ff
00
ff
ff
ff
00
00
00
00
00
00
00
00
00
00
ff
ff
ff
ff
ff
ff
ff
00
00
00
00
00
ff
ff
ff
ff
ff
ff
ff
00
00
00
00
00
00
00
00
00
ff
ff
ff
ff
ff
ff
ff
00
00
00
ff
ff
ff
ff
ff
ff
ff
ff
00
00
00
00
00
00
00
00
00
00
00
ff
ff
ff
00
ff
00
00
00
00
00
ff
ff
ff
ff
ff
ff
ff
00
00
00
00
00
00
00
00
00
00
00
00
00
00
00
00
ff
ff
00
00
00
00
00
ff
ff
ff
ff
00
00
00
00
00
00
00
00
00
00
00
00
01
01
00
00
00
00
00
00
00
00
00
00
ff
ff
ff
ff
ff
00
00
00
00
00
00
00
00
00
00
01
01
01
01
00
01
01
00
01
00
01
00
00
00
00
00
00
00
00
00
00
00
00
00
00
00
00
00
00
00
01
01
01
01
01
01
01
01
01
01
01
01
00
00
00
00
00
00
00
00
00
00
00
00
00
00
00
00
00
00
00
00
00
00
00
01
01
01
01
00
00
00
00
00
00
00
00
00
00
00
00
00
00
00
00
00
00
00
00
00
00
00
00
00
00
00
00
00
00
00
00
00
00
00
00
00
00
