00
00
00
00
00
00
00
00
00
00
00
00
00
00
00
00
00
00
00
00
00
00
00
00
00
00
00
00
00
00
00
00
00
00
00
00
00
00
00
00
00
00
00
00
00
00
00
00
00
00
00
00
00
00
00
00
00
00
00
00
00
00
00
00
00
00
00
00
00
00
00
00
00
00
00
00
00
00
00
00
00
00
00
00
00
00
00
00
00
00
00
00
00
00
00
00
00
00
00
00
00
00
00
00
00
00
00
00
00
00
00
00
00
00
00
00
00
00
00
00
00
00
00
00
00
00
00
01
00
00
00
00
00
00
00
00
00
00
00
00
00
00
00
00
00
00
00
00
ff
ff
00
00
00
00
00
00
00
00
00
00
00
00
01
01
00
00
00
00
00
00
00
00
00
00
00
00
ff
ff
ff
00
00
00
00
ff
ff
ff
00
00
00
01
00
00
00
00
00
00
00
00
00
00
00
00
00
ff
ff
ff
ff
00
00
00
ff
ff
ff
ff
ff
00
00
00
00
00
00
00
00
00
00
00
00
00
00
00
00
ff
ff
ff
ff
ff
00
00
00
00
00
00
00
00
00
00
ff
ff
ff
00
00
00
00
00
00
00
00
00
00
00
ff
ff
ff
00
00
00
01
01
00
00
00
ff
ff
ff
ff
ff
ff
00
00
00
00
00
00
00
00
00
00
00
ff
ff
00
00
00
01
02
02
01
00
ff
ff
ff
ff
ff
00
00
00
00
00
00
00
00
00
00
00
00
00
00
00
ff
ff
00
01
02
02
01
00
00
00
ff
00
00
00
00
00
00
00
00
00
00
00
00
00
00
00
00
00
ff
ff
00
01
03
02
00
00
00
ff
00
00
00
00
00
00
00
00
00
00
00
00
00
00
00
00
00
ff
fe
fe
00
01
02
01
00
00
ff
ff
00
00
00
00
00
00
00
00
00
00
00
00
00
00
00
00
ff
ff
fe
ff
00
01
02
01
00
ff
ff
ff
00
00
00
00
00
00
00
00
00
00
00
00
00
00
00
00
00
ff
ff
00
00
01
02
01
00
ff
ff
ff
00
00
00
00
00
00
00
00
00
00
00
00
00
00
00
00
ff
00
00
00
00
02
02
00
ff
ff
ff
ff
ff
00
00
00
00
00
00
00
00
00
00
00
00
00
ff
ff
00
00
00
00
01
02
02
00
ff
ff
ff
ff
00
00
00
00
00
00
00
00
00
00
00
00
00
00
ff
ff
00
00
00
00
01
01
01
ff
ff
ff
ff
ff
00
00
00
00
00
00
00
00
00
00
00
00
00
00
ff
ff
00
00
00
00
00
01
00
ff
00
00
00
00
ff
00
00
00
00
00
00
00
00
00
00
00
00
00
00
00
00
00
00
00
00
00
00
00
00
00
00
00
ff
00
00
00
00
00
00
00
00
00
00
00
00
00
00
00
00
00
00
00
ff
ff
00
00
00
00
00
00
00
00
00
00
00
00
00
00
00
00
00
00
00
01
01
01
00
00
00
ff
ff
ff
00
00
01
01
01
00
00
00
00
00
00
00
00
00
00
00
00
00
00
01
01
00
00
00
00
00
00
00
00
00
01
01
01
00
00
00
00
00
00
00
00
00
00
00
00
00
00
00
00
00
ff
ff
ff
ff
ff
ff
ff
ff
00
00
00
00
00
00
00
00
00
00
00
00
00
00
00
00
00
00
00
00
00
00
00
ff
00
ff
00
00
00
00
00
00
00
00
00
00
00
00
00
00
00
00
00
00
00
00
00
00
00
00
00
00
00
00
00
00
00
00
00
00
00
00
00
00
00
00
00
00
00
00
00
00
00
00
00
00
00
00
00
00
00
00
00
00
00
00
00
00
00
00
00
00
00
00
00
00
