00
00
00
00
00
00
00
00
00
00
00
00
00
00
00
00
00
00
00
00
00
00
00
00
00
00
00
00
00
00
00
00
00
00
00
00
00
00
00
00
00
00
00
00
00
00
00
00
00
00
00
00
00
00
00
00
00
00
00
00
00
00
00
00
00
00
00
00
00
00
00
00
00
00
00
00
00
00
00
00
00
00
00
00
00
00
00
00
00
00
00
00
00
00
00
00
00
00
00
00
00
00
00
00
00
00
00
00
00
00
00
00
00
00
00
00
00
00
00
00
ff
ff
ff
ff
ff
ff
ff
00
00
00
00
00
00
00
00
00
00
00
00
00
00
00
00
00
00
00
ff
ff
00
00
00
00
00
00
00
00
00
00
00
00
00
00
01
01
00
00
00
00
00
00
00
00
00
ff
00
00
00
00
01
00
00
00
00
00
00
00
00
00
00
00
01
01
01
01
00
00
00
00
00
00
ff
ff
ff
00
00
01
01
01
00
00
00
00
00
00
00
01
01
01
01
01
02
01
00
00
00
00
00
00
ff
ff
ff
00
00
00
00
01
00
00
ff
00
00
00
00
01
01
01
01
02
02
02
00
00
00
00
00
00
ff
ff
00
00
00
00
00
01
01
00
ff
ff
ff
ff
00
00
01
01
02
02
03
02
00
00
00
00
00
00
00
00
00
01
01
01
01
01
01
01
00
ff
ff
ff
ff
ff
ff
00
00
01
02
01
00
00
00
00
00
00
00
00
01
01
01
01
01
01
01
01
00
ff
ff
ff
ff
fe
fe
fe
fe
ff
00
00
00
00
00
00
00
00
00
00
01
01
00
00
01
01
01
01
00
ff
ff
ff
ff
ff
ff
fe
fe
fe
ff
00
00
00
00
00
00
00
00
00
00
00
00
00
01
01
01
01
00
ff
ff
ff
00
00
00
ff
ff
ff
ff
00
00
00
00
00
00
00
00
00
00
00
00
01
01
00
00
00
ff
ff
ff
ff
ff
00
00
00
00
ff
ff
00
00
00
00
00
00
00
00
ff
ff
00
00
01
00
00
00
00
ff
ff
ff
ff
ff
00
00
00
00
00
00
00
00
00
00
00
00
00
00
ff
ff
ff
ff
ff
00
00
00
ff
ff
ff
ff
00
00
00
00
00
00
00
00
00
00
00
00
00
00
00
00
00
00
ff
fe
fe
ff
ff
ff
ff
ff
ff
00
00
01
00
00
00
00
00
00
00
00
00
00
00
00
00
00
00
01
00
ff
ff
fe
fe
ff
ff
00
00
00
00
00
00
00
00
00
00
00
00
00
00
00
00
00
00
00
01
01
01
00
00
00
00
00
00
00
00
00
00
00
00
00
00
01
00
00
00
00
00
00
00
00
00
00
01
01
01
01
01
01
01
01
01
00
00
00
00
00
00
00
00
01
01
00
00
00
00
00
00
00
00
00
00
00
01
01
01
01
00
00
00
00
00
00
00
00
00
00
01
01
00
00
00
00
00
00
00
00
00
00
00
00
00
00
01
00
01
01
01
01
00
00
00
00
00
00
00
00
00
00
00
00
00
00
00
00
00
00
00
00
00
00
00
00
01
01
00
00
00
00
00
00
00
00
00
00
00
00
00
00
00
00
00
00
00
00
00
00
00
00
00
01
00
00
00
01
01
00
00
00
00
00
00
00
00
00
00
00
00
00
00
00
00
00
00
00
00
00
00
00
00
00
00
00
00
00
00
00
00
00
00
00
00
00
00
00
00
00
00
00
00
00
00
00
00
00
00
00
00
00
00
00
00
00
00
00
00
00
00
00
00
00
00
00
00
00
00
00
00
00
00
00
00
00
00
00
00
00
00
00
00
00
00
00
00
00
00
00
00
00
00
00
00
