FFFFD2
00005C
FFFF97
FFFFF7
FFFFFC
FFFFF1
000030
000093
FFFF9F
FFFFBF
FFFFC3
FFFFA3
00002F
000086
00004B
FFFF84
FFFFEF
000093
000018
FFFFF2
FFFF8E
FFFFB4
000022
000081
000045
000054
FFFF8C
FFFF91
00005E
00004B
00005F
FFFFE7
FFFF7E
FFFFB2
000041
0000D6
000091
00002B
0000B0
0000BC
0000C8
0000BC
000076
00007F
FFFF78
000079
0000A4
00005D
FFFFE5
FFFFAC
0000AE
000083
FFFFC9
000092
FFFFE6
00006C
FFFFAA
FFFF99
FFFF7E
FFFFF3
000048
00002C
00004A
0000D1
000095
00013E
000190
0001C4
0001C5
0001DC
0000F1
0000AB
00018D
0000AF
0000AA
0000BA
0000B6
00005C
000079
000016
000042
FFFFD9
FFFF79
000029
FFFF8D
00000D
00006B
00003E
00008D
FFFF84
000099
0000A8
0000C8
000195
000167
0001C1
0001B7
0001A6
00026D
00024A
00016C
0001CC
0002E3
0002E1
000312
0002B8
0002C1
000199
00016B
000058
FFFFC1
000050
000015
FFFFE5
FFFFF6
00007C
00006B
000027
000027
0000FB
FFFFE3
FFFFCB
0000F3
00005B
000070
000028
00005F
00008F
0001EC
0001E8
0002FC
000309
0003D4
00043F
0003A7
000274
000059
0000A6
000017
FFFFFF
000019
00004C
00002B
FFFFC6
FFFF98
FFFFF4
FFFFA9
FFFF53
000081
FFFF59
00003B
FFFDC5
FFFED1
FFFF2F
FFFFB3
FFFEF2
FFFEF2
000033
00016E
0002AF
000254
000215
0001A4
000120
FFFFDE
00000E
FFFF6E
000088
FFFFED
00007B
000072
FFFF6B
000034
FFFFE8
00002F
000003
FFFF2B
FFFEFD
FFFD6E
FFFCA4
FFFE0C
FFFC2C
FFFE4F
FFFEC2
FFFE3B
FFFE70
FFFF91
FFFEF3
FFFE4D
FFFE61
FFFD7C
FFFE5C
FFFEA3
FFFE90
FFFFC9
000077
00002F
000047
000004
FFFFE8
000008
FFFF80
FFFEFD
FFFFD6
FFFE91
FFFE38
FFFD69
FFFDF7
FFFC58
FFFBE7
FFFDDA
FFFDF6
FFFCCE
FFFCFA
FFFC40
FFFAEA
FFFACF
FFFBA8
FFFB75
FFFC69
FFFEA1
FFFEC2
FFFF82
FFFFA0
FFFFD1
FFFFD8
00008C
FFFF4C
FFFF6A
FFFF39
FFFE0D
FFFF92
FFFF47
FFFDF6
FFFD9E
FFFD45
FFFCB7
FFFC30
FFFC49
FFFC08
FFFB4C
FFFA95
FFF858
FFF8E0
FFF9A1
FFF9B1
FFFB97
FFFC1E
FFFD93
FFFE79
FFFEE7
000029
FFFFEB
FFFF92
FFFFC1
FFFF83
000003
FFFF8D
FFFF51
FFFF9B
000077
FFFEC5
FFFDAC
FFFE37
FFFED9
FFFDD5
FFFE03
FFFBA7
FFFAF0
FFF8AB
FFF82D
FFF99D
FFFAC2
FFFBD5
FFFB2C
FFFCE5
FFFDA2
FFFE3E
FFFF47
000061
FFFFA1
00007A
000053
FFFF6F
FFFF2E
000035
0000AC
0000A6
00025F
FFFFF3
000078
000032
FFFE90
FFFF06
FFFDDB
FFFB81
FFFB6D
FFFAA3
FFFA6B
FFFB8B
FFFCF9
FFFDD5
FFFD26
FFFFB3
FFFE25
FFFEB5
FFFF9D
FFFFD0
FFFFB3
000031
FFFFAC
FFFFF4
FFFFAC
000015
FFFFD2
0001FC
00016B
0000AF
0000DC
00009B
00009B
000018
FFFEF6
FFFC6F
FFFCA7
FFFD27
FFFD24
FFFDC6
FFFEF5
000066
00015D
00021F
FFFFFE
FFFEDF
FFFF87
FFFFD3
FFFFB3
FFFFD6
FFFF83
FFFFC4
000048
0000EE
00016B
0001DD
0000DD
000135
0000DA
00023E
000229
00018B
FFFEAC
FFFD9B
FFFFE6
FFFFC7
FFFDA8
FFFDC1
FFFFB8
000144
000310
00056F
0002EC
FFFF2A
FFFF0A
FFFFB5
FFFFB7
000081
000062
FFFF73
FFFF3F
00004D
00025B
000144
000117
000089
000249
0001E9
0001C0
00004F
FFFFAD
FFFFF1
00002D
FFFF7C
FFFDF6
FFFFBB
FFFF04
0001A1
00043D
0006B7
0003A1
FFFFB5
000002
000054
FFFFC2
00000D
000061
000005
FFFF34
0000D8
000229
0001DD
000290
000267
000299
0002D0
0000F2
FFFEA0
000017
000125
00008B
FFFF1B
FFFF21
FFFFE0
0001D6
0001D1
0004CD
000596
0003A9
FFFFF2
FFFEF3
FFFF7B
000064
FFFFCD
000013
FFFF91
FFFE7B
FFFFCF
000241
0002FF
0001EE
000307
0003D1
0004A8
000137
FFFFA9
0001CC
0001A7
000041
FFFF27
00002B
0000ED
000226
0002F4
0002B6
00035D
0001CB
FFFF14
FFFF6D
FFFF69
00001A
FFFF92
FFFF8E
FFFF82
FFFDFF
FFFEE9
000357
000369
000242
00037B
0005E8
0005DC
0001C9
000110
00028C
000158
FFFF4C
FFFE9B
00007B
00017D
0000B1
000005
000163
0000D5
FFFF98
FFFEEA
FFFF55
FFFFE8
000019
000054
000074
FFFFEB
FFFD24
FFFE81
000165
0002A7
000305
0003CF
000692
0006AE
000373
0001F1
0001F7
00013D
FFFFFF
00005B
0002BC
0000F1
000064
FFFF4D
0000A0
FFFFDD
FFFF38
FFFE7C
FFFFC8
00003F
FFFFC6
FFFFB0
FFFFFD
FFFF2A
FFFD51
FFFD62
FFFEBB
0001D3
0002EC
0002A8
00049A
0005AD
0006B0
00031B
0000D7
0001BA
0002FC
0001EF
000269
000144
000029
00006C
000077
FFFFBC
FFFF0B
FFFF4B
FFFF74
FFFF6B
000024
FFFF98
000041
FFFEF1
FFFE43
FFFD36
FFFDD6
000027
0001E6
0002FB
0003F8
000654
00071F
0003AB
000347
00036D
000270
000201
000321
000221
000161
00004B
FFFF80
FFFF62
FFFF5A
FFFFE5
FFFFB0
000074
FFFFB8
FFFF97
FFFFDB
FFFF85
FFFDC7
FFFD58
FFFDB3
FFFF0F
0000A0
0001FF
000349
000231
000450
00052C
000623
00053A
0002D5
0001D0
000384
00027B
0001AE
FFFFA7
FFFEB2
000015
FFFFAF
FFFFD7
FFFF9A
000015
FFFFF2
00000D
00002A
FFFFD4
FFFF28
FFFE2B
FFFCE4
FFFE98
FFFF28
000180
0002BA
0003E1
0004FD
000511
000441
0003AB
00024A
000321
0002EB
0001DD
00003F
FFFF02
FFFE9D
FFFF31
00000B
FFFF7A
FFFFE3
FFFFB5
FFFFB5
FFFFF3
00007F
000022
FFFFB4
FFFE68
FFFE1B
FFFD76
FFFE4E
FFFF3B
FFFF5E
00004E
000175
0000A1
000088
000193
00012C
000002
FFFF9B
FFFE3D
FFFE4E
FFFE97
FFFEAE
FFFFDF
FFFFC4
FFFF82
000089
000034
00006E
FFFFD4
FFFFC2
00000C
000026
FFFF57
FFFEF8
FFFDBD
FFFD24
FFFBE3
FFFBE8
FFFB3B
FFFD0F
FFFDAF
FFFE31
FFFD50
FFFC78
FFFBFF
FFFCD8
FFFE8F
FFFE89
FFFEB8
FFFF8B
000010
FFFF77
FFFF8F
FFFFCF
FFFFF2
00004F
00003F
00002B
FFFF7E
FFFF98
FFFFCF
FFFF83
FFFF36
FFFF60
FFFF00
FFFE81
FFFE1C
FFFDCD
FFFDD9
FFFD7D
FFFD7E
FFFD60
FFFDFF
FFFF4E
FFFF5A
FFFFC6
FFFFA4
000043
FFFFE2
FFFF7A
FFFFD5
FFFF9C
FFFF9E
00007D
FFFF8B
000022
FFFFC4
FFFFA4
FFFFEE
000053
FFFFF9
FFFF72
000033
FFFF75
FFFFEA
000006
FFFF6D
FFFFAF
FFFFCE
FFFFF2
FFFF80
FFFFB5
FFFF72
FFFF90
000011
FFFFCA
000065
00008F
00007E
000005
00005F
000086
FFFFF9
000018
FFFFE6
FFFFB4
000071
000055
FFFFB6
FFFFD3
000040
FFFFCA
00001C
FFFFC7
000053
000058
FFFF8E
FFFFA9
000073
00005A
FFFFD3
000051
FFFFE1
FFFFDF
000032
000039
FFFFE3
FFFFBC
FFFFD9
000082
FFFFF9
000049
FFFFB5
00002D
FFFFFC
00007A
000011
FFFFEF
FFFF6F
FFFF9E
00002C
FFFF7D
FFFF93
FFFFAD
FFFF7B
FFFFA5
FFFFD3
FFFF88
FFFFA5
FFFFB2
FFFFC0
000078
FFFF8A
FFFFB3
FFFF8E
FFFFAF
000016
