000
000
002
001
003
fff
fff
001
002
002
fff
001
001
000
002
001
000
000
000
001
002
003
fff
002
000
002
000
000
003
fff
001
003
001
000
003
001
000
000
000
fff
002
000
003
fff
001
002
002
002
000
002
000
003
002
fff
fff
001
003
003
002
000
002
fff
fff
002
002
fff
000
001
000
fff
001
002
002
000
001
003
002
003
fff
002
001
002
002
002
000
000
002
000
000
000
fff
002
000
002
fff
000
001
ffe
001
fff
ffd
ffe
ffe
fff
000
fff
001
000
001
003
fff
001
003
fff
002
fff
001
fff
000
fff
001
000
ffd
ffa
ffa
ffa
ff9
ff5
ffa
ffb
ffc
fff
ffd
001
000
ffe
003
000
003
003
003
000
002
fff
ffe
000
fff
fff
ffe
ffc
ff6
ff4
ff1
fee
fea
fea
fe9
fec
fef
ff3
ff7
ffd
ffb
fff
002
002
000
000
002
003
000
000
003
004
004
007
00a
008
008
001
ff9
ff2
ff2
ff8
ffb
ffb
ff9
ff8
ff5
ffc
ff8
ffa
ffc
fff
fff
000
002
003
002
006
007
006
009
00e
013
00f
00a
00b
00c
002
002
004
00d
00e
009
008
002
ffe
001
ffe
ffe
000
002
fff
fff
003
001
005
00a
009
00c
015
00e
00a
00c
010
010
008
005
006
00b
011
00c
00a
008
000
005
004
ffd
fff
002
002
001
002
003
007
009
00b
004
005
006
004
00a
00c
00f
00c
011
016
014
016
00e
00f
00c
00a
005
ffe
ffd
fff
001
fff
000
003
003
009
00a
008
001
002
ffd
000
006
00a
007
011
016
01b
01f
017
012
013
010
00e
006
ffe
ffc
ffe
000
fff
002
002
003
009
00b
005
002
002
000
006
003
004
007
007
007
015
01b
012
012
00e
00d
008
006
ffe
ffa
000
001
003
002
000
001
005
006
001
001
006
004
000
ffb
ff3
fe5
fd6
fe1
001
012
010
006
002
000
ffe
ffe
ffc
ffd
003
002
000
002
001
002
005
002
001
ffe
001
fff
ffc
ff3
fe4
fce
fc9
fe2
ffc
009
006
001
003
ffb
ff9
ffe
001
fff
fff
001
fff
fff
001
004
006
004
004
fff
ffd
ffa
ff1
fea
fde
fd5
fdc
ff3
000
003
006
010
012
00b
007
007
006
002
001
fff
fff
001
002
001
002
002
ffa
ffd
ffc
ff0
fed
fe6
fe3
fe0
fe9
ff2
000
001
016
01a
016
013
010
00b
005
000
fff
000
002
001
003
000
003
002
ffd
ffc
fff
ff3
ff2
fe9
fe4
fef
ff6
ff2
007
009
013
010
011
00d
00a
002
ffc
ffd
fff
002
003
000
000
002
000
001
ffe
ff7
ff5
ff2
ff4
ff0
ff4
ffc
003
002
003
ffe
005
004
003
002
ffe
ffb
ffe
ffe
ffe
fff
fff
fff
000
002
001
ffd
ff8
ff2
fef
ff0
ff1
fed
ff9
ffe
000
005
ffa
ff9
ffc
ff7
ffb
ff7
ff2
ff6
ffa
ffb
001
fff
000
003
003
003
001
ffe
ff5
fef
fee
fed
fed
ff3
ff7
ffa
002
008
ff8
ff8
ff6
ff1
ff1
fee
fef
ff3
ff7
ffc
ffe
003
fff
fff
fff
001
000
ffd
ff8
fef
fee
fef
fef
ff4
ff4
001
001
004
ff5
ff3
fef
fe8
ff1
feb
ff0
ff4
ffb
ffd
002
002
002
002
002
001
ffd
ffe
ff9
ff7
ff4
ff5
ff9
ff6
ff8
ffd
000
ffe
ff9
ff8
fef
fef
fef
fee
ff1
ff7
ff9
000
001
002
000
001
000
001
ffe
fff
001
ffd
001
002
ffd
ff9
ff5
ff6
ffc
001
001
ffa
ff8
ff2
ff2
ff1
ff3
ff9
ffe
001
fff
001
000
001
002
ffe
fff
003
004
008
00b
005
001
ffd
ff9
ffa
000
004
004
ffe
ffe
ff7
ff4
ff4
ff6
ff8
ffb
ffe
000
000
fff
000
000
001
002
004
009
00e
00f
00d
007
00e
009
007
00a
006
009
005
004
000
ffc
ffc
ffb
ffa
ffb
001
000
fff
002
fff
001
002
002
001
004
007
00a
010
00f
012
011
00f
00c
00c
00d
00b
00a
008
003
ffd
000
ffe
fff
000
001
003
002
fff
001
003
000
fff
003
000
003
002
000
003
005
001
004
009
00c
009
00c
007
003
000
001
000
001
000
fff
000
000
fff
001
001
001
002
001
001
000
003
002
001
002
001
004
002
002
005
002
002
004
000
fff
003
002
001
fff
fff
002
