ffd
000
ffe
ffd
ffe
ffe
fff
fff
ffd
fff
ffd
ffe
001
001
ffd
fff
ffd
ffd
001
000
ffe
fff
ffe
ffc
ffd
fff
000
fff
fff
ffe
001
fff
ffd
ffd
ffd
ffe
ffe
fff
000
ffd
ffe
ffd
fff
ffd
fff
ffd
ffe
ffd
fff
ffd
ffd
ffc
000
fff
000
ffe
ffe
ffd
ffd
000
ffd
ffd
ffe
fff
000
ffe
002
001
005
004
003
001
005
002
001
ffe
000
fff
ffb
ffe
000
001
fff
ffe
ffe
ffd
fff
ffe
001
ffd
fff
000
001
007
00c
00b
00b
010
009
004
007
003
ffd
fff
ffc
ffc
ffb
ffd
000
001
ffd
fff
ffd
ffe
001
ffc
ffd
fff
002
002
005
00e
00e
012
00f
00c
00b
005
006
006
ffe
ffd
ffe
ff9
ff7
ff8
fff
fff
ffd
fff
000
fff
ffd
ffc
ffd
ffd
002
007
00a
010
012
013
011
013
012
011
012
00f
00b
ffc
ffc
ff9
ff9
ff5
ffb
ffd
000
ffe
fff
ffd
001
fff
ffe
001
007
00d
00a
00b
00f
00a
00a
00d
00c
006
007
002
001
ffc
ffd
ff7
ff7
ff4
ff9
ffc
001
000
ffe
000
000
ffe
000
004
009
00d
00a
00a
004
004
001
007
008
002
001
ff5
ffc
ffd
ffd
ffc
ffd
ff6
ff9
ffe
ffd
ffd
fff
000
fff
000
002
006
004
006
006
007
007
008
005
006
00f
008
fff
ffc
000
003
000
ffe
ffa
ff4
ff7
ffc
ffe
ffd
ffd
fff
000
002
003
007
002
000
ffe
004
003
004
001
000
009
00a
004
000
fff
000
000
000
ffc
ff6
ff7
ffd
000
ffd
001
fff
fff
ffe
000
ffe
ffd
ff0
ff2
ff5
fef
fee
feb
fe8
ff6
002
003
000
001
ffe
fff
ffe
ffb
ff4
ffa
000
000
ffd
ffd
001
000
ffd
ffa
ff3
fea
fe0
fe2
fdc
fdc
fdf
fdd
fd6
fdf
ff0
ffb
ffb
ffc
fff
ffd
ffd
ff9
ffb
fff
ffe
ffd
fff
fff
fff
000
fff
ffa
fed
fda
fd2
fd5
fd7
fdb
fdd
fdd
fdc
fe2
fec
ff2
ff4
ffa
000
000
ffd
ff8
ff4
fff
ffe
001
fff
ffe
ffe
001
ffe
ff6
fe7
fd9
fdc
fdf
fe9
ff0
ff8
ff4
ffb
ff2
ff2
fef
ff4
ff9
fff
ffe
ffc
ff6
ff7
ffb
001
ffe
000
001
fff
000
ffe
ffc
fef
feb
fef
ff9
fff
004
006
007
00a
001
ff9
ffb
ff7
fff
ffa
ffe
ffa
ff5
ff8
ffe
004
005
ffd
ffe
fff
ffe
004
002
001
004
005
00a
007
008
005
004
00a
001
004
001
ff8
ff8
ffb
ffd
ffb
ff6
ffb
003
005
003
ffd
ffe
ffd
ffc
004
008
00e
00e
008
003
007
007
006
00d
00b
002
fff
000
ffb
ffb
ff8
ffd
000
002
004
00c
00f
002
ffe
ffe
001
fff
005
00e
014
012
00d
009
00b
010
00d
00f
007
004
005
005
fff
003
ffe
006
006
005
007
013
010
004
000
000
000
ffb
001
010
01a
019
012
00c
00d
014
012
01d
015
013
009
006
00b
007
005
00e
00e
00f
014
019
00e
fff
ffd
ffd
ffe
ffd
000
009
010
014
012
010
011
010
012
014
00f
00a
005
007
00c
006
006
00a
00d
010
012
00f
008
001
000
ffd
000
fff
ffc
008
009
00f
014
013
00d
00c
015
00b
004
003
003
004
000
009
00e
009
00d
013
010
00c
006
000
fff
fff
ffd
fff
ffe
002
004
00a
00b
00a
00d
00b
00b
004
002
fff
000
005
006
00d
00e
006
00d
011
013
009
004
001
000
ffd
fff
ffd
001
003
001
007
006
006
008
008
009
001
ff9
ff7
ffb
ffb
004
00c
00f
00e
00d
00c
00d
005
fff
fff
ffe
fff
fff
fff
ffe
ffe
ffc
ffc
ffc
ffa
ffc
ffe
003
000
ffb
ff9
ff7
ff7
ffb
002
00c
00b
00d
009
004
002
001
000
ffe
fff
ffe
000
000
ffd
ff9
ff3
ff6
ff6
ff5
ff5
ff8
ff8
ffc
ffa
ff8
ff8
ffa
ff8
ffc
ffc
ffc
ffe
ffe
000
001
ffd
ffd
000
ffc
ffe
ffe
ffd
ffb
ffa
ff6
ff5
ff6
ff7
ff5
ff8
ff9
ff6
ff8
ffa
ffb
ffe
ffb
ffe
ffe
000
ffd
fff
ffd
ffd
ffd
ffd
ffe
ffe
000
fff
ffe
fff
000
ffe
000
000
000
000
fff
ffe
ffc
ffe
fff
fff
ffd
000
000
ffd
ffe
ffd
000
000
000
000
ffe
ffd
fff
ffd
001
001
ffe
000
ffd
000
ffd
000
ffe
fff
ffd
fff
ffe
fff
fff
000
ffc
ffe
000
ffc
fff
fff
ffe
