002
002
fff
001
001
002
fff
000
002
fff
000
001
003
002
fff
fff
fff
001
002
000
000
000
fff
000
002
001
fff
001
002
002
001
000
fff
fff
000
003
fff
002
001
002
001
002
000
fff
fff
002
000
001
002
000
000
000
001
003
000
001
003
003
000
002
002
000
000
001
002
000
fff
002
001
002
fff
002
fff
fff
000
fff
003
fff
fff
003
000
000
001
001
003
000
000
001
001
fff
003
001
fff
003
001
002
000
ffe
000
ffc
000
ffe
001
000
001
000
002
000
000
003
001
002
000
001
000
fff
fff
002
001
000
ffe
001
ffd
ffc
ffb
ff6
ff3
fef
ff4
ff4
ff7
ffc
ffe
fff
000
002
002
002
000
000
002
002
002
001
001
ffe
ffe
ffe
ffa
ffa
ffa
ff8
ff6
ff4
fee
fed
fe8
ff0
ff6
ffb
ffb
ff9
ffa
ffc
ffe
fff
000
002
002
002
fff
002
001
ffa
ff9
ff7
ff6
ff4
ff7
ffd
001
00b
010
00d
009
007
009
ffe
ffe
ff9
ff3
ff4
ff9
ffd
fff
001
003
000
fff
fff
ff9
ff5
ff4
ff1
ff2
ffb
000
004
00f
012
018
018
019
00b
009
001
002
003
ff7
ff1
ff7
ffe
ffe
002
003
003
002
fff
ff9
ff5
ff3
fee
ffb
ffe
ffd
ffb
000
007
015
00b
00c
002
001
001
ffc
002
ffb
ff4
ff6
ffb
ffe
003
001
001
000
ffb
ff5
ff7
ffe
ffb
ffd
fff
005
003
001
008
00e
00d
000
ffc
000
ff8
ffd
ff8
ff7
ff7
ffa
ffd
ffe
003
001
000
fff
ffe
ff7
ffb
004
006
00b
00b
00a
00e
007
002
002
ff9
ffc
fff
005
000
004
ffe
ffb
ffb
ffa
ffe
ffe
001
000
001
fff
fff
ffe
008
012
00e
016
009
009
00f
ffb
ffc
ffe
001
006
015
00a
00a
010
00c
007
001
fff
ffd
000
000
001
003
ffe
ffd
007
011
014
00c
00f
012
00c
000
ff4
00a
016
011
00f
017
017
018
018
010
008
000
ffc
001
001
001
003
002
ffd
001
00a
00f
00e
009
00c
008
007
ffc
ffa
010
016
010
012
010
016
017
012
00a
001
ff9
ffc
fff
001
001
001
000
002
001
005
004
00c
008
004
000
001
fff
ffc
005
003
00e
00f
00f
00a
007
008
000
ff8
ff4
ffb
001
000
001
002
002
001
ffe
000
005
005
003
003
ffa
ffd
ffd
ffc
ffd
ffc
00f
016
015
00b
001
ffb
ff4
ff1
ff5
ffb
000
001
000
003
000
ffe
000
000
002
ffc
003
009
ffe
005
007
fff
ff8
fff
008
00f
00f
004
ff7
ff2
fec
ff2
ff5
ff9
000
ffe
001
001
fff
ffe
ffd
ffa
ff9
ffa
003
005
006
009
00d
008
004
005
00c
004
ffd
ffa
ff3
ff4
ff3
ff3
ff7
ff9
001
001
fff
002
000
fff
fff
ffb
ff5
ff4
ff5
ffb
002
00e
00b
ff9
ff9
000
008
ffb
ffa
ff5
ffa
ffa
ff6
ff6
ff6
ff9
fff
000
002
002
003
001
ffd
ffb
ff8
ff3
ff3
ff2
ff3
ff1
ff3
ff0
ff5
ff6
ff5
ff7
ffd
ff9
ffe
ffb
ffa
ffb
ffb
ffd
001
fff
000
fff
000
001
000
ffb
ff8
ff4
fee
feb
fe8
fe0
fe7
fe8
ff8
ff5
ffb
ffa
ffe
ff5
ffd
ffc
ff9
ffe
ffd
000
003
002
001
000
000
003
ffd
ffd
ff8
ff5
fef
fed
feb
fea
fec
ff3
ff4
ff3
ff9
ff8
ff4
ff2
ffa
ffd
ffe
001
000
001
002
000
000
002
001
001
002
fff
ffa
ff6
ff3
ff6
ff6
ff5
ff8
ff7
ff4
ff6
ff2
ff1
ff1
ff4
ff5
ffd
004
002
003
004
001
001
002
002
002
001
fff
ffe
ffb
ffa
ff8
fff
ffd
ffd
ff6
ff8
ff6
ff7
ff1
ff0
ff2
ff7
fff
003
008
00b
00a
004
000
003
000
000
fff
000
003
002
003
002
003
005
002
ffe
ffb
000
ff8
ff6
ff6
ffb
003
006
006
00e
00f
009
005
004
fff
002
000
001
003
003
000
000
005
003
00a
00b
00b
00a
004
00a
009
009
008
00f
011
012
013
015
00f
006
003
000
000
001
001
000
002
001
fff
002
004
005
007
008
00d
00d
00f
012
012
016
00d
009
007
00b
00c
008
006
002
001
001
001
fff
001
fff
001
fff
003
002
001
000
003
002
002
fff
fff
001
fff
001
002
000
001
003
003
002
001
fff
003
002
fff
000
000
