ffe
fff
ffe
fff
fff
000
ffc
fff
ffe
ffe
ffd
000
fff
000
ffd
000
fff
ffd
000
fff
ffe
ffe
ffe
001
000
ffe
ffd
ffe
ffe
ffc
001
000
ffd
ffd
ffc
ffd
000
fff
fff
ffc
000
fff
ffe
ffe
fff
fff
ffd
fff
000
ffd
fff
ffd
000
001
ffe
ffd
ffd
000
fff
ffe
ffd
ffc
fff
ffc
001
ffc
ffc
fff
fff
ffc
fff
fff
ffc
ffe
ffe
fff
000
000
fff
ffe
000
ffe
fff
000
ffd
ffe
ffe
ffd
001
ffd
ffd
ffe
ffc
fff
ffd
ffb
ffa
ff9
ffa
ffd
ffa
ffc
ffd
ffe
ffc
000
ffe
000
ffe
fff
fff
ffd
fff
000
ffe
ffd
000
000
fff
ffd
ffd
ffe
ffe
fff
005
003
00b
008
004
002
003
ffd
ffd
ffe
ffb
ffc
000
000
ffe
fff
fff
fff
000
000
ffd
ffe
ffe
ff9
ffd
002
ffa
007
00e
00c
00c
006
005
00b
001
fff
004
002
ff9
ffa
ffc
003
fff
001
ffd
ffd
ffc
ffc
ffc
ffc
ffa
ffa
000
002
000
004
006
005
006
00c
006
007
001
008
003
004
005
004
004
002
fff
000
001
ffd
ffd
ffe
ffc
ffe
ffc
000
004
002
002
fff
ffb
ffc
ffa
004
005
000
003
ffd
005
007
001
00f
009
000
000
fff
fff
000
fff
ffd
fff
fff
006
004
001
00b
001
000
007
009
ff9
ffa
005
ffc
002
005
003
00a
007
00b
00a
fff
fff
001
000
000
ffe
ffe
fff
006
005
00a
00d
00b
007
00c
003
004
ff2
fec
ff9
001
002
004
005
004
00a
00b
ffe
fff
002
ffd
ffd
000
ffd
000
002
008
008
00e
00a
00c
012
009
009
007
ffe
fed
ff1
ffb
005
005
005
00d
00e
00b
000
fff
fff
ffe
ffd
001
000
ffc
004
009
010
015
011
015
00e
007
009
015
019
ffd
ff1
ffb
ffb
002
00b
00e
012
011
00c
002
001
fff
ffe
fff
ffe
fff
fff
00a
008
00d
00c
00f
003
004
002
019
019
006
001
ffe
ffe
006
00b
013
016
012
00b
005
002
ffd
ffc
fff
001
ffd
ffe
000
ffe
ffe
001
ffe
ffa
002
009
018
007
011
007
ffc
000
001
008
007
004
006
003
001
001
fff
ffe
ffc
000
fff
ffd
ff9
ff4
ff0
fed
ff1
ffe
009
009
013
00f
00a
fff
001
ffd
ffa
ff6
ff7
ff8
ff7
ffc
fff
ffc
000
000
ffe
ffd
fff
ffd
ff9
ff1
fed
fef
ffc
001
000
00d
010
00e
008
ffc
ffd
ffe
ff2
fef
ff3
ff8
ff8
ffa
fff
ffc
000
ffe
ffd
ffe
fff
ffa
ff6
ff0
ff7
006
007
003
006
00d
00b
004
007
002
ffb
ff5
ff0
ff0
ff0
ff3
ffc
ffa
ffe
ffe
ffc
001
001
ffd
ffd
ffc
ff6
ff2
002
00d
010
005
00c
014
00c
001
ffd
001
ffa
ff0
ff8
ff8
ff5
ff8
ffb
ffd
ffc
fff
ffe
ffe
000
ffc
ffb
ffa
ffa
ffc
004
00b
013
00d
012
00c
007
ff8
ffe
ffb
ff3
ffd
ffe
001
ff9
fff
ffa
ff8
ffc
fff
001
ffe
fff
fff
ffb
ff9
ffd
002
005
005
00d
007
fff
003
ff7
ff6
ffc
ffd
ffc
003
001
004
000
003
ffe
ffa
ffc
ffd
000
ffd
fff
ffd
ffc
ff8
fff
001
00b
003
fff
000
ff6
001
000
ff7
ffe
ff5
ffd
002
001
003
006
006
fff
ffc
ffb
fff
ffd
000
ffe
001
ffa
ff7
fff
005
00a
002
004
fff
ff9
ffc
002
000
fff
ff8
ffd
ffe
000
000
002
002
ffe
ffd
000
fff
ffe
fff
ffc
ffe
ffc
ff9
ff5
001
003
fff
ffc
002
001
00d
00e
00a
008
fff
fff
003
ffc
ffc
002
fff
ffd
fff
fff
fff
ffd
ffd
000
fff
ffc
ff8
fed
ff1
ff9
003
002
005
007
010
017
013
00f
00c
009
007
009
007
002
fff
ffe
ffc
000
ffc
fff
000
fff
001
ffd
ffd
ff4
fef
ff2
fff
003
fff
006
004
003
007
010
011
00b
010
00f
005
000
ffd
000
fff
ffe
001
fff
001
fff
000
ffd
ffe
ffb
ffa
ff8
ff7
ff7
ffd
ffa
ffc
ffc
000
006
004
005
006
001
fff
000
ffc
ffc
000
fff
ffe
fff
fff
000
ffe
ffd
ffc
ffd
ffb
fff
ffc
ffc
ffb
ffd
ffd
ffe
ffc
ffd
ffd
ffc
ffb
ffd
ffe
fff
ffe
001
001
ffd
fff
fff
fff
ffd
ffe
fff
fff
ffc
000
ffe
001
ffe
ffd
000
ffd
ffd
ffe
fff
fff
000
000
001
fff
fff
fff
ffd
fff
001
ffd
fff
