ffe
000
000
ffd
fff
ffe
000
ffe
fff
001
fff
fff
ffe
000
ffd
ffe
ffd
ffd
000
fff
ffd
fff
fff
ffe
ffd
fff
fff
ffe
000
ffc
000
ffd
000
ffe
fff
ffe
ffd
fff
000
ffd
ffe
ffd
ffd
fff
ffe
ffd
ffe
ffe
fff
ffd
000
ffd
000
000
ffd
ffe
ffe
fff
ffe
ffd
ffd
fff
000
fff
ffd
ffe
000
ffc
000
ffd
ffd
ffd
ffe
fff
ffe
ffe
001
000
000
ffd
ffd
ffe
000
fff
fff
fff
ffd
000
ffd
ffe
ffc
ffe
ffd
ffe
ffa
ff8
ffc
ffc
ffb
ffe
fff
ffc
ffe
fff
fff
ffe
ffc
ffd
ffb
001
000
ffd
ffd
ffe
000
000
000
ffe
ffd
ffb
ff7
ff4
fee
ff5
ff5
ff1
ff8
000
fff
003
fff
ffc
ffa
ffd
ffe
ffe
ffe
001
000
ffe
fff
001
ffd
ffd
ffe
ffa
ff8
ff8
ffb
fff
002
002
ffd
ffc
ffe
fff
004
004
008
005
005
006
00b
00a
007
004
002
001
ffd
ffd
000
ffd
ffc
ff6
ffc
fff
000
004
008
007
001
003
fff
ffc
ffe
ffe
000
008
004
005
00f
013
015
00b
005
001
ffe
fff
fff
ffc
ff5
ff3
ff8
001
005
00a
00a
009
003
fff
ffd
000
004
004
005
00b
00a
00c
010
016
01b
013
003
000
fff
001
000
ffb
ff0
ff2
ff6
001
008
002
004
008
005
ffa
ff4
ff9
ffb
000
001
009
00a
00e
016
01d
027
019
005
000
ffd
ffe
ffd
ff8
ff7
ff8
001
fff
007
006
006
011
00b
ffb
ff1
feb
fec
ff4
ffd
000
009
013
01c
026
030
020
006
ffe
fff
ffe
ffd
ffe
ffd
ffe
005
00a
010
011
011
014
011
00d
ffd
ff5
fee
fef
fee
fec
ff2
ffc
002
00d
01a
013
007
ffe
ffd
000
ffe
ffe
ffe
000
009
00a
00f
00e
00a
00b
013
011
000
ff5
ff3
ff1
fed
fe5
fd9
fdc
fe2
fea
ff8
001
002
fff
fff
fff
ffe
ffe
ffe
004
00a
009
006
004
00b
017
015
016
002
ff5
fec
fef
ff5
ff0
fee
fe2
fdd
fe2
fec
ffa
000
000
fff
ffd
ffd
ffe
fff
002
007
005
006
005
00f
011
00d
00c
ffe
ff3
feb
ff5
ffc
ffb
ffe
ff7
ff0
fe9
fef
ffd
ffd
000
fff
ffd
ffe
ffc
fff
fff
000
fff
007
00b
00d
003
004
fff
ff6
ff5
ff1
ff3
ff3
ffa
ffb
ffb
ffd
ff3
ff8
ffc
ffe
ffc
ffd
001
ffc
fff
ffb
ff8
ff5
ff9
003
00c
006
005
005
ffc
ff2
ff0
ff1
ff1
ff5
fff
ffc
ffd
ffc
ffc
ffd
000
001
ffe
ffe
fff
fff
ffc
ffe
ff7
fee
fea
ff1
ff8
ffd
ffb
ffd
ff6
fed
ff0
ff5
ffc
ffc
001
003
001
003
001
001
000
ffe
ffe
ffe
000
000
000
ffe
001
001
ff2
fe6
fe8
fef
ff6
ff0
feb
feb
ff7
ffc
006
009
006
006
002
000
003
004
ffd
000
000
000
ffd
ffe
ffe
005
007
010
003
ff0
fe9
fe2
fe5
fed
ff5
ffb
ffe
000
007
004
006
004
006
005
007
004
000
ffd
fff
000
ffd
fff
001
008
00d
012
00c
008
002
ffa
ffa
001
007
003
004
004
fff
003
003
001
005
008
006
000
000
000
ffd
000
ffc
ffe
ffd
001
009
00a
00c
011
00f
00d
013
00c
009
ffe
ffe
006
003
005
007
006
005
00c
009
fff
ffc
fff
ffe
ffd
000
ffc
fff
003
fff
004
00b
010
00b
009
005
006
004
004
005
001
004
002
006
006
00b
00d
003
000
ffd
ffe
ffe
fff
ffc
ffe
ffe
001
ffe
ffc
fff
006
009
002
008
00d
010
008
001
001
002
004
004
007
007
007
002
000
000
fff
fff
ffd
fff
fff
fff
ffd
ffe
ffa
ffd
005
005
005
009
008
006
007
006
006
003
ffd
000
003
001
004
ffe
001
ffe
ffe
001
000
ffe
ffe
001
ffc
ffc
fff
fff
000
007
008
007
004
006
00b
009
005
003
005
003
000
000
fff
000
ffd
fff
000
ffd
fff
000
000
ffd
000
fff
ffc
fff
ffc
002
002
004
004
008
000
002
002
004
ffd
000
ffc
000
ffe
ffd
000
000
ffc
ffe
fff
fff
ffd
ffe
ffe
ffe
fff
ffd
ffd
ffe
ffe
000
000
fff
ffd
fff
fff
ffd
ffb
ffc
fff
fff
ffe
fff
ffe
fff
ffe
ffc
fff
000
000
fff
ffd
000
ffe
ffe
001
ffe
ffe
000
fff
ffc
000
fff
ffd
ffc
ffd
ffc
000
ffe
001
ffd
fff
ffe
ffd
000
