fff
ffd
000
000
000
000
fff
000
ffd
000
000
ffe
ffe
ffe
ffe
ffe
000
000
ffd
000
fff
fff
ffc
000
000
ffc
ffe
000
ffd
ffe
ffd
fff
ffc
ffe
000
000
ffc
ffc
ffc
fff
fff
ffe
ffe
ffd
000
ffd
fff
ffe
ffe
ffc
ffe
000
ffd
000
fff
ffd
ffd
ffe
ffe
ffd
fff
fff
ffd
fff
000
ffe
ffd
ffd
ffc
ffd
ffe
ffe
ffd
ffd
fff
000
ffe
ffd
000
000
000
ffe
ffc
ffe
000
fff
ffe
000
fff
000
fff
000
000
fff
001
005
00a
008
008
009
006
007
006
000
fff
ff9
ffc
000
000
ffd
fff
ffd
fff
000
fff
000
001
000
006
005
00d
00b
00e
011
014
015
013
00e
008
006
00a
001
ff9
ff5
ff7
ff7
fff
ffe
ffe
fff
ffd
ffc
ffd
ffd
001
006
00b
009
00a
009
008
00a
00b
00d
002
008
00a
fff
fff
ffc
ffa
ff3
fef
ff2
ffc
000
ffd
ffe
ffd
ffe
ffd
001
007
00e
00b
008
00c
00a
009
008
00b
010
00b
004
00b
00a
009
ffc
004
ffc
ff2
ff2
ff7
ffe
000
fff
000
000
001
006
010
010
00b
003
003
007
002
003
00a
009
00f
009
003
008
006
007
007
001
ff9
ff0
ff5
ffd
ffc
ffe
ffe
ffe
001
006
00d
00d
00a
004
006
003
008
003
002
004
010
00d
003
007
00b
007
00a
005
ffd
ff1
ff5
ffc
ffd
ffe
ffe
ffc
fff
002
007
009
008
002
fff
ff9
ff2
fe7
fec
ffd
013
01e
011
00a
00b
00a
00f
00a
ffd
ff1
ff9
ffc
ffd
ffd
000
fff
000
004
003
001
ffc
ff5
fec
fe3
fdd
fdc
fe5
ff9
010
012
010
00f
009
010
00e
006
ffb
ff6
ffc
ffc
ffe
000
000
000
ffd
004
ffe
ff5
fef
fe7
fe1
fe5
fec
ff6
ffb
007
00b
00b
005
00b
00e
00d
00c
000
ffb
ffc
ffc
ffe
ffd
ffd
000
ffd
fff
000
ffc
ff5
fec
fe7
fea
ff4
000
002
003
007
012
009
006
009
007
fff
ff7
ff3
ff3
ff8
fff
ffd
fff
fff
ffe
ffd
ffe
fff
ffb
ff8
ff0
fed
ff3
ffe
ffc
ff5
001
00f
00f
003
007
007
004
ffb
ff2
ff2
ff5
ff8
ffc
000
fff
ffe
000
ffd
ffe
fff
fff
ffa
ff2
ff3
ff7
fff
ff7
ff6
003
007
008
fff
ffd
ffe
001
ffa
ff8
ffc
ffa
ffc
ffb
ffb
000
000
000
ffd
000
001
fff
ff9
ff3
ff2
ff5
ffa
ff9
ffe
003
00c
007
fff
ff6
ffd
fff
003
006
006
002
001
ffc
fff
fff
ffd
fff
fff
003
000
002
ffd
ffb
ff6
feb
fea
fed
ffb
006
00f
ffe
ff5
ff4
ffc
005
00d
009
00b
00b
005
fff
fff
000
000
000
000
000
007
004
001
ffc
ff3
fea
fdd
fd4
fd8
fe1
fef
ff0
ff2
fff
004
008
00d
003
010
010
005
ffe
ffd
ffd
ffd
ffe
ffe
001
00a
007
004
002
ffd
ff8
fe6
fda
fdc
fd4
fdc
fe9
ffb
009
00c
00d
00d
009
012
011
007
ffa
ffc
ffd
000
000
ffd
ffe
00d
00d
010
00d
005
001
ffb
ffc
ff4
fee
fed
ff3
005
00c
00f
011
00f
00e
010
006
001
ffb
fff
fff
fff
fff
ffc
002
00e
011
012
014
00a
00c
00d
005
fff
ffc
ff9
002
004
007
00c
00d
009
00f
009
ffe
ffd
ffc
fff
fff
fff
ffd
000
fff
007
010
010
00e
008
009
003
fff
ffc
001
fff
fff
ffe
004
001
008
00d
007
003
ffd
ff9
ffe
ffd
ffc
ffc
ffe
fff
fff
004
008
00b
00a
006
000
004
005
006
002
ffe
ffe
ffd
003
002
002
009
004
ffe
ffe
ffd
ffa
ffc
fff
000
fff
ffd
ffd
003
009
00e
00a
00b
003
007
004
000
ffd
001
001
003
003
005
008
fff
ffa
ffa
ffd
ffc
000
fff
ffc
ffd
ffd
000
000
000
006
009
00b
00d
00d
00b
010
011
011
00d
00c
009
008
fff
ff9
ff7
ff8
ffb
ffb
fff
ffe
000
ffe
000
000
ffc
000
001
fff
004
005
003
007
007
00e
010
011
00d
00a
004
ffe
ffa
ffa
ffb
ffb
ffe
ffe
000
ffd
000
ffc
fff
ffd
ffc
ffc
fff
fff
ffd
ffd
fff
fff
fff
ffe
ffe
ffe
fff
ffe
ffc
ffd
fff
ffe
fff
ffc
ffc
fff
ffe
000
ffd
000
000
ffe
ffd
fff
ffc
000
fff
000
fff
fff
ffc
ffd
fff
ffd
fff
ffe
fff
ffe
000
ffc
ffd
000
fff
ffd
fff
ffc
ffc
000
ffe
