ffe
001
fff
000
001
000
fff
fff
000
fff
002
000
001
ffe
000
ffd
ffe
fff
ffe
002
ffe
fff
ffe
000
001
fff
000
000
001
001
000
ffe
ffd
000
ffe
fff
ffe
ffd
ffe
000
002
ffe
fff
001
ffe
ffd
001
001
ffe
001
ffe
ffe
000
000
fff
001
ffd
ffe
ffe
001
000
ffd
fff
001
fff
ffe
ffe
ffd
ffd
fff
ffd
ffc
ffd
fff
ffd
ffc
fff
001
000
ffe
001
ffd
fff
001
ffd
fff
002
ffd
ffe
001
000
000
000
fff
fff
ffc
ffb
ffd
ffc
ffc
001
000
ffb
ffc
ffa
ffc
ffb
ffd
ffe
001
001
fff
000
ffd
ffe
ffd
ffd
000
fff
ffd
fff
fff
ffc
ffc
ffc
ffc
fff
000
ffd
ffd
ffd
ffc
ffe
ffa
ffe
000
ffd
fff
fff
000
001
fff
000
ffe
fff
fff
fff
ffe
fff
ffd
fff
001
004
008
00a
00a
00b
00c
00c
004
001
002
fff
000
ffb
ffc
000
ffe
fff
fff
000
fff
000
000
000
000
ffd
ffb
002
000
007
006
006
008
00a
00f
00e
00c
00b
00d
007
003
ffa
ffa
ffc
001
001
000
000
ffd
ffb
000
ffe
000
ffe
fff
000
005
00a
009
004
006
008
010
00c
00a
004
008
009
004
ffd
ffa
ffb
000
002
001
fff
000
ffc
ffd
ffe
ffd
ffe
ffe
005
005
003
001
002
007
015
010
00f
005
004
004
009
010
ffe
ffb
fff
ffd
000
000
000
000
ffb
ffd
ffb
ffd
ffd
fff
003
ffd
002
005
005
004
00b
00f
011
00a
003
fff
007
010
005
ffc
000
000
ffd
001
ffe
ffc
ffc
ffd
ffe
000
002
000
ffd
001
001
fff
ffb
ff7
ffa
005
00e
00e
00d
009
00e
013
009
ffc
ffc
ffd
ffe
ffd
001
fff
ff9
fff
001
005
004
ffe
001
000
003
ffe
ff1
fe5
fe6
ff6
fff
007
00c
00b
00f
011
00c
ffe
000
ffd
ffe
fff
fff
fff
ffc
001
006
006
003
fff
004
003
005
ffc
fe3
fdc
fdc
fec
ffd
fff
002
005
013
011
00c
000
ffe
ffe
ffd
000
001
ffd
fff
004
007
009
007
005
006
005
004
fee
fe3
fdb
fe2
ff1
ff9
ff6
ff8
003
00c
014
00b
002
000
001
000
001
ffe
ffe
ffd
009
00c
00e
007
008
00c
007
002
ff1
fde
fdb
fe3
ff0
ff9
ff7
001
007
008
014
00a
ffe
fff
ffe
001
001
ffe
000
000
00d
009
00d
009
00c
00f
004
ff5
fe3
fda
fdb
fe7
ff4
ffc
ffc
004
003
00d
00f
008
fff
000
ffe
000
001
ffd
ffe
002
00c
00f
00b
008
008
00d
ffe
fea
fda
fdb
fe3
ff0
ff9
000
002
006
008
00b
00b
004
000
fff
ffe
fff
000
ffe
ffb
000
008
00a
00a
003
008
00d
ffe
fe6
fda
fdf
fec
ffd
005
007
007
009
006
005
006
000
fff
000
ffe
fff
000
fff
ffe
fff
005
00b
006
004
00b
015
001
fef
fe5
fed
ffa
006
006
007
004
002
003
006
004
000
ffe
000
fff
fff
fff
fff
ffb
002
006
00e
00d
00a
00d
015
00f
003
ff9
ffd
ffe
003
fff
ffd
ffe
003
003
006
fff
001
fff
ffd
001
001
001
fff
ffe
fff
006
00b
008
00a
00d
014
014
00a
003
ffe
001
001
ffd
ffe
ffd
002
002
003
001
ffe
000
ffe
fff
ffe
ffd
fff
ffe
fff
002
007
00b
008
009
011
013
00d
005
002
000
000
ffb
ffc
ffe
002
000
ffe
ffc
fff
fff
ffe
ffe
ffe
000
000
fff
ffe
001
005
004
00d
00a
00b
00d
00b
00f
006
007
004
ffd
ffe
000
ffd
ffc
ffe
ffe
fff
fff
fff
fff
ffe
fff
000
ffd
ffd
fff
000
003
005
00c
00e
011
011
00a
008
005
002
000
ffa
ff8
ffa
ffd
ffd
000
fff
001
fff
ffd
fff
fff
ffd
000
fff
fff
ffd
ffc
ffe
ffe
003
002
005
007
004
ffd
ffc
ffb
ffc
ffa
ffa
ffa
fff
fff
ffe
ffe
000
ffe
ffe
002
fff
001
002
000
ffd
fff
ffa
ffa
ff9
ff7
ff6
ff7
ff5
ff6
ff7
ffa
ffb
ffc
ffc
ffc
fff
001
001
fff
fff
fff
001
001
fff
000
ffe
fff
ffd
001
fff
ffb
ffb
ffc
ffe
ffc
ffc
ffe
ffc
ffc
ffd
ffd
ffe
ffc
ffd
001
ffe
000
001
000
ffe
001
000
fff
001
000
000
ffd
001
001
000
001
fff
ffe
001
ffe
fff
ffe
000
ffe
ffd
ffd
ffc
fff
001
ffe
ffd
001
