004
002
002
001
003
003
004
001
003
001
003
002
003
005
004
003
003
001
005
005
003
003
003
004
002
004
003
004
000
004
001
003
003
001
001
004
004
003
003
002
003
004
005
003
002
004
003
002
004
004
002
005
005
003
004
003
004
003
005
001
001
003
002
002
002
003
000
001
000
001
002
004
003
000
003
002
004
002
004
003
003
001
004
004
001
002
003
002
005
002
001
004
000
fff
fff
ffd
fff
000
002
004
ffe
fff
000
ffd
000
001
003
003
fff
004
002
004
003
002
005
005
001
001
004
003
001
ffc
000
001
002
004
005
00a
003
ffe
ffe
002
005
006
006
007
004
002
002
002
001
004
001
003
001
003
001
fff
ff7
ff7
ffc
000
003
004
007
005
003
ffb
fff
001
005
008
00d
008
007
ffe
002
001
001
003
001
002
001
fff
ffb
ffb
ff5
ff3
ff8
ffe
ffe
ffc
ffe
ff6
ff6
ff6
ffc
ffd
005
008
007
006
002
fff
000
002
002
001
001
000
003
fff
ffb
ff6
ff1
fed
ff3
ffa
ffb
ff9
ff7
ff2
ff3
ff4
ff5
000
002
001
001
ffc
ffa
ffe
002
002
002
002
002
004
001
000
ffa
ff8
fee
fed
fee
ff6
ffc
ffa
ffc
002
ff8
ffd
000
001
ffa
ffa
ff7
ff4
ff6
ffe
004
005
005
001
002
002
000
fff
ff9
ff9
ff4
fee
fef
ff9
ffb
004
00c
011
006
000
ffd
ff4
ff2
ff2
fee
ff1
ff8
001
004
003
004
005
004
001
003
ffc
ff9
ffd
ff7
ff7
ff9
ffb
ffd
009
01f
020
00f
000
ff7
ff5
ff3
ff4
ff5
ff9
ffe
000
004
002
001
001
003
004
000
fff
fff
ffa
ffc
ffa
ff7
ff3
fff
010
025
027
00f
ffd
ffd
ff8
ff8
ff8
ff9
ffd
fff
003
005
003
001
004
002
001
004
fff
fff
ffe
ffa
ff9
ff1
fea
fff
010
02c
01e
006
003
ffe
ff7
ffa
ffd
ffe
ffe
000
004
001
003
000
003
003
003
005
000
000
ffe
ffd
ff4
fe6
fe6
000
00e
024
014
005
003
ff8
ff4
ffc
ffe
ffe
fff
002
003
004
003
002
005
003
004
004
000
001
fff
ff8
ff2
fe6
fec
000
00e
01f
014
006
ff5
ff1
ff5
ff9
ffe
ffe
fff
003
001
001
003
005
001
003
002
001
003
ffd
ffd
ffb
ff1
fef
ffc
006
014
021
00c
002
feb
fee
ff5
ff9
ffb
fff
000
002
002
005
001
005
002
004
003
001
ffe
ffc
ffb
ff4
ff9
ffa
ffd
fff
01a
01f
002
ff6
fea
fee
ff4
ff7
ffc
ffc
000
ffe
000
001
002
002
005
001
005
003
ffd
ff6
ff5
ff8
ffb
003
000
008
01e
019
ffb
fee
fea
fee
ff4
ffc
ffe
ffe
ffe
ffc
001
003
003
003
003
002
004
002
ffc
ff6
ff6
ffc
004
003
005
00e
016
00f
ff6
ff0
ff2
ff4
ff8
ffc
ff9
ffd
ffb
ffd
003
004
004
005
003
003
004
000
ffa
ff3
ff7
ffc
002
001
001
002
00a
002
ff8
ff9
ffa
ff8
ffa
ff7
ff9
ffc
ffc
000
001
002
001
001
005
003
002
fff
ffc
fff
ffd
000
001
ffd
fff
ffb
ffe
fff
000
005
002
ffe
ff9
ff7
ff8
ffa
fff
001
004
002
005
003
002
003
003
003
007
006
003
000
ffe
000
ffc
ff6
ff5
fff
003
005
006
004
ff9
ff9
ff8
ffb
ffd
001
002
000
001
003
003
003
001
006
00e
00f
009
001
fff
ffd
ff2
fe9
fef
000
003
00d
015
009
002
ffb
ffc
000
001
000
002
005
002
004
003
003
002
006
00c
00d
006
002
ffd
ffe
ff8
ffb
ffb
ff9
003
00f
012
008
fff
ffd
ffb
ffe
ffe
001
001
001
000
001
001
002
001
003
005
006
ffe
ff8
ff8
ff2
ff2
ff4
ff6
ff6
ff6
ffd
001
002
003
003
001
001
004
001
002
004
001
005
002
002
003
004
003
000
ffe
fff
ffe
ff8
ff6
ff9
ff6
ffa
ff8
ffc
fff
002
003
000
003
002
004
001
001
002
002
002
003
003
001
003
004
003
003
004
003
000
003
002
001
000
001
003
004
003
001
003
003
003
001
001
003
004
004
004
005
001
003
005
004
004
004
004
002
004
004
000
001
005
003
003
000
002
001
001
002
003
004
004
004
004
001
