000
001
004
004
000
000
003
001
000
001
000
003
004
002
003
000
002
003
001
003
000
002
004
000
004
001
004
002
001
002
000
000
002
004
001
fff
002
000
002
fff
001
ffe
000
002
003
001
000
001
003
000
000
000
003
003
001
003
003
002
003
003
003
003
004
fff
fff
001
000
ffe
ff7
ffd
ffc
ffa
ffc
fff
001
003
004
002
004
001
001
002
000
002
003
003
001
002
002
000
002
ffe
ffd
ffe
ff9
ff7
ff2
ff3
ff3
ff1
ff6
ffb
001
002
003
004
001
001
004
004
001
002
004
003
003
003
002
003
ffd
fff
ffb
ffc
ff4
ff4
ff0
ff3
ff0
ff2
ff9
ffa
ffc
004
005
006
005
007
002
004
001
001
004
001
003
001
003
001
002
ffe
001
ffd
ff7
ffa
ff6
ff3
ff7
ff9
fff
001
ffe
003
004
005
00c
00d
007
fff
001
001
004
004
001
003
004
003
003
000
fff
ffc
ff9
ff3
fed
fe9
fe8
feb
feb
ff4
ff3
ffa
ffc
000
011
011
007
005
004
000
002
001
001
002
001
003
ffe
000
ffe
ffb
ff4
fed
fe7
fee
fea
fea
fe9
ff1
ff1
ff6
ff4
ffb
00a
00e
007
004
004
002
004
003
004
001
001
002
001
fff
ff7
ffb
ffa
ff4
fee
ff4
fe6
fe5
feb
ff3
ff4
ffc
ff9
ff9
005
007
006
001
001
003
004
004
003
001
ffe
000
ffa
ffc
ffd
fff
ffd
ffc
ffc
ff6
fda
fe4
ff9
ffb
ffe
001
ffc
ffc
002
000
ffb
ffb
ffe
003
002
002
002
000
002
ffb
ff8
ffc
001
00b
007
005
006
ff1
fd8
ff4
001
ffe
fff
001
ff8
ffb
fff
ff7
ffb
ffd
002
004
003
003
002
ffe
fff
ffd
ffd
003
008
00e
013
00c
00e
fea
fe2
004
010
003
fff
ffd
ff7
ff9
ffc
ff9
ff8
000
000
001
003
003
001
002
000
ffd
008
00d
014
012
01e
022
020
fff
ff0
00d
014
002
001
003
000
001
fff
ffc
ffc
fff
004
003
000
003
000
001
003
00a
014
017
01a
016
01a
02a
020
000
ffc
00f
00f
011
00c
005
00c
009
004
ffe
ffe
000
004
003
000
004
000
004
009
011
018
01a
014
013
017
01b
014
002
ffd
005
011
01c
013
011
00a
006
002
001
fff
001
002
001
003
004
003
004
008
009
00e
00d
014
011
00c
009
00a
002
008
00c
018
015
00f
009
ffe
003
006
001
ffc
002
000
001
001
000
000
fff
002
005
008
00f
015
00f
004
fff
004
005
014
01b
01c
017
010
002
007
009
002
ffe
000
001
002
002
002
002
003
000
ffe
ffb
003
00c
017
014
007
006
008
013
020
019
015
007
001
ff9
002
001
ffc
ffe
ffd
ffe
003
003
002
003
002
000
ffd
ffa
ff9
000
006
001
ffb
ffd
007
008
00e
00c
006
ff6
ff7
ff2
ff8
ff8
ff5
ff7
ffe
fff
001
000
002
003
001
001
ffa
ff8
ff6
ff1
fef
fee
fea
feb
fee
ff5
ffd
003
ff8
ff9
ff7
ff4
ff2
ff3
ff3
ff7
ffe
002
003
003
004
004
001
001
ffb
ff7
ff4
fec
fe8
fe6
fe6
fed
ff1
fef
ff5
ffa
ffe
fff
ffc
ff6
ff9
ff9
ff7
ffb
ffc
000
001
003
001
001
000
001
000
ffb
ff4
fef
ff0
fee
ff1
ff5
ff7
ff7
ff6
ffb
ffa
001
ffe
000
fff
ffa
ffb
fff
000
002
002
002
002
003
001
003
fff
ffd
ffb
ff8
ff5
ff9
ff9
ffb
ffb
ffc
ffa
ffd
ffd
001
005
008
006
004
ffd
ffd
000
002
000
001
001
000
001
002
001
002
ffd
ffd
ffc
002
ffc
001
ffb
ffc
ffd
000
001
003
009
009
008
003
fff
001
002
003
001
004
003
004
002
003
001
002
001
ffc
ffc
fff
ffb
fff
ffd
ffd
ffa
ffa
ffd
fff
001
005
004
fff
000
002
003
001
001
003
004
004
004
001
004
000
ffd
ffc
ffa
ff9
ff5
ff4
ff5
ff5
ff6
ff6
ff3
ff1
ff2
ff9
ff9
ffe
000
003
000
004
001
001
002
003
001
002
000
fff
001
001
fff
ffc
ff7
ff8
ff7
ff4
ff3
ff5
ff4
ff6
ff8
ffb
ffe
003
003
000
002
000
004
002
003
000
001
004
002
003
002
004
000
002
001
fff
000
000
ffe
003
fff
fff
000
002
001
001
001
002
002
003
002
001
