fff
001
ffe
000
000
000
001
002
ffe
fff
fff
fff
001
002
001
ffe
000
002
000
000
ffe
fff
001
002
001
001
ffe
ffe
001
001
001
000
ffe
fff
001
003
002
001
003
003
003
003
002
002
ffe
002
003
001
000
fff
003
002
fff
002
000
002
fff
ffe
ffe
000
001
001
001
003
002
005
006
007
007
007
004
003
006
003
003
003
003
001
002
000
001
fff
ffe
001
ffe
000
002
001
002
ffe
002
003
003
006
006
007
007
007
00a
009
006
007
00c
00c
00c
00b
00b
006
006
001
fff
001
000
000
000
002
002
001
001
004
000
fff
004
001
002
001
001
002
008
008
00c
00c
00f
011
00f
00a
001
003
000
000
000
001
001
fff
ffe
000
fff
ffd
002
ffd
001
ff7
ffb
ffd
fff
ffc
ffc
001
006
00b
009
008
007
005
fff
000
ffe
002
000
002
002
ffe
001
000
001
000
ffd
ffc
ff6
ff3
ff8
ff1
ff9
ffb
ff9
ffa
ffe
ffc
ff9
ffa
ff6
ff9
ffb
ffa
fff
002
001
001
000
000
000
ffe
ffc
fff
ffa
ff9
ff6
ff8
ff1
ff0
ff7
ff8
ff3
ff4
ff1
fec
feb
fef
fee
ff2
ffb
ffb
ffe
fff
fff
fff
002
ffd
ffe
ffd
ff8
ffe
ffd
ff8
ff6
ff5
ff3
ff1
ff1
ff0
fed
fea
fe1
fe4
fe7
fe7
fee
ff0
ff6
ffa
ffc
001
000
ffe
fff
ffe
000
ffe
ffd
ffe
002
ffb
ff7
ff9
ffb
ff7
ff8
fef
fec
fe3
fe1
fe6
feb
fef
fed
ff4
ff7
ff9
ffd
002
fff
002
001
ffe
ffd
001
003
003
009
000
002
001
ffa
ffc
ff7
fee
fee
feb
fea
fee
ff4
ff7
ff5
fff
ff9
ffb
ffe
fff
fff
001
fff
000
fff
000
fff
008
006
003
003
002
002
000
ffc
ff2
ff3
ff5
ff5
ff7
ffc
002
005
008
000
ffb
ffe
fff
fff
fff
ffe
fff
001
004
006
007
003
005
003
009
009
006
ffb
ff6
000
fff
ff7
ff7
fff
005
00c
016
00c
ffd
ffc
fff
fff
002
002
ffe
ffd
001
009
005
004
002
009
008
007
001
fff
000
001
ffe
ff8
fff
ffc
007
011
01b
00f
fff
000
001
fff
000
002
000
ffd
003
009
007
00a
00a
00a
00b
004
ffb
000
005
002
ffc
ffd
000
007
007
013
016
00f
000
ffc
ffe
002
fff
000
ffe
ffa
fff
009
00c
008
00c
00f
013
005
fff
007
007
001
ffd
001
004
009
00c
00b
00d
007
ffc
ffe
ffe
000
ffe
ffe
ffe
ff8
ffc
00d
00e
009
00e
018
017
007
004
00a
005
ffd
ffa
002
006
003
000
006
003
ffe
ffc
ffd
000
000
001
002
000
ff5
ffa
006
00b
00c
00f
01a
01b
00e
008
008
005
000
001
00b
004
002
ffd
003
fff
ffd
ffa
fff
001
fff
fff
000
ffd
ff5
ff6
ffb
007
00c
00b
012
017
01b
00c
003
007
00c
008
00a
005
001
002
002
fff
ffc
ffd
ffe
ffe
001
ffe
001
ffc
ff9
ff5
ff7
001
008
00c
010
019
01c
00f
00d
00e
00a
008
00d
009
006
001
ffe
ffe
ffd
000
fff
002
fff
ffe
fff
ffe
ff7
ff5
ff7
ffc
003
008
00d
009
011
015
019
015
00b
007
00e
00a
007
fff
ffb
000
fff
fff
ffe
000
000
000
001
fff
ffd
ff9
ff4
ffa
ffd
006
00b
010
014
014
011
00f
009
00d
00c
007
001
ffc
ffa
ffd
000
ffe
000
fff
fff
000
002
001
fff
ffa
ff8
ff6
ff9
ffd
ffd
001
006
003
002
006
005
000
ffe
ff9
ff9
ffa
ffb
fff
fff
ffe
002
001
002
fff
fff
000
001
ffd
ffc
ff7
ff5
ff0
ff0
fed
ff4
ff7
ff9
ff5
ff2
ff0
ff3
ffa
ffa
ffb
ffe
000
ffe
ffe
fff
000
001
001
001
ffe
ffe
fff
ffe
ffd
ffe
ffc
ffa
ff8
ff7
ff7
ff6
ff6
ff6
ff8
ffd
ffd
fff
fff
001
000
ffe
fff
ffe
ffe
002
ffe
001
fff
fff
000
001
000
ffe
001
ffe
000
000
ffe
fff
fff
000
ffe
fff
ffe
ffe
000
fff
002
002
002
000
001
002
000
000
000
fff
002
001
fff
fff
001
fff
000
fff
001
001
ffe
fff
002
001
fff
001
000
fff
001
001
000
fff
fff
002
000
001
fff
001
000
002
000
000
ffe
ffe
001
ffe
ffe
fff
ffe
fff
fff
ffe
fff
fff
fff
002
ffe
fff
ffe
fff
000
