000
000
000
000
000
000
3ff
000
3ff
3ff
3ff
000
000
000
3ff
000
000
3ff
000
000
000
000
000
000
000
3ff
3ff
000
000
3ff
000
000
3ff
3ff
3ff
3ff
000
000
000
3ff
000
000
3ff
000
000
000
3ff
000
000
3ff
000
3ff
000
000
3ff
3ff
3ff
000
000
000
3ff
3ff
000
3ff
000
3ff
3ff
000
000
3ff
000
000
3ff
3ff
3ff
000
000
000
000
000
000
3ff
000
000
3ff
000
000
3ff
000
3ff
3ff
3ff
3ff
000
3ff
3ff
3ff
3fe
3ff
3ff
3ff
3ff
3ff
000
3ff
000
3ff
000
3ff
000
000
3ff
000
000
3ff
3ff
000
000
000
3ff
3ff
000
000
000
001
001
003
002
001
000
001
3ff
3ff
000
3ff
3ff
000
000
000
000
000
000
000
000
3ff
000
3ff
3fe
3ff
001
3ff
002
003
003
003
001
001
003
000
000
001
001
3fe
3ff
3ff
001
000
000
3ff
3ff
3ff
3ff
3ff
3ff
3fe
3fe
000
000
000
001
001
001
002
003
001
002
000
002
001
001
001
001
001
000
000
000
000
3ff
3ff
3ff
3ff
000
3ff
000
001
000
001
000
3ff
3ff
3fe
001
001
000
001
3ff
001
002
000
004
002
000
000
000
000
000
000
3ff
000
000
002
001
000
003
000
000
002
002
3fe
3fe
001
3ff
000
001
001
002
002
003
003
000
000
000
000
000
000
000
000
002
001
002
003
003
002
003
001
001
3fc
3fb
3fe
000
001
001
001
001
003
003
000
000
001
3ff
3ff
000
3ff
000
001
002
002
004
003
003
004
002
002
002
3ff
3fb
3fc
3ff
001
001
001
003
004
003
000
000
000
3ff
3ff
000
000
3ff
001
002
004
005
004
005
004
002
002
005
006
3ff
3fc
3ff
3ff
001
003
003
005
004
003
000
000
000
3ff
000
3ff
000
000
003
002
003
003
004
001
001
001
006
006
001
000
3ff
000
002
003
005
005
004
003
001
001
3ff
3ff
000
000
3ff
3ff
000
000
000
000
000
3ff
001
002
006
002
004
002
3ff
000
000
002
002
001
001
001
000
000
000
3ff
3ff
000
000
3ff
3fe
3fd
3fc
3fb
3fc
3ff
002
002
005
004
003
000
000
3ff
3fe
3fd
3fe
3fe
3fe
3ff
000
3ff
000
000
3ff
3ff
000
3ff
3fe
3fc
3fb
3fc
3ff
000
000
003
004
003
002
3ff
3ff
3ff
3fd
3fc
3fd
3fe
3fe
3fe
000
3ff
000
000
3ff
3ff
000
3ff
3fe
3fc
3fe
002
002
001
002
003
003
001
002
001
3ff
3fd
3fc
3fc
3fc
3fd
3ff
3ff
000
3ff
3ff
000
000
3ff
3ff
3ff
3fd
3fd
001
003
004
001
003
005
003
000
3ff
000
3fe
3fc
3fe
3fe
3fd
3fe
3ff
3ff
3ff
000
3ff
3ff
000
3ff
3ff
3fe
3fe
3ff
001
003
005
003
005
003
002
3fe
3ff
3ff
3fd
3ff
3ff
000
3fe
000
3ff
3fe
3ff
000
000
3ff
000
000
3ff
3fe
3ff
000
001
001
003
002
000
001
3fe
3fd
3ff
3ff
3ff
001
000
001
000
001
3ff
3fe
3ff
3ff
000
3ff
000
3ff
3ff
3fe
000
000
003
001
000
000
3fe
000
000
3fe
000
3fd
3ff
000
000
001
001
001
000
3ff
3ff
000
3ff
000
000
000
3fe
3fe
000
001
003
001
001
000
3fe
3ff
001
000
000
3fe
3ff
3ff
000
000
000
000
3ff
3ff
000
000
000
000
3ff
3ff
3ff
3fe
3fd
000
001
000
3ff
001
000
003
003
002
002
000
000
001
3ff
3ff
000
000
3ff
000
000
000
3ff
3ff
000
000
3ff
3fe
3fb
3fc
3fe
001
001
001
002
004
006
005
004
003
002
002
002
002
000
000
3ff
3ff
000
3ff
000
000
000
000
3ff
3ff
3fd
3fc
3fc
000
001
000
002
001
001
002
004
004
003
004
004
001
000
3ff
000
000
3ff
000
000
000
000
000
3ff
3ff
3ff
3fe
3fe
3fe
3fe
3ff
3fe
3ff
3ff
000
001
001
001
001
000
000
000
3ff
3ff
000
000
3ff
000
000
000
000
3ff
3ff
3ff
3ff
000
3ff
3ff
3ff
3ff
3ff
3ff
3ff
3ff
3ff
3ff
3ff
3ff
3ff
000
000
000
000
3ff
000
000
000
3ff
000
000
000
3ff
000
3ff
000
000
3ff
000
3ff
3ff
000
000
000
000
000
000
000
000
000
3ff
000
000
3ff
000
