000
3ff
000
000
000
000
000
000
3ff
000
000
3ff
3ff
3ff
3ff
000
000
000
3ff
000
000
000
3ff
000
000
3ff
000
000
3ff
3ff
3ff
000
3ff
000
000
000
3ff
3ff
3ff
000
000
000
3ff
3ff
000
3ff
000
3ff
3ff
3ff
000
000
3ff
000
000
3ff
3ff
000
000
3ff
000
000
3ff
000
000
000
3ff
3ff
3ff
3ff
3ff
3ff
3ff
3ff
000
000
000
3ff
000
000
000
3ff
3ff
000
000
000
000
000
000
000
000
000
000
000
000
001
002
002
002
002
002
002
001
000
000
3fe
3ff
000
000
3ff
000
3ff
000
000
000
000
000
000
001
001
003
003
004
004
005
005
005
003
002
002
003
000
3fe
3fd
3fe
3fe
000
000
3ff
000
3ff
3ff
3ff
3ff
000
001
003
002
002
002
002
003
003
003
001
002
002
000
000
3ff
3fe
3fd
3fc
3fc
3ff
000
3ff
000
3ff
3ff
3ff
000
002
003
003
002
003
002
002
002
003
004
003
001
003
002
002
3ff
001
3ff
3fc
3fc
3fe
000
000
000
000
000
000
002
004
004
003
001
001
002
001
001
002
002
004
002
001
002
002
002
002
000
3fe
3fc
3fd
3ff
3ff
3ff
000
3ff
000
001
003
003
002
001
002
001
002
001
001
001
004
003
001
002
003
002
003
001
3ff
3fc
3fd
3ff
3ff
3ff
000
3ff
000
001
002
002
002
000
000
3fe
3fd
3fa
3fb
3ff
005
007
004
003
003
003
004
002
3ff
3fc
3fe
3ff
3ff
3ff
000
000
000
001
001
000
3ff
3fd
3fb
3f9
3f7
3f7
3f9
3fe
004
005
004
004
002
004
004
001
3ff
3fe
3ff
3ff
000
000
000
000
3ff
001
3ff
3fd
3fc
3fa
3f8
3f9
3fb
3fe
3ff
002
003
003
001
003
003
003
003
000
3ff
3ff
3ff
3ff
3ff
3ff
000
3ff
000
000
3ff
3fd
3fb
3fa
3fa
3fd
000
000
001
002
004
002
002
002
002
000
3fe
3fd
3fd
3fe
000
3ff
000
000
000
3ff
000
000
3ff
3fe
3fc
3fb
3fd
3ff
3ff
3fd
000
004
004
001
002
002
001
3ff
3fc
3fc
3fd
3fe
3ff
000
000
3ff
000
3ff
000
000
000
3fe
3fc
3fd
3fe
000
3fe
3fe
001
002
002
000
3ff
3ff
000
3fe
3fe
3ff
3ff
3ff
3ff
3ff
000
000
000
3ff
000
000
000
3fe
3fd
3fc
3fd
3fe
3fe
3ff
001
003
002
000
3fe
3ff
000
001
002
002
001
000
3ff
000
000
3ff
000
000
001
000
001
3ff
3ff
3fe
3fb
3fb
3fb
3ff
001
004
000
3fd
3fd
3ff
001
003
002
003
003
001
000
000
000
000
000
000
000
002
001
000
3ff
3fd
3fa
3f7
3f5
3f6
3f8
3fc
3fc
3fc
000
001
002
003
001
004
004
001
3ff
3ff
3ff
3ff
000
000
000
003
002
001
001
3ff
3fe
3fa
3f6
3f7
3f5
3f7
3fa
3ff
002
003
003
003
002
005
004
002
3ff
3ff
3ff
000
000
3ff
000
003
003
004
003
001
000
3ff
3ff
3fd
3fc
3fb
3fd
001
003
004
004
004
003
004
002
000
3ff
000
000
000
000
3ff
001
003
004
005
005
002
003
003
001
000
3ff
3fe
001
001
002
003
003
002
004
002
000
3ff
3ff
000
000
000
3ff
000
000
002
004
004
004
002
002
001
000
3ff
000
000
000
000
001
000
002
003
002
001
3ff
3fe
3ff
3ff
3ff
3ff
000
000
000
001
002
003
003
001
000
001
001
002
000
3ff
3ff
3ff
001
000
000
002
001
000
000
3ff
3ff
3ff
000
000
000
3ff
3ff
001
002
003
003
003
001
002
001
000
3ff
000
000
001
001
001
002
000
3ff
3ff
3ff
3ff
000
000
3ff
3ff
3ff
000
000
000
001
002
003
003
003
003
004
004
004
003
003
002
002
000
3fe
3fe
3fe
3ff
3ff
000
3ff
000
3ff
000
000
3ff
000
000
000
001
001
001
002
002
003
004
004
003
002
001
000
3fe
3fe
3ff
3ff
3ff
3ff
000
3ff
000
3ff
000
3ff
3ff
3ff
000
000
3ff
3ff
000
000
000
000
000
3ff
000
3ff
3ff
3ff
000
000
000
3ff
3ff
000
3ff
000
3ff
000
000
000
3ff
000
3ff
000
000
000
000
000
3ff
3ff
000
3ff
000
3ff
000
3ff
000
3ff
3ff
000
000
3ff
000
3ff
3ff
000
000
