3ff
000
000
000
000
000
000
000
000
000
000
000
000
3ff
000
3ff
3ff
000
3ff
000
3ff
000
3ff
000
000
000
000
000
000
000
000
3ff
3ff
000
3ff
000
000
3ff
000
000
000
3ff
000
000
000
3ff
000
000
3ff
000
000
3ff
000
000
000
000
3ff
000
000
000
000
3ff
000
000
000
000
000
3ff
3ff
000
3ff
3ff
3ff
000
3ff
3ff
000
000
000
000
000
3ff
000
000
3ff
000
000
3ff
000
000
000
000
000
000
000
3ff
3ff
3ff
3ff
3ff
000
000
3ff
3ff
3ff
3ff
3ff
3ff
3ff
000
000
000
000
3ff
000
3ff
3ff
000
000
3ff
000
000
3ff
3ff
3ff
3ff
000
000
3ff
3ff
3ff
3ff
000
3ff
3ff
000
3ff
000
000
000
000
000
000
3ff
000
000
000
000
000
3ff
000
000
001
002
002
002
003
003
003
001
000
001
000
000
3ff
3ff
000
3ff
000
000
000
000
000
000
000
000
3ff
3ff
001
000
002
001
001
002
003
004
003
003
003
003
002
001
3ff
3ff
3ff
000
000
000
000
3ff
3ff
000
3ff
000
3ff
000
000
001
003
002
001
001
002
004
003
003
001
002
002
001
3ff
3ff
3ff
000
000
000
000
000
3ff
3ff
3ff
3ff
000
000
001
001
001
000
000
002
005
004
004
001
001
001
002
004
000
3ff
000
3ff
000
000
000
000
3ff
3ff
3ff
3ff
3ff
000
001
3ff
000
001
001
001
003
004
004
003
001
000
002
004
001
3ff
000
000
3ff
000
3ff
3ff
3ff
3ff
3ff
000
000
000
3ff
000
000
000
3ff
3fe
3ff
001
003
004
003
002
003
005
002
3ff
3ff
3ff
000
3ff
000
000
3fe
000
000
001
001
000
000
000
001
000
3fc
3f9
3fa
3fd
000
002
003
003
004
004
003
3ff
000
3ff
000
000
000
000
3ff
000
001
001
001
000
001
001
001
3ff
3f9
3f7
3f7
3fb
3ff
000
000
001
005
004
003
000
000
000
3ff
000
000
3ff
000
001
002
002
002
001
002
001
001
3fc
3f9
3f7
3f8
3fc
3fe
3fe
3fe
001
003
005
003
000
000
000
000
000
3ff
000
3ff
002
003
004
002
002
003
002
000
3fc
3f7
3f7
3f9
3fc
3fe
3fe
000
002
002
005
003
3ff
000
3ff
000
000
000
000
000
003
002
003
002
003
004
001
3fd
3f9
3f6
3f7
3fa
3fd
3ff
3ff
001
001
003
004
002
000
000
3ff
000
000
3ff
000
001
003
004
003
002
002
003
000
3fb
3f6
3f7
3f9
3fc
3fe
000
001
001
002
003
003
001
000
000
000
000
000
3ff
3ff
000
002
003
003
001
002
003
000
3f9
3f7
3f8
3fb
3ff
001
002
002
002
002
001
001
000
000
000
3ff
000
000
000
000
000
001
003
002
001
003
005
000
3fc
3f9
3fb
3ff
002
002
002
001
000
001
001
001
000
000
000
000
000
000
000
3ff
001
001
003
003
002
003
005
004
001
3fe
3ff
000
001
000
3ff
000
001
001
001
000
000
000
3ff
000
000
000
000
3ff
000
001
003
002
003
003
005
005
002
001
3ff
000
000
3ff
3ff
3ff
000
001
001
000
000
000
3ff
000
000
3ff
000
000
000
000
002
003
002
002
004
005
003
001
000
000
000
3ff
3ff
3ff
000
000
3ff
3ff
000
000
000
000
3ff
000
000
000
3ff
000
001
001
003
003
003
003
003
004
002
002
001
3ff
3ff
000
3ff
3ff
000
000
000
000
000
000
3ff
000
000
3ff
3ff
000
000
001
001
003
004
004
004
003
002
001
000
000
3fe
3fe
3fe
3ff
3ff
000
000
000
000
3ff
000
000
3ff
000
000
000
3ff
3ff
3ff
3ff
001
000
001
002
001
3ff
3ff
3ff
3ff
3fe
3ff
3ff
000
000
3ff
000
000
3ff
000
000
000
000
000
000
3ff
000
3ff
3ff
3fe
3fe
3fd
3fe
3fd
3fe
3fe
3ff
3ff
3ff
3ff
3ff
000
000
000
000
000
000
000
000
000
000
000
000
3ff
000
000
3ff
3ff
3ff
000
3ff
3ff
000
3ff
3ff
3ff
3ff
000
3ff
3ff
000
3ff
000
000
000
3ff
000
000
000
000
000
000
3ff
000
000
000
000
000
000
000
3ff
000
000
000
000
3ff
3ff
3ff
000
000
3ff
3ff
000
