3ff
000
000
3ff
000
000
000
000
000
000
000
000
3ff
000
3ff
3ff
3ff
3ff
000
000
3ff
000
000
000
3ff
000
000
3ff
000
3ff
000
3ff
000
3ff
000
3ff
3ff
000
000
3ff
3ff
3ff
3ff
000
3ff
3ff
3ff
3ff
000
3ff
000
3ff
000
000
3ff
000
000
000
3ff
3ff
3ff
000
000
000
3ff
000
000
3ff
000
3ff
3ff
3ff
3ff
000
000
000
000
000
000
3ff
3ff
000
000
000
000
000
3ff
000
3ff
3ff
3ff
3ff
3ff
3ff
3ff
3fe
3ff
3ff
3ff
000
000
3ff
3ff
000
000
000
3ff
3ff
3ff
000
000
3ff
3ff
3ff
000
000
000
3ff
3ff
3ff
3fe
3fd
3fc
3fd
3fd
3fc
3fe
000
000
001
000
3ff
3ff
3ff
3ff
000
3ff
000
000
000
000
000
3ff
3ff
3ff
3ff
3fe
3fe
3ff
000
000
000
3ff
3ff
3ff
000
001
001
002
001
001
002
003
002
002
001
001
000
3ff
3ff
000
3ff
3ff
3fe
3ff
000
000
001
002
002
000
001
000
3ff
3ff
000
000
002
001
001
004
005
005
003
001
000
000
000
000
3ff
3fd
3fd
3fe
000
001
003
003
002
001
000
3ff
000
001
001
001
003
002
003
004
005
007
005
001
000
000
000
000
3ff
3fc
3fd
3fd
000
002
001
001
002
001
3ff
3fd
3fe
3ff
000
000
002
002
004
006
007
00a
006
001
000
3ff
000
3ff
3fe
3fe
3fe
000
000
002
001
002
004
003
3ff
3fc
3fb
3fb
3fd
3ff
000
002
005
007
00a
00c
008
001
3ff
000
3ff
3ff
3ff
3ff
000
001
003
004
004
004
005
004
003
3ff
3fd
3fc
3fc
3fc
3fb
3fd
3ff
001
003
006
005
002
3ff
3ff
000
3ff
000
3ff
000
002
003
004
004
003
003
005
004
000
3fd
3fd
3fc
3fb
3f9
3f6
3f7
3f9
3fb
3fe
000
001
000
000
000
000
3ff
000
001
002
002
002
001
003
006
005
005
001
3fd
3fb
3fc
3fd
3fc
3fb
3f8
3f7
3f8
3fb
3ff
000
000
000
3ff
3ff
3ff
000
001
002
001
001
001
004
004
003
003
3ff
3fd
3fb
3fd
3ff
3ff
3ff
3fe
3fc
3fa
3fc
3ff
3ff
000
000
3ff
000
3ff
000
000
000
000
002
003
003
001
001
000
3fe
3fd
3fc
3fd
3fd
3fe
3ff
3ff
3ff
3fd
3fe
3ff
000
3ff
3ff
000
3ff
000
3ff
3fe
3fd
3fe
001
003
001
001
001
3ff
3fc
3fc
3fc
3fc
3fd
000
3ff
3ff
3ff
3ff
3ff
000
000
3ff
3ff
000
000
3ff
3ff
3fe
3fb
3fb
3fc
3fe
3ff
3ff
3ff
3fd
3fb
3fc
3fd
3ff
3ff
000
001
000
001
000
000
000
3ff
000
3ff
000
000
000
3ff
000
000
3fc
3fa
3fa
3fc
3fd
3fc
3fb
3fb
3fe
3ff
002
002
002
002
000
000
001
001
3ff
000
000
000
3ff
000
3ff
001
002
004
001
3fc
3fa
3f9
3f9
3fb
3fd
3ff
3ff
000
002
001
002
001
002
001
002
001
000
3ff
000
000
3ff
000
000
002
003
004
003
002
001
3ff
3fe
000
002
001
001
001
000
001
001
000
001
002
001
000
000
000
3ff
000
3ff
000
3ff
000
002
003
003
004
004
003
005
003
002
3ff
3ff
002
001
001
002
002
001
003
002
000
3ff
000
3ff
3ff
000
3ff
000
001
000
001
003
004
003
002
001
002
001
001
001
000
001
001
002
002
003
003
001
000
3ff
3ff
3ff
000
3ff
000
3ff
000
000
3ff
000
002
002
000
002
003
004
002
000
000
001
001
001
002
002
002
001
000
000
000
000
3ff
000
000
000
3ff
000
3ff
3ff
001
001
001
002
002
001
002
002
001
001
3ff
000
001
000
001
3ff
000
000
3ff
000
000
000
3ff
000
3ff
3ff
000
000
000
002
002
002
001
001
003
002
001
001
001
001
000
000
000
000
3ff
000
000
3ff
000
000
000
3ff
000
000
3ff
000
3ff
001
000
001
001
002
000
001
000
001
3ff
000
3ff
000
000
3ff
000
000
3ff
000
000
000
3ff
000
3ff
000
000
3ff
3ff
000
3ff
000
000
000
3ff
000
000
3ff
3ff
3ff
000
000
3ff
000
000
000
3ff
3ff
000
000
000
000
3ff
000
3ff
3ff
000
3ff
3ff
000
000
3ff
000
000
3ff
3ff
3ff
3ff
000
3ff
000
3ff
000
000
3ff
000
