000
000
000
000
001
000
000
000
001
001
000
000
000
000
001
000
000
000
000
000
000
001
000
001
000
000
000
000
001
000
000
001
000
000
001
000
000
000
000
000
001
000
001
000
000
001
001
000
000
000
000
001
001
000
000
000
001
001
001
000
001
000
000
000
000
000
000
000
000
000
000
001
000
000
000
001
001
001
000
001
000
000
000
001
000
000
001
000
000
000
000
000
000
000
000
000
000
000
000
000
3ff
3ff
000
000
000
000
000
000
000
001
000
000
001
000
000
000
000
000
000
000
000
000
3ff
3ff
3ff
3ff
3fe
3fd
3fe
3ff
3ff
000
3ff
000
000
000
001
000
001
001
001
000
001
000
000
000
000
000
000
3ff
3fe
3fd
3fc
3fc
3fa
3fa
3fa
3fb
3fc
3fd
3fe
3ff
3ff
000
001
000
000
000
001
001
000
000
001
001
001
002
002
002
002
000
3fe
3fd
3fc
3fe
3ff
3ff
3fe
3fe
3fd
3ff
3fe
3ff
3ff
000
000
000
000
001
001
001
002
002
002
003
005
004
003
003
003
001
000
001
003
003
002
002
000
3ff
000
3ff
3ff
000
000
000
000
001
000
001
002
002
003
005
004
002
003
004
004
002
001
002
003
004
003
003
002
000
001
001
3ff
000
000
001
000
001
001
002
002
003
001
001
001
001
002
003
004
003
004
005
005
006
004
004
003
003
001
000
3ff
000
000
000
000
001
001
002
002
002
000
001
3ff
000
001
003
002
004
005
007
008
006
004
005
004
003
002
3ff
3ff
000
000
000
001
000
001
002
003
001
000
000
000
002
001
001
002
002
002
005
007
004
004
003
003
002
002
3ff
3fe
000
000
001
001
000
000
001
002
000
000
001
001
000
3ff
3fd
3f9
3f6
3f8
000
004
004
002
001
000
3ff
3ff
3ff
3ff
001
000
000
001
000
001
001
000
000
000
000
000
3ff
3fd
3f9
3f4
3f2
3f9
3ff
002
001
000
001
3ff
3fe
000
000
000
000
000
000
000
000
001
001
001
001
000
3ff
3fe
3fc
3fb
3f8
3f5
3f7
3fd
000
001
001
004
004
003
002
002
001
001
000
000
000
000
001
000
001
001
3ff
3ff
3ff
3fc
3fb
3fa
3f9
3f8
3fa
3fd
000
000
006
007
005
005
004
003
001
000
000
000
001
000
001
000
001
001
3ff
3ff
000
3fd
3fc
3fa
3f9
3fc
3fe
3fd
002
002
005
004
004
003
003
001
3ff
3ff
000
000
001
000
000
000
000
000
000
3fe
3fd
3fc
3fd
3fc
3fd
3ff
001
000
001
000
001
001
001
000
3ff
3ff
3ff
3ff
000
000
000
000
000
000
000
3ff
3fe
3fd
3fc
3fc
3fc
3fb
3fe
000
000
001
3ff
3fe
3ff
3fe
3ff
3fe
3fd
3fd
3fe
3ff
000
000
000
001
001
001
000
3ff
3fd
3fc
3fb
3fb
3fb
3fd
3fe
3ff
001
002
3fe
3fe
3fe
3fc
3fc
3fb
3fc
3fd
3fe
3ff
000
001
000
000
000
000
000
3ff
3fe
3fc
3fb
3fc
3fc
3fd
3fd
000
000
001
3fd
3fd
3fc
3fa
3fc
3fb
3fc
3fd
3ff
3ff
001
001
000
001
001
000
3ff
000
3fe
3fe
3fd
3fd
3fe
3fe
3fe
3ff
000
3ff
3fe
3fe
3fc
3fc
3fc
3fc
3fc
3fe
3fe
000
000
001
000
000
000
000
000
000
000
3ff
000
001
3ff
3fe
3fd
3fd
3ff
000
000
3fe
3fe
3fd
3fd
3fc
3fd
3fe
3ff
000
000
000
000
000
001
000
000
001
001
002
003
001
000
3ff
3fe
3fe
000
001
001
000
3ff
3fe
3fd
3fd
3fe
3fe
3ff
3ff
000
000
000
000
000
000
000
001
002
003
004
003
002
004
002
002
003
002
002
001
001
000
3ff
3ff
3ff
3ff
3ff
000
000
000
000
000
000
001
001
000
001
002
003
004
004
005
004
004
003
003
003
003
003
002
001
3ff
000
000
000
000
000
001
001
000
000
001
000
000
001
000
001
001
000
001
001
000
001
002
003
002
003
002
001
000
000
000
000
000
000
000
000
000
000
000
000
001
000
000
000
001
001
000
001
000
001
001
000
001
000
000
001
000
000
001
000
000
000
000
000
