001
000
000
000
000
001
000
000
001
000
000
000
001
000
000
000
000
000
001
000
000
000
000
000
001
000
000
000
001
000
000
000
000
000
000
001
000
001
000
000
000
000
000
000
000
000
000
000
001
000
000
000
000
001
000
000
001
001
000
000
001
000
000
000
001
000
000
000
000
001
000
001
000
000
000
000
001
000
000
001
000
000
000
000
001
000
000
000
000
000
001
000
000
001
000
001
000
3ff
000
3ff
000
000
000
000
000
000
001
000
000
001
000
000
000
000
000
000
000
000
000
000
000
000
3ff
3ff
3ff
3fe
3fd
3fc
3fd
3fd
3fe
3ff
000
000
000
001
000
000
000
000
001
000
000
000
000
000
000
000
3ff
3ff
3fe
3fe
3fe
3fd
3fc
3fb
3fa
3fc
3fd
3ff
3ff
3fe
3fe
3ff
000
000
000
000
001
001
000
001
000
3fe
3fe
3fe
3fe
3fd
3fe
3ff
000
003
004
003
002
002
002
000
3ff
3fe
3fd
3fd
3fe
3ff
000
000
001
000
000
000
3fe
3fd
3fd
3fc
3fd
3ff
000
001
004
004
006
006
006
003
002
000
001
001
3fe
3fc
3fe
3ff
3ff
001
001
001
000
000
3fe
3fd
3fd
3fc
3ff
3ff
3ff
3ff
000
002
005
003
003
001
000
000
3ff
000
3ff
3fd
3fd
3ff
3ff
001
000
000
000
3ff
3fd
3fe
3ff
3ff
3ff
000
001
001
000
002
004
003
000
3ff
000
3fe
3ff
3fe
3fe
3fe
3fe
3ff
000
001
000
000
000
000
3fe
3ff
001
001
003
003
002
004
002
000
000
3fe
3ff
000
001
000
001
3ff
3ff
3ff
3fe
000
3ff
000
000
000
000
000
3ff
002
005
003
005
002
002
004
3ff
3ff
3ff
000
001
005
002
002
004
003
002
000
000
3ff
000
000
000
001
000
3ff
002
004
005
003
004
005
003
000
3fd
003
005
004
004
006
006
006
006
004
002
000
3ff
000
000
000
001
000
3ff
000
003
004
004
002
003
002
002
3ff
3fe
004
005
004
005
004
006
006
004
003
000
3fe
3ff
000
000
000
000
000
001
000
001
001
003
002
001
000
000
000
3ff
001
001
003
004
004
003
002
002
000
3fe
3fd
3ff
000
000
000
001
001
000
000
000
001
001
001
001
3fe
3ff
3ff
3ff
3ff
3ff
004
006
005
003
000
3ff
3fd
3fc
3fd
3ff
000
000
000
001
000
000
000
000
000
3ff
001
002
3ff
001
002
000
3fe
000
002
004
004
001
3fe
3fc
3fb
3fd
3fd
3fe
000
000
000
000
000
3ff
3ff
3ff
3fe
3ff
001
001
001
002
003
002
001
001
003
001
3ff
3ff
3fd
3fd
3fd
3fd
3fe
3fe
000
000
000
001
000
000
000
3ff
3fd
3fd
3fd
3ff
000
003
003
3fe
3fe
000
002
3ff
3ff
3fd
3fe
3fe
3fe
3fd
3fd
3fe
000
000
001
000
001
000
3ff
3ff
3fe
3fd
3fd
3fd
3fd
3fc
3fd
3fc
3fd
3fe
3fd
3fe
3ff
3fe
3ff
3ff
3ff
3ff
3ff
3ff
000
000
000
000
000
000
000
3ff
3fe
3fd
3fb
3fb
3fa
3f8
3fa
3fa
3fe
3fd
3ff
3fe
000
3fd
3ff
3ff
3fe
000
3ff
000
001
000
000
000
000
001
3ff
3ff
3fe
3fd
3fc
3fb
3fb
3fb
3fb
3fd
3fd
3fd
3fe
3fe
3fd
3fc
3fe
3ff
000
000
000
000
000
000
000
001
000
000
000
000
3fe
3fe
3fd
3fd
3fd
3fd
3fe
3fe
3fd
3fe
3fd
3fc
3fc
3fd
3fd
3ff
001
001
001
001
000
000
000
001
000
000
000
000
3ff
3fe
3fe
000
3ff
3ff
3fe
3fe
3fd
3fe
3fc
3fc
3fd
3fe
000
001
002
003
002
001
000
001
000
000
000
000
001
000
001
001
001
001
001
000
3ff
000
3fe
3fe
3fd
3ff
001
001
002
003
004
002
001
001
000
000
000
000
001
001
000
000
001
001
003
003
003
002
001
003
002
002
002
004
004
005
005
005
004
001
001
000
000
000
000
000
001
000
000
001
001
001
002
002
003
003
004
004
004
005
003
002
002
003
003
002
001
001
000
000
000
000
000
000
000
000
001
000
000
000
001
001
000
000
000
000
000
000
000
000
000
001
001
000
000
000
001
000
000
000
000
