001
000
001
000
001
001
001
000
001
000
001
001
001
001
001
001
001
000
001
001
001
001
001
001
000
001
001
001
000
001
000
001
001
000
000
001
001
001
001
001
001
001
001
001
001
001
001
000
001
001
000
001
001
001
001
001
001
001
001
000
000
001
001
001
000
001
000
000
000
000
001
001
001
000
001
000
001
000
001
001
001
000
001
001
000
000
001
001
001
001
000
001
000
000
000
3ff
000
000
000
001
000
000
000
3ff
000
000
001
001
000
001
000
001
001
001
001
001
000
000
001
001
000
3ff
000
000
001
001
001
002
001
3ff
3ff
000
001
002
002
002
001
000
000
000
000
001
000
001
000
001
000
000
3fe
3fe
3ff
000
001
001
002
001
001
3ff
000
000
001
002
003
002
002
000
000
000
000
001
000
001
000
000
3ff
3ff
3fd
3fd
3fe
000
3ff
3ff
000
3fe
3fd
3fd
3ff
3ff
001
002
002
002
000
000
000
001
000
000
000
000
001
000
3ff
3fe
3fc
3fb
3fd
3ff
3ff
3fe
3fe
3fc
3fd
3fd
3fd
000
001
000
000
3ff
3ff
3ff
000
001
001
000
000
001
000
000
3ff
3fe
3fc
3fb
3fb
3fe
3ff
3ff
3ff
000
3fe
3ff
000
000
3ff
3ff
3fe
3fd
3fe
3ff
001
001
001
000
000
000
000
000
3fe
3fe
3fd
3fb
3fc
3fe
3ff
001
003
004
002
000
3ff
3fd
3fc
3fc
3fc
3fc
3fe
000
001
001
001
001
001
000
001
3ff
3fe
3ff
3fe
3fe
3fe
3ff
3ff
002
008
008
004
000
3fe
3fd
3fd
3fd
3fd
3fe
3ff
000
001
000
000
000
001
001
000
000
000
3ff
3ff
3ff
3fe
3fd
000
004
009
00a
004
3ff
3ff
3fe
3fe
3fe
3fe
3ff
000
001
001
001
000
001
001
000
001
000
000
000
3ff
3fe
3fc
3fb
000
004
00b
008
001
001
000
3fe
3ff
3ff
000
000
000
001
000
001
000
001
001
001
001
000
000
3ff
3ff
3fd
3fa
3f9
000
003
009
005
001
001
3fe
3fd
3ff
000
000
000
001
001
001
001
001
001
001
001
001
000
000
000
3fe
3fd
3fa
3fb
000
003
008
005
001
3fd
3fc
3fd
3fe
000
3ff
000
001
000
000
001
001
000
001
001
000
001
3ff
3ff
3ff
3fc
3fc
3ff
002
005
008
003
001
3fb
3fb
3fd
3fe
3ff
000
000
000
001
001
000
001
001
001
001
000
000
3ff
3ff
3fd
3fe
3ff
3ff
000
006
008
000
3fe
3fa
3fb
3fd
3fe
3ff
3ff
000
000
000
000
001
000
001
000
001
001
3ff
3fe
3fd
3fe
3ff
001
000
002
007
006
3ff
3fc
3fa
3fb
3fd
3ff
3ff
000
3ff
3ff
000
001
001
001
001
000
001
001
3ff
3fd
3fd
3ff
001
001
001
003
006
004
3fd
3fc
3fc
3fd
3fe
3ff
3fe
3ff
3ff
3ff
001
001
001
001
001
001
001
000
3ff
3fd
3fe
3ff
001
000
000
000
003
001
3fe
3fe
3fe
3fe
3ff
3fe
3fe
3ff
3ff
000
000
000
000
000
001
001
000
000
3ff
000
3ff
000
000
3ff
000
3ff
000
000
000
001
000
000
3fe
3fe
3fe
3fe
000
000
001
000
001
001
000
001
001
001
002
001
001
000
3ff
000
3ff
3fe
3fd
000
001
001
001
001
3fe
3fe
3fe
3ff
3ff
000
001
000
000
001
001
001
000
002
004
004
002
000
000
3ff
3fd
3fa
3fc
000
001
003
005
002
000
3ff
3ff
000
000
000
001
001
001
001
001
001
000
001
003
003
001
000
3ff
3ff
3fe
3ff
3ff
3fe
001
004
005
002
000
3ff
3ff
000
000
000
000
000
000
000
000
000
000
001
001
001
000
3fe
3fe
3fc
3fd
3fd
3fd
3fd
3fd
3ff
000
001
001
001
000
000
001
000
000
001
000
001
000
000
001
001
001
000
3ff
000
000
3fe
3fe
3fe
3fe
3fe
3fe
3ff
000
000
001
000
001
000
001
000
000
000
000
000
001
001
000
001
001
001
001
001
001
000
001
001
000
000
000
001
001
001
000
001
001
001
000
000
001
001
001
001
001
000
001
001
001
001
001
001
001
001
001
000
000
001
001
001
000
001
000
000
000
001
001
001
001
001
000
