000
000
001
001
000
000
001
000
000
000
000
001
001
001
001
000
001
001
000
001
000
000
001
000
001
000
001
000
000
000
000
000
000
001
000
000
001
000
000
000
000
000
000
001
001
000
000
000
001
000
000
000
001
001
000
001
001
001
001
001
001
001
001
000
000
000
000
3ff
3fe
3ff
3ff
3ff
3ff
000
000
001
001
001
001
000
000
001
000
000
001
001
000
000
000
000
001
3ff
3ff
000
3fe
3fe
3fd
3fd
3fd
3fc
3fd
3ff
000
000
001
001
000
000
001
001
000
001
001
001
001
001
000
001
3ff
000
3ff
3ff
3fd
3fd
3fc
3fd
3fc
3fc
3fe
3fe
3ff
001
001
001
001
002
000
001
000
000
001
000
001
000
001
000
000
3ff
000
3ff
3fe
3fe
3fd
3fd
3fe
3fe
000
000
000
001
001
001
003
003
002
000
000
000
001
001
000
001
001
001
001
000
000
3ff
3fe
3fd
3fb
3fa
3fa
3fb
3fb
3fd
3fd
3ff
3ff
000
004
004
002
001
001
000
000
000
000
001
000
001
000
000
3ff
3ff
3fd
3fb
3fa
3fc
3fa
3fa
3fa
3fc
3fc
3fd
3fd
3ff
003
003
002
001
001
001
001
001
001
000
000
000
000
000
3fe
3ff
3fe
3fd
3fb
3fd
3f9
3f9
3fb
3fd
3fd
3ff
3fe
3fe
001
002
001
000
000
001
001
001
001
000
3ff
000
3ff
3ff
3ff
000
3ff
3ff
3ff
3fd
3f7
3f9
3fe
3ff
000
000
3ff
3ff
000
000
3ff
3ff
3ff
001
001
000
000
000
000
3ff
3fe
3ff
000
003
002
001
001
3fc
3f6
3fd
000
000
000
000
3fe
3ff
000
3fe
3ff
3ff
001
001
001
001
001
000
000
3ff
3ff
001
002
003
005
003
003
3fa
3f8
001
004
001
000
3ff
3fe
3fe
3ff
3fe
3fe
000
000
000
001
001
000
000
000
3ff
002
003
005
004
007
008
008
000
3fc
003
005
001
000
001
000
000
000
3ff
3ff
000
001
001
000
001
000
000
001
002
005
006
007
005
006
00a
008
000
3ff
004
004
004
003
001
003
002
001
3ff
3ff
000
001
001
000
001
000
001
002
004
006
007
005
005
006
007
005
000
3ff
001
004
007
005
004
002
002
001
000
000
000
001
000
001
001
001
001
002
002
003
003
005
004
003
002
003
001
002
003
006
005
004
002
3ff
001
002
000
3ff
000
000
000
000
000
000
000
001
001
002
004
005
004
001
000
001
001
005
007
007
006
004
000
002
002
001
000
000
000
000
000
000
000
001
000
3ff
3ff
001
003
006
005
002
001
002
005
008
006
005
002
000
3fe
001
000
3ff
000
3ff
000
001
001
000
001
001
000
3ff
3ff
3fe
000
001
000
3ff
3ff
002
002
004
003
002
3fe
3fe
3fd
3fe
3fe
3fd
3fe
3ff
000
000
000
000
001
000
000
3fe
3fe
3fd
3fc
3fc
3fb
3fb
3fb
3fb
3fd
3ff
001
3fe
3fe
3fe
3fd
3fd
3fd
3fd
3fe
3ff
000
001
001
001
001
000
000
3ff
3fe
3fd
3fb
3fa
3fa
3f9
3fb
3fc
3fc
3fd
3ff
000
000
3ff
3fe
3fe
3fe
3fe
3ff
3ff
000
000
001
000
000
000
000
000
3ff
3fd
3fc
3fc
3fc
3fc
3fd
3fe
3fe
3fd
3ff
3fe
000
000
000
000
3fe
3ff
000
000
000
001
001
001
001
000
001
000
3ff
3ff
3fe
3fd
3fe
3fe
3ff
3ff
3ff
3ff
3ff
3ff
000
001
002
002
001
3ff
3ff
000
000
000
000
000
000
000
001
000
000
3ff
3ff
3ff
000
3ff
000
3ff
3ff
3ff
000
000
001
002
002
002
001
000
000
001
001
000
001
001
001
000
001
000
001
000
3ff
3ff
000
3ff
000
3ff
3ff
3ff
3fe
3ff
000
000
001
001
000
000
000
001
000
000
001
001
001
001
000
001
000
3ff
3ff
3fe
3fe
3fd
3fd
3fd
3fd
3fe
3fd
3fd
3fc
3fd
3fe
3fe
3ff
000
001
000
001
000
000
000
001
000
000
000
000
000
000
000
3ff
3fe
3fe
3fe
3fd
3fd
3fd
3fd
3fd
3fe
3ff
000
001
001
000
000
000
001
000
001
000
000
001
000
001
000
001
000
000
000
000
000
000
000
001
000
000
000
000
000
000
000
001
001
001
001
000
