00000C
000010
000079
00002E
0000C6
FFFFA8
FFFFC5
000040
000098
000095
FFFFAB
000027
00002A
FFFFE9
00009F
00002A
000003
FFFFFA
000010
000037
000066
0000C1
FFFFCC
00008E
FFFFEC
000066
FFFFF7
FFFFFF
0000B6
FFFFD8
000029
0000B3
000045
000006
0000B2
000038
000011
FFFFE1
FFFFE8
FFFFA2
000099
FFFFF4
0000B8
FFFFCF
00004F
00008A
00009B
00007C
000004
00007A
FFFFFC
0000C2
000095
FFFFC9
FFFFCB
00004F
0000AC
0000AA
000086
FFFFE7
00009B
FFFFB6
FFFFC3
000079
000066
FFFFC3
FFFFF2
00004B
FFFFEA
FFFFD8
00002F
00009C
00007E
000017
00003D
0000B0
000096
0000AD
FFFFA8
000087
000033
000077
000066
000098
FFFFF2
00000A
00009E
FFFFE7
000011
FFFFF5
FFFFC5
000066
000000
000067
FFFFAB
000014
000052
FFFF8D
00005E
FFFFB2
FFFF58
FFFF76
FFFF8A
FFFFB0
FFFFEC
FFFFB7
00003F
FFFFF7
00004C
0000C3
FFFFBF
000050
0000BD
FFFFBB
000069
FFFFAF
00002C
FFFFDB
000008
FFFFB2
00003A
FFFFE4
FFFF46
FFFE9A
FFFE88
FFFE99
FFFE55
FFFD41
FFFE61
FFFEC7
FFFEF0
FFFFB6
FFFF35
00005E
00000E
FFFF9D
0000B3
FFFFF9
0000AF
0000AA
0000A1
000006
00009B
FFFFD5
FFFF86
FFFFEB
FFFFA2
FFFFDD
FFFF91
FFFEFF
FFFD8A
FFFCFB
FFFC33
FFFB8C
FFFA72
FFFA7C
FFFA38
FFFAE6
FFFBAD
FFFCB6
FFFDAA
FFFF2A
FFFEB6
FFFFD6
000090
000073
FFFFE2
000006
000086
0000B7
00000C
00001D
0000C6
0000EC
000114
0001A0
00026A
0001EF
00020E
00005E
FFFE59
FFFC89
FFFC62
FFFE1F
FFFEDC
FFFEA5
FFFE5B
FFFE19
FFFD20
FFFEEB
FFFDFC
FFFE88
FFFF04
FFFFAB
FFFFA8
000014
00007A
0000B9
000098
000168
0001B4
000188
000238
000365
0004A6
0003AF
00028A
0002CC
0002FB
000092
00006C
000111
000325
00037F
00025F
0001E6
000076
FFFF79
00003F
FFFF6E
FFFF78
FFFFF8
000060
FFFFDB
FFFFA2
0000C1
00004A
000130
000267
00022B
0002E7
000536
000382
00026A
000313
00041E
0003EA
0001F8
000126
000199
0002C6
000444
0002EC
000281
000200
00000B
000136
000107
FFFF44
FFFFA6
000067
00009F
000052
00009A
0000CF
0001B6
00025B
0002AD
0000FB
00014E
00017B
0000FA
000266
0002F0
0003BF
00030C
00045E
000560
0004F4
000587
00039C
0003AD
000317
000294
000138
FFFF8E
FFFF3F
FFFFA1
000053
FFFFD5
00001F
0000A8
0000BA
000221
000270
000207
00005F
00009C
FFFF2D
FFFFF8
00017D
00029E
0001D2
00043E
000575
0006B4
0007A2
0005A8
000474
0004A2
000411
000375
000187
FFFF60
FFFEF7
FFFF94
000014
FFFFD7
000094
000068
0000BC
00022E
0002A0
00014D
000079
00006C
00001F
000193
0000D0
000106
0001B2
0001AE
0001BF
000521
0006A9
000470
00047C
000372
000359
00021B
000185
FFFF78
FFFE75
FFFFF4
000025
0000AC
000084
FFFFF6
00005D
00015F
00018A
000040
000058
000177
000101
FFFFF1
FFFECC
FFFCCE
FFF93E
FFF58B
FFF82C
00002B
00046B
000402
000193
000091
00001B
FFFF6C
FFFF79
FFFF0E
FFFF51
0000A3
000072
000001
00008E
000054
00009A
00013F
000076
000032
FFFF97
000044
FFFFCF
FFFEF9
FFFCA5
FFF8EE
FFF397
FFF223
FFF895
FFFF07
000241
000174
000050
0000A9
FFFEA4
FFFE42
FFFF97
000020
FFFFAB
FFFFBC
00005A
FFFFA8
FFFFD9
00004C
00011D
000163
0000E1
000105
FFFFA9
FFFF49
FFFE6D
FFFC50
FFFA95
FFF79F
FFF542
FFF6F0
FFFCAD
000013
0000B0
00016E
00041A
000469
0002A7
0001B2
0001B4
00017A
000080
000026
FFFFC3
FFFFC9
00005C
000087
000031
000086
000086
FFFE83
FFFF56
FFFF14
FFFC0B
FFFB33
FFF99E
FFF8B0
FFF809
FFFA21
FFFC92
00001A
00005F
000595
000689
000563
0004C8
00041D
0002A8
000133
FFFFF3
FFFFAB
000016
000092
00005B
0000B5
FFFFF1
0000BE
000095
FFFF55
FFFF0F
FFFFDD
FFFCD1
FFFC68
FFFA36
FFF91F
FFFBB0
FFFD96
FFFC80
0001CC
00022D
0004B9
00040C
00043D
00035F
000291
000081
FFFEF1
FFFF58
FFFFA0
000066
0000B2
000005
000017
00006D
FFFFF8
000024
FFFF93
FFFDDA
FFFD2C
FFFC73
FFFD12
FFFC1E
FFFD1E
FFFF14
0000B7
000068
0000B7
FFFF93
000122
000103
0000B8
000061
FFFF69
FFFEB1
FFFF69
FFFF7D
FFFF99
FFFFC8
FFFFCE
FFFFCD
FFFFEF
00007C
000026
FFFF21
FFFDEE
FFFC95
FFFBBF
FFFC0D
FFFC4E
FFFB40
FFFE5E
FFFF81
00000E
000155
FFFE97
FFFE44
FFFF0B
FFFDD1
FFFEA9
FFFDC1
FFFC8C
FFFD79
FFFE68
FFFEBF
000021
FFFFDC
000007
0000AD
0000B9
0000A9
000054
FFFF69
FFFD50
FFFBB2
FFFB62
FFFB42
FFFB3B
FFFCC5
FFFDAC
FFFE9C
00009A
0001E3
FFFE07
FFFE13
FFFD92
FFFC23
FFFC57
FFFB7E
FFFBD7
FFFCD5
FFFDD1
FFFEE4
FFFF96
0000B1
FFFFAF
FFFFA3
FFFFD6
000048
FFFFE2
FFFF52
FFFDED
FFFBAA
FFFB7A
FFFBBC
FFFBD5
FFFD18
FFFD01
000037
00004C
000100
FFFD5B
FFFCB2
FFFBAF
FFFA0B
FFFC35
FFFAC7
FFFC04
FFFD1E
FFFEC6
FFFF2E
00009E
000096
000066
00008E
000095
000021
FFFF3C
FFFF9D
FFFE26
FFFDD5
FFFCE0
FFFD2F
FFFE53
FFFD9E
FFFE0F
FFFF21
00001E
FFFF7A
FFFE37
FFFDF3
FFFBBE
FFFBC2
FFFBC0
FFFB86
FFFC36
FFFDC6
FFFE51
FFFFED
000042
00008F
FFFFE0
000030
00000B
000026
FFFF87
FFFFC9
000046
FFFF52
000056
000089
FFFF25
FFFE5F
FFFD38
FFFD67
FFFEF3
00004F
00004E
FFFE62
FFFE00
FFFC97
FFFC98
FFFC29
FFFCA3
FFFE4B
FFFF6C
00005F
FFFFA3
00002D
000002
000043
000087
FFFF97
FFFFA0
0000B4
0000F1
00020C
0002BB
00014E
000042
FFFF32
FFFE24
FFFE7B
00001A
000110
0000FB
FFFF97
FFFF64
FFFDD1
FFFCF5
FFFCE3
FFFD91
FFFDFE
FFFEB1
FFFF6C
00000B
000009
FFFFC8
FFFFFE
FFFFED
000031
000074
0000FA
00023F
000367
0003D6
000342
0001AE
00039E
000223
0001DA
00029C
00019B
000251
00015F
000112
FFFFEE
FFFF00
FFFEEF
FFFEB5
FFFE8B
FFFEAC
000033
FFFFE5
FFFFA7
000065
FFFFA5
000052
000096
00008C
000051
00011F
0001A8
000290
0003F7
0003DF
000495
000443
0003CC
000302
000313
000342
0002BB
00028D
00020E
0000B4
FFFF22
00001D
FFFF92
FFFFAF
FFFFE6
000032
0000C6
000081
FFFFB9
000026
0000BB
FFFFE0
FFFFC0
0000AF
00000C
0000A0
000099
000015
0000DC
000145
00005D
000117
000256
0002E3
000247
0002EB
0001AA
0000C9
000006
00004D
FFFFEB
00002B
000008
FFFFCD
FFFFF4
FFFFE6
FFFFA3
00004B
000033
00005E
000080
00004C
000021
00000D
0000D2
000080
000026
000082
00003F
0000F3
000090
00006E
000151
000072
000065
0000EA
00001B
FFFFD8
0000BF
000068
000030
FFFFDD
FFFFB1
00007F
