0008
0004
0004
0002
0007
0007
0007
0002
0006
0002
0006
0005
0007
0009
0008
0005
0006
0002
0009
0009
0005
0007
0005
0008
0003
0009
0005
0008
0001
0008
0002
0006
0005
0002
0003
0008
0007
0006
0006
0004
0007
0008
000a
0005
0004
0008
0005
0004
0009
0008
0003
0009
000a
0005
0008
0007
0008
0006
000a
0002
0002
0006
0005
0005
0003
0005
0000
0003
0000
0002
0005
0008
0006
0000
0006
0004
0008
0003
0009
0006
0007
0001
0007
0008
0003
0003
0006
0005
0009
0005
0001
0009
1fff
1ffe
1ffe
1ffb
1ffe
0001
0004
0007
1ffc
1fff
0000
1ffa
1fff
0002
0006
0006
1fff
0008
0003
0009
0007
0004
0009
0009
0001
0002
0008
0005
0002
1ff8
0001
0003
0005
0008
000a
0014
0005
1ffc
1ffb
0003
000b
000c
000c
000e
0007
0004
0003
0003
0001
0008
0002
0006
0001
0005
0002
1ffe
1fee
1fee
1ff8
0000
0007
0008
000d
000a
0006
1ff6
1fff
0002
000a
0010
001a
0010
000d
1ffd
0004
0002
0002
0006
0001
0005
0001
1ffd
1ff6
1ff6
1fea
1fe5
1fef
1ffc
1ffc
1ff8
1ffc
1fed
1feb
1feb
1ff7
1ffa
000a
0010
000f
000d
0003
1ffd
0000
0005
0004
0002
0003
0001
0006
1fff
1ff7
1fed
1fe2
1fda
1fe6
1ff5
1ff6
1ff1
1fee
1fe3
1fe7
1fe8
1feb
1fff
0004
0003
0003
1ff8
1ff5
1ffc
0004
0004
0005
0004
0004
0008
0003
0000
1ff5
1fef
1fdd
1fda
1fdc
1fed
1ff7
1ff5
1ff7
0004
1ff0
1ffb
1fff
0002
1ff4
1ff4
1fed
1fe8
1fed
1ffb
0007
0009
000a
0002
0004
0003
1fff
1fff
1ff2
1ff3
1fe8
1fdb
1fde
1ff3
1ff6
0008
0018
0022
000d
1fff
1ffa
1fe9
1fe4
1fe4
1fdd
1fe1
1ff0
0002
0008
0006
0009
000a
0008
0001
0007
1ff8
1ff3
1ffa
1fed
1fed
1ff2
1ff7
1ffa
0013
003d
0041
001f
1fff
1fee
1fea
1fe5
1fe8
1fe9
1ff2
1ffb
1fff
0008
0003
0002
0001
0007
0007
0000
1ffe
1fff
1ff4
1ff8
1ff4
1fef
1fe6
1ffd
0020
004a
004f
001d
1ffa
1ffa
1ff1
1ff0
1ff1
1ff2
1ff9
1ffd
0007
0009
0006
0001
0009
0004
0003
0009
1ffe
1ffd
1ffc
1ff5
1ff1
1fe1
1fd5
1fff
0021
0057
003d
000c
0006
1ffc
1fee
1ff5
1ffb
1ffd
1ffc
0001
0009
0001
0006
0001
0006
0006
0006
000a
0000
0001
1ffc
1ffa
1fe8
1fcc
1fcc
0000
001c
0048
0029
000b
0005
1ff0
1fe8
1ff7
1ffd
1ffd
1fff
0004
0006
0009
0006
0004
0009
0005
0007
0008
0000
0001
1ffd
1ff0
1fe4
1fcd
1fd9
1fff
001c
003d
0027
000c
1fea
1fe2
1fe9
1ff3
1ffc
1ffc
1ffd
0007
0001
0002
0005
000a
0002
0006
0004
0002
0006
1ffa
1ffa
1ff6
1fe2
1fde
1ff7
000c
0027
0042
0017
0004
1fd7
1fdb
1fea
1ff3
1ff6
1ffe
0001
0003
0004
0009
0002
000a
0005
0009
0005
0003
1ffc
1ff7
1ff6
1fe9
1ff2
1ff5
1ffa
1ffe
0034
003e
0004
1fed
1fd3
1fdb
1fe8
1fee
1ff8
1ff8
0000
1ffd
0001
0002
0005
0004
0009
0002
0009
0007
1ffb
1fec
1feb
1ff1
1ff6
0007
0000
0011
003b
0033
1ff6
1fdd
1fd3
1fdb
1fe9
1ff7
1ffc
1ffd
1ffc
1ff9
0002
0006
0006
0006
0005
0003
0008
0004
1ff8
1feb
1feb
1ff8
0008
0007
000b
001b
002c
001f
1fec
1fdf
1fe4
1fe8
1ff0
1ff8
1ff3
1ffa
1ff7
1ffa
0005
0009
0009
0009
0007
0007
0008
0001
1ff4
1fe6
1fee
1ff9
0004
0002
0001
0004
0014
0004
1fef
1ff2
1ff4
1ff1
1ff4
1fef
1ff2
1ff7
1ff8
0000
0003
0003
0001
0001
000a
0005
0003
1ffd
1ff8
1ffe
1ffa
0000
0002
1ffa
1ffe
1ff6
1ffc
1ffd
0001
000a
0004
1ffc
1ff2
1fef
1ff0
1ff4
1ffd
0001
0008
0003
000a
0007
0004
0006
0007
0005
000f
000c
0006
0001
1ffc
0000
1ff8
1fed
1fea
1ffe
0007
000a
000c
0008
1ff2
1ff2
1ff0
1ff5
1ffa
0001
0004
0001
0001
0005
0005
0006
0001
000d
001c
001d
0012
0002
1ffe
1ff9
1fe4
1fd3
1fde
0000
0007
001a
002a
0013
0004
1ff6
1ff9
1fff
0001
0001
0004
0009
0005
0009
0005
0007
0004
000b
0018
001a
000c
0003
1ffa
1ffc
1ff0
1ff5
1ff6
1ff3
0005
001e
0024
0010
1ffd
1ff9
1ff5
1ffc
1ffd
0002
0001
0002
0001
0002
0001
0004
0001
0005
000b
000b
1ffc
1ff0
1ff0
1fe4
1fe5
1fe8
1feb
1feb
1feb
1ffa
0003
0005
0007
0006
0001
0003
0008
0002
0004
0007
0002
0009
0003
0004
0005
0007
0007
0000
1ffc
1ffe
1ffc
1ff0
1fed
1ff2
1fec
1ff4
1ff1
1ff7
1ffe
0003
0006
0001
0006
0003
0008
0002
0002
0004
0003
0003
0007
0006
0002
0006
0009
0006
0005
0008
0006
0001
0005
0005
0003
0000
0003
0006
0009
0006
0001
0006
0006
0005
0003
0002
0006
0009
0007
0007
0009
0001
0005
000a
0008
0009
0008
0009
0004
0008
0008
0001
0002
0009
0006
0006
0001
0004
0002
0002
0003
0006
0008
0009
0009
0009
0003
