0000
0001
0004
0001
0006
1ffd
1ffe
0002
0005
0005
1ffd
0001
0001
1fff
0005
0001
0000
0000
0001
0002
0003
0006
1ffe
0004
1fff
0003
0000
0000
0006
1fff
0001
0006
0002
0000
0006
0002
0001
1fff
1fff
1ffd
0005
0000
0006
1ffe
0002
0004
0005
0004
0000
0004
0000
0006
0005
1ffe
1ffe
0002
0005
0005
0004
1fff
0005
1ffe
1ffe
0004
0003
1ffe
0000
0002
1fff
1fff
0001
0005
0004
0001
0002
0006
0005
0005
1ffd
0004
0002
0004
0003
0005
0000
0000
0005
1fff
0001
0000
1ffe
0003
0000
0003
1ffd
0001
0003
1ffc
0003
1ffe
1ffb
1ffc
1ffc
1ffe
1fff
1ffe
0002
0000
0002
0006
1ffe
0003
0006
1ffe
0003
1ffd
0001
1fff
0000
1ffe
0002
1fff
1ffa
1ff5
1ff4
1ff5
1ff3
1fea
1ff3
1ff6
1ff8
1ffe
1ffa
0003
0000
1ffd
0006
0000
0005
0005
0005
0000
0005
1fff
1ffc
1fff
1ffd
1fff
1ffd
1ff8
1fec
1fe8
1fe2
1fdc
1fd4
1fd4
1fd2
1fd7
1fdd
1fe6
1fed
1ff9
1ff6
1fff
0005
0004
1fff
0000
0004
0006
0000
0001
0006
0007
0009
000d
0013
000f
0010
0003
1ff3
1fe4
1fe3
1ff1
1ff7
1ff5
1ff3
1ff1
1fe9
1ff7
1ff0
1ff4
1ff8
1ffd
1ffd
0001
0004
0006
0005
000b
000e
000c
0012
001b
0025
001d
0014
0016
0018
0005
0003
0009
0019
001c
0013
000f
0004
1ffc
0002
1ffb
1ffc
0000
0003
1fff
1ffd
0006
0002
000a
0013
0011
0017
002a
001c
0013
0019
0021
001f
0010
0009
000d
0016
0022
0017
0014
0010
0000
000a
0008
1ffa
1ffd
0003
0005
0003
0005
0006
000e
0013
0015
0008
000a
000c
0008
0013
0018
001e
0018
0023
002b
0028
002c
001d
001d
0019
0015
000a
1ffc
1ffa
1ffd
0003
1fff
0001
0005
0006
0011
0014
0010
0003
0005
1ff9
0000
000c
0015
000f
0022
002c
0036
003d
002d
0024
0025
0021
001c
000c
1ffb
1ff8
1ffd
0001
1fff
0005
0003
0006
0011
0015
000a
0004
0003
0001
000d
0007
0008
000e
000d
000e
0029
0035
0024
0024
001c
001b
0011
000c
1ffc
1ff4
0000
0001
0005
0004
0000
0003
000b
000c
0002
0003
000c
0008
0000
1ff6
1fe6
1fca
1fac
1fc1
0001
0023
0020
000d
0005
0001
1ffb
1ffc
1ff8
1ffb
0005
0004
0000
0004
0003
0005
000a
0004
0002
1ffd
0002
1ffe
1ff8
1fe5
1fc7
1f9d
1f91
1fc5
1ff8
0012
000c
0003
0005
1ff5
1ff2
1ffd
0001
1ffd
1ffe
0003
1ffd
1fff
0002
0009
000b
0007
0008
1ffd
1ffa
1ff3
1fe3
1fd5
1fbd
1faa
1fb8
1fe5
0001
0006
000b
0021
0023
0015
000e
000e
000c
0004
0001
1ffe
1ffe
0003
0004
0002
0004
0004
1ff4
1ffb
1ff9
1fe0
1fda
1fcd
1fc6
1fc0
1fd1
1fe5
0001
0003
002d
0034
002b
0026
0021
0015
000a
0000
1ffd
0001
0005
0003
0006
0000
0006
0005
1ffb
1ff8
1fff
1fe7
1fe3
1fd2
1fc9
1fde
1fed
1fe4
000e
0011
0026
0020
0022
001b
0015
0004
1ff8
1ffb
1ffd
0003
0006
0000
0001
0003
0000
0001
1ffd
1fef
1fe9
1fe4
1fe9
1fe1
1fe9
1ff9
0006
0003
0006
1ffd
0009
0008
0006
0003
1ffb
1ff6
1ffb
1ffc
1ffd
1ffe
1ffe
1ffe
1fff
0004
0001
1ff9
1fef
1fe5
1fde
1fe0
1fe2
1fda
1ff3
1ffc
0000
000b
1ff5
1ff2
1ff8
1fef
1ff5
1fee
1fe4
1fec
1ff3
1ff6
0001
1fff
0000
0005
0006
0005
0003
1ffb
1feb
1fde
1fdb
1fda
1fda
1fe6
1fed
1ff5
0005
000f
1ff0
1ff1
1fed
1fe1
1fe3
1fdc
1fdf
1fe7
1fef
1ff7
1ffd
0006
1ffd
1ffd
1fff
0002
1fff
1ffb
1fef
1fdd
1fdc
1fde
1fdf
1fe9
1fe8
0002
0002
0008
1feb
1fe6
1fdd
1fd0
1fe2
1fd6
1fe0
1fe9
1ff6
1ff9
0005
0005
0003
0004
0005
0001
1ffa
1ffd
1ff1
1fef
1fe7
1fe9
1ff3
1fed
1ff0
1ff9
0001
1ffc
1ff2
1ff0
1fde
1fde
1fde
1fdc
1fe2
1fee
1ff3
1fff
0002
0004
1fff
0002
0000
0001
1ffc
1ffe
0002
1ffb
0003
0004
1ff9
1ff3
1fea
1feb
1ff8
0002
0002
1ff3
1ff0
1fe5
1fe5
1fe1
1fe5
1ff2
1ffb
0003
1ffd
0001
0000
0002
0004
1ffd
1ffd
0006
0008
0010
0016
000a
0002
1ffa
1ff1
1ff4
0001
0009
0008
1ffd
1ffb
1fef
1fe8
1fe7
1fed
1ff0
1ff6
1ffb
0000
0000
1ffe
0000
1fff
0002
0004
0008
0012
001b
001f
001a
000d
001d
0011
000f
0015
000d
0013
000b
0009
1fff
1ff8
1ff7
1ff6
1ff4
1ff5
0002
1fff
1ffd
0003
1ffd
0003
0005
0004
0003
0009
000d
0015
0020
001f
0025
0022
001e
0018
0019
001a
0016
0014
0010
0006
1ff9
0001
1ffd
1ffd
1fff
0002
0006
0004
1ffe
0001
0006
1fff
1ffe
0005
0000
0005
0005
0001
0007
000a
0003
0009
0013
0017
0012
0017
000d
0006
0000
0002
1fff
0001
0000
1ffe
0000
1fff
1ffd
0002
0002
0003
0004
0002
0001
0000
0007
0004
0001
0004
0002
0008
0005
0003
000b
0004
0003
0007
0001
1fff
0006
0003
0002
1fff
1ffe
0004
