0005
0004
1fff
0003
0003
0004
1ffe
0001
0005
1ffe
1fff
0002
0006
0004
1ffe
1fff
1fff
0002
0004
0000
0000
0000
1ffe
0001
0005
0001
1ffe
0002
0004
0003
0002
1fff
1ffe
1ffe
0000
0006
1ffe
0005
0002
0003
0002
0003
0000
1ffd
1fff
0004
0000
0001
0005
0000
0001
0000
0003
0005
0000
0001
0005
0005
0000
0004
0005
0000
1fff
0002
0005
1fff
1fff
0003
0002
0004
1ffd
0005
1ffe
1ffe
0000
1ffe
0005
1fff
1ffe
0005
0001
0001
0001
0002
0007
0000
1fff
0002
0002
1ffe
0005
0003
1fff
0005
0002
0004
0000
1ffb
0000
1ff9
1fff
1ffc
0001
0001
0002
0000
0004
1fff
1fff
0006
0002
0004
0001
0001
0000
1fff
1ffe
0004
0003
0000
1ffd
0001
1ffb
1ff8
1ff5
1fec
1fe7
1fdf
1fe7
1fe7
1fee
1ff8
1ffc
1ffd
0001
0005
0004
0003
0000
0000
0005
0003
0004
0002
0003
1ffc
1ffd
1ffc
1ff5
1ff5
1ff4
1ff0
1fec
1fe9
1fdc
1fd9
1fcf
1fe0
1fec
1ff6
1ff6
1ff2
1ff3
1ff7
1ffc
1ffe
0001
0003
0004
0004
1ffd
0004
0003
1ff4
1ff1
1fef
1fec
1fe8
1fee
1ffa
0001
0016
0020
001a
0012
000f
0013
1ffd
1ffb
1ff2
1fe6
1fe8
1ff2
1ff9
1fff
0002
0006
0000
1ffe
1ffe
1ff2
1feb
1fe7
1fe3
1fe4
1ff6
1fff
0008
001d
0023
0030
0030
0032
0017
0011
0002
0004
0005
1fef
1fe1
1fee
1ffb
1ffb
0004
0006
0006
0003
1ffe
1ff2
1fea
1fe7
1fdd
1ff7
1ffc
1ffb
1ff6
1fff
000e
0029
0017
0017
0005
0002
0001
1ff8
0004
1ff6
1fe7
1feb
1ff6
1ffc
0006
0002
0001
0000
1ff6
1fea
1fef
1ffb
1ff6
1ffa
1ffd
000b
0006
0002
0011
001c
0019
1fff
1ff9
0000
1ff1
1ffa
1ff0
1fef
1fee
1ff4
1ffb
1ffc
0005
0001
0000
1ffe
1ffc
1fef
1ff7
0008
000b
0016
0016
0013
001d
000f
0003
0004
1ff1
1ff7
1ffe
000a
0000
0008
1ffb
1ff6
1ff7
1ff4
1ffd
1ffb
0003
1fff
0001
1ffd
1ffe
1ffb
0010
0025
001b
002b
0011
0012
001f
1ff6
1ff8
1ffb
0002
000c
002a
0014
0014
0021
0018
000e
0003
1ffe
1ffa
0000
0000
0003
0005
1ffc
1ffa
000d
0023
0028
0018
001e
0025
0017
0000
1fe9
0014
002c
0023
001e
002d
002e
002f
0031
0021
0010
0000
1ff9
0001
0003
0003
0006
0004
1ffb
0002
0014
001f
001d
0013
0018
000f
000e
1ff9
1ff4
0020
002c
0020
0025
0021
002d
002e
0024
0015
0001
1ff2
1ff8
1ffd
0003
0003
0001
0001
0004
0003
0009
0009
0018
0011
0008
0000
0003
1fff
1ff7
000a
0006
001c
001e
001e
0014
000d
0010
0000
1ff0
1fe8
1ff6
0002
0001
0001
0005
0004
0003
1ffd
0001
000b
000a
0007
0007
1ff3
1ffa
1ffa
1ff7
1ff9
1ff8
001f
002d
002b
0015
0002
1ff7
1fe7
1fe1
1fea
1ff6
0000
0003
0000
0005
0000
1ffc
1fff
0000
0003
1ff8
0006
0012
1ffc
000a
000f
1ffe
1fef
1ffd
0011
001f
001e
0008
1fef
1fe3
1fd8
1fe4
1fe9
1ff1
0000
1ffd
0003
0002
1fff
1ffc
1ffa
1ff5
1ff2
1ff5
0005
000a
000b
0011
0019
000f
0007
000a
0019
0007
1ffb
1ff5
1fe7
1fe7
1fe5
1fe7
1fed
1ff2
0001
0001
1fff
0005
0000
1ffd
1fff
1ff6
1fe9
1fe9
1fe9
1ff6
0004
001b
0016
1ff2
1ff2
0001
0010
1ff6
1ff4
1fea
1ff3
1ff4
1fed
1fec
1feb
1ff1
1ffe
0000
0004
0003
0006
0001
1ffb
1ff7
1ff0
1fe7
1fe6
1fe5
1fe5
1fe2
1fe7
1fdf
1fe9
1fed
1fea
1fed
1ffa
1ff2
1ffc
1ff6
1ff5
1ff5
1ff6
1ffa
0002
1ffe
0001
1fff
0001
0003
0000
1ff7
1ff0
1fe8
1fdb
1fd6
1fd1
1fc0
1fcf
1fd0
1ff0
1fea
1ff6
1ff4
1ffd
1feb
1ff9
1ff8
1ff3
1ffc
1ffa
0001
0005
0003
0001
0000
0000
0005
1ffa
1ffa
1ff1
1fea
1fdf
1fda
1fd6
1fd4
1fd9
1fe7
1fe7
1fe7
1ff2
1ff0
1fe9
1fe4
1ff4
1ff9
1ffc
0002
1fff
0002
0003
0000
0000
0004
0001
0001
0004
1ffd
1ff4
1fec
1fe5
1fec
1feb
1fe9
1ff1
1fef
1fe9
1fed
1fe5
1fe2
1fe3
1fe7
1fea
1ffa
0007
0004
0005
0008
0002
0002
0003
0005
0004
0001
1ffe
1ffd
1ff5
1ff4
1ff0
1fff
1ff9
1ffb
1fec
1ff0
1fec
1fef
1fe3
1fe0
1fe4
1fef
1ffe
0007
0010
0017
0013
0009
1fff
0006
1fff
0000
1ffd
1fff
0005
0004
0006
0004
0006
0009
0005
1ffd
1ff6
1fff
1ff0
1fec
1feb
1ff7
0007
000c
000c
001c
001e
0011
000a
0008
1ffe
0004
0000
0001
0005
0005
1fff
0001
0009
0007
0014
0016
0016
0013
0008
0014
0012
0011
0010
001f
0021
0024
0026
002a
001e
000c
0006
1fff
0000
0002
0001
0000
0005
0001
1ffe
0005
0008
000b
000f
0011
001a
001a
001e
0023
0023
002b
0019
0011
000e
0015
0017
0011
000c
0005
0002
0001
0002
1ffe
0001
1fff
0002
1ffe
0006
0003
0002
1fff
0006
0005
0003
1fff
1fff
0001
1fff
0001
0004
0000
0002
0007
0006
0003
0002
1ffe
0006
0004
1fff
0000
1fff
