1ffc
1fff
1fff
1ffa
1ffd
1ffc
0000
1ffc
1ffe
0001
1ffe
1ffe
1ffb
0000
1ffa
1ffb
1ff9
1ffa
1fff
1ffe
1ff9
1ffd
1ffe
1ffd
1ff9
1ffe
1ffe
1ffc
0000
1ff9
0000
1ffa
0000
1ffc
1ffe
1ffc
1ffb
1ffe
0001
1ffa
1ffc
1ffb
1ff9
1fff
1ffb
1ffa
1ffb
1ffb
1ffe
1ffa
0000
1ffa
0000
0000
1ffa
1ffd
1ffd
1fff
1ffc
1ff9
1ffa
1ffe
0000
1ffe
1ffb
1ffc
0001
1ff9
0000
1ffb
1ff9
1ffa
1ffc
1ffd
1ffc
1ffc
0002
0000
0001
1ffb
1ff9
1ffd
0000
1ffe
1fff
1ffe
1ffa
0000
1ffa
1ffc
1ff9
1ffb
1ff9
1ffb
1ff4
1ff1
1ff7
1ff8
1ff6
1ffd
1fff
1ff8
1ffb
1fff
1fff
1ffd
1ff8
1ffb
1ff6
0001
0001
1ffa
1ff9
1ffc
0001
0000
0001
1ffb
1ffb
1ff5
1fee
1fe8
1fdd
1fe9
1fe9
1fe1
1fef
0000
1ffe
0006
1ffe
1ff7
1ff5
1ffa
1ffb
1ffd
1ffc
0002
0001
1ffd
1ffd
0002
1ffb
1ffa
1ffb
1ff5
1fef
1ff0
1ff5
1ffe
0004
0004
1ffa
1ff8
1ffb
1ffe
0008
0008
0010
000a
000a
000c
0017
0013
000e
0007
0005
0002
1ffa
1ff9
0001
1ffa
1ff8
1fed
1ff7
1fff
1fff
0008
0010
000e
0002
0005
1ffe
1ff8
1ffb
1ffc
0000
0010
0009
000a
001f
0025
002a
0016
000b
0003
1ffd
1ffe
1ffd
1ff8
1fe9
1fe5
1ff0
0002
000b
0015
0014
0012
0005
1ffe
1ffa
0000
0009
0008
000a
0016
0013
0017
0020
002b
0035
0026
0006
1fff
1ffe
0001
0000
1ff5
1fdf
1fe4
1fec
0001
0010
0005
0008
0010
000a
1ff5
1fe7
1ff1
1ff7
0001
0003
0013
0014
001c
002c
003a
004d
0032
0009
1fff
1ffa
1ffc
1ff9
1ff1
1fef
1ff0
0002
1fff
000d
000c
000d
0022
0016
1ff7
1fe2
1fd5
1fd8
1fe9
1ffb
0000
0012
0027
0038
004d
0060
003f
000b
1ffc
1fff
1ffc
1ffa
1ffb
1ffb
1ffd
000b
0014
001f
0023
0021
0028
0022
001a
1ffa
1feb
1fdd
1fde
1fdd
1fd8
1fe5
1ff7
0005
001a
0033
0027
000d
1ffc
1ffa
0000
1ffb
1ffd
1ffb
1fff
0011
0015
001e
001c
0015
0017
0025
0023
0001
1fea
1fe5
1fe3
1fd9
1fca
1fb1
1fb8
1fc5
1fd5
1ff1
0002
0004
1ffd
1ffd
1ffe
1ffd
1ffb
1ffd
0009
0014
0012
000d
0007
0016
002d
002a
002b
0004
1fea
1fd7
1fdf
1fea
1fe0
1fdb
1fc3
1fba
1fc4
1fd8
1ff5
0001
0000
1ffe
1ffa
1ffa
1ffc
1fff
0005
000d
000a
000b
0009
001e
0022
0019
0018
1ffb
1fe6
1fd5
1fe9
1ff8
1ff7
1ffc
1fef
1fe1
1fd2
1fde
1ffa
1ffa
1fff
1ffe
1ffa
1ffd
1ff8
1ffd
1ffd
0000
1fff
000e
0016
001b
0005
0009
1ffe
1fed
1fea
1fe2
1fe5
1fe7
1ff4
1ff5
1ff6
1ffa
1fe7
1fef
1ff8
1ffd
1ff9
1ff9
0001
1ff9
1ffd
1ff5
1ff0
1fe9
1ff1
0005
0019
000c
000b
0009
1ff7
1fe4
1fe0
1fe3
1fe2
1feb
1fff
1ff9
1ffa
1ff9
1ff8
1ffa
0000
0001
1ffc
1ffc
1ffd
1ffe
1ff9
1ffc
1fee
1fdb
1fd5
1fe3
1ff0
1ffa
1ff7
1ffa
1fec
1fd9
1fe1
1fe9
1ff8
1ff8
0001
0006
0001
0007
0002
0001
0001
1ffc
1ffc
1ffb
0000
0000
0001
1ffb
0001
0003
1fe3
1fcc
1fcf
1fdd
1feb
1fdf
1fd6
1fd7
1fed
1ff8
000c
0013
000c
000c
0004
0000
0007
0007
1ffa
0000
0000
0001
1ffb
1ffd
1ffc
000a
000e
0020
0006
1fe1
1fd3
1fc5
1fcb
1fda
1fea
1ff5
1ffb
1fff
000f
0007
000d
0009
000d
000a
000e
0007
0001
1ffb
1ffe
0000
1ffb
1ffd
0001
0010
001b
0024
0018
000f
0005
1ff5
1ff4
0001
000f
0005
0008
0008
1ffe
0006
0006
0001
0009
0010
000c
0001
0000
0000
1ffa
0000
1ff9
1ffc
1ffa
0002
0011
0014
0019
0023
001d
001a
0026
0017
0012
1ffb
1ffb
000d
0007
000b
000e
000c
000a
0017
0012
1ffe
1ff9
1ffd
1ffb
1ffb
0000
1ff8
1ffd
0007
1ffe
0008
0017
0021
0015
0012
000a
000d
0008
0008
000a
0003
0008
0004
000d
000d
0015
001a
0006
0000
1ffa
1ffb
1ffb
1ffe
1ff9
1ffc
1ffb
0002
1ffd
1ff8
1fff
000d
0013
0003
0010
001b
0021
0011
0003
0002
0004
0009
0009
000f
000d
000e
0005
1fff
0001
1ffd
1ffe
1ffa
1ffd
1ffe
1ffe
1ffa
1ffc
1ff5
1ffb
000a
000a
000a
0012
0011
000c
000d
000c
000c
0005
1ffa
1fff
0006
0002
0008
1ffb
0001
1ffc
1ffc
0001
1fff
1ffc
1ffc
0001
1ff8
1ff8
1ffd
1fff
0000
000d
0011
000d
0008
000c
0016
0012
000b
0005
000a
0006
0000
1fff
1ffe
0000
1ffb
1ffe
0001
1ffa
1ffd
0000
0001
1ff9
0000
1ffe
1ff8
1ffd
1ff9
0004
0003
0009
0009
000f
0001
0005
0004
0008
1ffb
0000
1ff8
0001
1ffd
1ffa
1fff
0000
1ff9
1ffc
1ffe
1ffe
1ffb
1ffc
1ffc
1ffc
1fff
1ffb
1ff9
1ffc
1ffb
1fff
0000
1ffe
1ffb
1ffd
1fff
1ffb
1ff6
1ff8
1ffe
1ffe
1ffb
1fff
1ffd
1ffe
1ffc
1ff9
1ffe
1fff
1fff
1ffe
1ffa
0000
1ffc
1ffb
0001
1ffc
1ffb
1fff
1ffd
1ff9
0000
1ffe
1ff9
1ff8
1ffa
1ff8
0000
1ffc
0001
1ff9
1ffe
1ffd
1ffa
1fff
