1fff
0003
1ffd
0000
0000
0000
0002
0005
1ffd
1ffe
1ffe
1ffd
0001
0004
0002
1ffc
1fff
0005
0001
0000
1ffc
1ffe
0001
0004
0002
0003
1ffc
1ffd
0003
0002
0003
1fff
1ffc
1ffe
0002
0007
0005
0001
0006
0006
0006
0006
0004
0004
1ffc
0004
0005
0003
1fff
1ffd
0005
0004
1ffe
0005
1fff
0003
1ffd
1ffd
1ffc
0000
0002
0001
0002
0007
0005
000a
000d
000e
000e
000f
0008
0005
000c
0005
0005
0006
0006
0003
0004
0001
0002
1fff
1ffc
0001
1ffc
0000
0003
0002
0004
1ffc
0005
0005
0006
000d
000b
000e
000e
000d
0013
0012
000b
000e
0017
0017
0019
0016
0016
000d
000b
0003
1ffe
0003
0001
1fff
0000
0004
0003
0001
0001
0008
1fff
1ffe
0008
0003
0004
0001
0003
0004
000f
000f
0018
0018
001f
0022
001d
0014
0003
0005
0001
0000
0001
0002
0001
1ffe
1ffd
0000
1ffd
1ffb
0004
1ffb
0002
1fee
1ff7
1ff9
1ffe
1ff8
1ff8
0002
000b
0015
0013
0011
000d
0009
1fff
0000
1ffb
0004
1fff
0004
0004
1ffb
0002
1fff
0001
0000
1ff9
1ff8
1feb
1fe5
1ff0
1fe1
1ff2
1ff6
1ff2
1ff4
1ffd
1ff8
1ff2
1ff3
1fec
1ff3
1ff5
1ff5
1ffe
0004
0001
0002
0000
1fff
0000
1ffc
1ff8
1fff
1ff5
1ff2
1feb
1ff0
1fe3
1fdf
1fef
1ff0
1fe6
1fe8
1fe2
1fd7
1fd6
1fdd
1fdc
1fe3
1ff5
1ff6
1ffc
1ffd
1fff
1fff
0004
1ffa
1ffb
1ffa
1ff0
1ffd
1ffa
1ff0
1fed
1fea
1fe6
1fe2
1fe2
1fe0
1fda
1fd5
1fc3
1fc7
1fcd
1fce
1fdd
1fe1
1fed
1ff4
1ff7
0001
1fff
1ffd
1ffe
1ffc
0000
1ffc
1ffb
1ffd
0004
1ff6
1fed
1ff2
1ff7
1fef
1ff0
1fdd
1fd8
1fc5
1fc1
1fcd
1fd6
1fdf
1fd9
1fe7
1fed
1ff2
1ffa
0003
1ffd
0004
0003
1ffb
1ff9
0002
0005
0005
0013
0000
0004
0002
1ff5
1ff8
1fef
1fdc
1fdb
1fd5
1fd3
1fdc
1fe8
1fef
1fe9
1ffe
1ff1
1ff6
1ffd
1fff
1ffe
0002
1ffd
0000
1ffd
0001
1fff
0010
000b
0005
0007
0005
0005
0001
1ff8
1fe3
1fe5
1fe9
1fe9
1fee
1ff8
0003
000b
0011
0000
1ff7
1ffc
1fff
1ffe
1fff
1ffc
1ffe
0002
0007
000b
000f
0007
000a
0007
0012
0011
000c
1ff5
1fed
1fff
1ffe
1fed
1fee
1ffe
000a
0019
002b
0017
1ff9
1ff8
1ffe
1ffe
0004
0003
1ffc
1ffa
0002
0013
000a
0009
0004
0012
000f
000e
0002
1ffd
0000
0001
1ffc
1ff0
1ffe
1ff8
000d
0022
0036
001d
1ffe
0000
0003
1ffe
0000
0003
0000
1ffa
0007
0011
000f
0015
0013
0015
0017
0008
1ff5
0001
0009
0004
1ff9
1ff9
1fff
000f
000f
0026
002d
001d
0000
1ff8
1ffc
0003
1ffe
0001
1ffd
1ff4
1ffe
0012
0018
000f
0018
001f
0025
000a
1ffd
000e
000d
0002
1ff9
0001
0007
0011
0018
0016
001b
000e
1ff9
1ffb
1ffb
0001
1ffd
1ffc
1ffc
1ff0
1ff7
001b
001b
0012
001c
002f
002f
000e
0009
0014
000b
1ffa
1ff5
0004
000c
0006
0000
000b
0007
1ffd
1ff7
1ffb
1fff
0001
0003
0004
1fff
1fe9
1ff4
000b
0015
0018
001e
0035
0035
001c
0010
0010
000a
0000
0003
0016
0008
0003
1ffa
0005
1fff
1ffa
1ff4
1ffe
0002
1ffe
1ffe
0000
1ff9
1feb
1feb
1ff6
000f
0017
0015
0025
002d
0036
0019
0007
000e
0018
000f
0013
000a
0001
0003
0004
1ffe
1ff8
1ffa
1ffc
1ffb
0001
1ffd
0002
1ff8
1ff2
1fea
1fef
0001
000f
0018
0020
0033
0039
001d
001a
001b
0014
0010
0019
0011
000b
0002
1ffc
1ffb
1ffb
1fff
1ffe
0004
1ffe
1ffd
1fff
1ffc
1fee
1feb
1fee
1ff8
0005
0010
001a
0012
0023
0029
0031
002a
0017
000f
001c
0014
000d
1ffd
1ff6
0001
1ffd
1fff
1ffd
0001
0000
0000
0001
1fff
1ff9
1ff1
1fe7
1ff5
1ff9
000c
0016
001f
0028
0029
0022
001d
0012
0019
0017
000f
0002
1ff8
1ff5
1ffa
0000
1ffc
1fff
1ffe
1ffe
0000
0004
0001
1ffe
1ff3
1ff1
1fec
1ff2
1ffa
1ffb
0002
000c
0005
0004
000d
0009
0000
1ffd
1ff2
1ff2
1ff5
1ff5
1fff
1ffe
1ffc
0004
0002
0003
1fff
1ffe
0000
0001
1ffb
1ff8
1fee
1fe9
1fdf
1fdf
1fda
1fe8
1fed
1ff2
1feb
1fe4
1fe0
1fe7
1ff4
1ff4
1ff6
1ffc
0001
1ffc
1ffc
1ffe
0000
0002
0002
0001
1ffc
1ffd
1ffe
1ffc
1ffa
1ffb
1ff8
1ff4
1ff1
1fee
1fef
1fec
1fec
1feb
1ff0
1ffa
1ffb
1ffe
1ffd
0002
1fff
1ffc
1fff
1ffd
1ffd
0004
1ffc
0001
1ffe
1ffd
1fff
0003
0000
1ffc
0002
1ffc
1fff
0000
1ffb
1ffd
1ffe
0000
1ffc
1ffe
1ffc
1ffd
0001
1ffe
0003
0004
0004
0000
0003
0004
0000
0001
1fff
1ffe
0004
0003
1ffe
1fff
0002
1ffe
0001
1ffe
0003
0003
1ffc
1ffd
0004
0003
1fff
0003
1fff
1fff
0002
0002
1fff
1ffe
1fff
0004
0000
0002
1ffe
0001
0000
0004
0001
1fff
1ffb
1ffd
0001
1ffc
1ffd
1ffd
1ffc
1ffd
1fff
1ffc
1ffd
1ffe
1ffe
0004
1ffc
1ffe
1ffc
1ffd
0001
