1ffc
0002
1fff
1fff
0003
0000
1ffd
1ffd
1fff
1fff
0003
0000
0001
1ffc
0000
1ffa
1ffb
1fff
1ffb
0003
1ffb
1fff
1ffb
1fff
0002
1fff
0000
0000
0002
0002
0001
1ffb
1ffb
0000
1ffc
1fff
1ffd
1ffa
1ffc
0000
0003
1ffb
1ffd
0002
1ffc
1ffb
0001
0002
1ffc
0001
1ffc
1ffc
1fff
0000
1fff
0003
1ffb
1ffd
1ffd
0001
0000
1ffb
1fff
0003
1ffe
1ffc
1ffc
1ffa
1ff9
1ffe
1ff9
1ff7
1ff9
1ffe
1ffa
1ff9
1fff
0002
0000
1ffc
0003
1ffa
1fff
0001
1ffb
1fff
0003
1ffb
1ffc
0002
0001
0000
0000
1fff
1ffe
1ff9
1ff6
1ffb
1ff8
1ff7
0001
0001
1ff6
1ff8
1ff4
1ff8
1ff6
1ff9
1ffb
0002
0002
1ffd
0001
1ffb
1ffc
1ffb
1ffa
1fff
1ffe
1ffb
1ffe
1fff
1ff7
1ff7
1ff8
1ff8
1ffe
1fff
1ff9
1ffa
1ffa
1ff7
1ffc
1ff4
1ffc
1fff
1ffb
1ffe
1ffd
0000
0001
1ffd
0000
1ffb
1fff
1ffe
1ffe
1ffc
1ffe
1ffa
1ffd
0002
0008
0010
0014
0014
0016
0018
0019
0009
0002
0004
1ffe
0000
1ff5
1ff8
1fff
1ffc
1ffe
1fff
0001
1ffe
0000
0000
0001
0000
1ffb
1ff7
0005
1fff
000e
000c
000b
0011
0015
001d
001b
0017
0016
001a
000f
0005
1ff5
1ff4
1ff8
0001
0003
0000
1fff
1ff9
1ff5
1fff
1ffc
0000
1ffb
1fff
0001
000a
0014
0013
0008
000c
0011
001f
0017
0014
0008
0010
0011
0009
1ff9
1ff5
1ff6
1fff
0003
0001
1fff
0000
1ff8
1ffa
1ffb
1ffa
1ffd
1ffd
000a
000a
0005
0002
0004
000e
0029
0021
001f
000a
0008
0007
0012
0020
1ffd
1ff6
1fff
1ffa
1fff
1fff
0001
0001
1ff6
1ff9
1ff6
1ffa
1ffa
1ffd
0007
1ffa
0003
000a
0009
0008
0017
001e
0023
0014
0006
1fff
000f
0020
0009
1ff8
0000
1fff
1ffb
0002
1ffc
1ff8
1ff9
1ffa
1ffb
0001
0003
1fff
1ffb
0002
0002
1fff
1ff5
1fed
1ff5
000b
001c
001d
0019
0012
001b
0025
0012
1ff9
1ff9
1ffa
1ffc
1ffb
0002
1ffe
1ff2
1ffd
0002
000b
0008
1ffd
0003
0000
0005
1ffc
1fe2
1fc9
1fcd
1fec
1ffd
000f
0017
0016
001d
0021
0018
1ffb
0000
1ffa
1ffc
1fff
1ffe
1ffe
1ff8
0001
000b
000c
0006
1ffe
0008
0006
000b
1ff7
1fc6
1fb8
1fb9
1fd9
1ff9
1ffd
0004
000a
0026
0023
0018
0001
1ffc
1ffc
1ffa
0000
0002
1ffb
1ffe
0007
000e
0012
000e
0009
000d
000a
0007
1fdd
1fc6
1fb6
1fc3
1fe2
1ff1
1fec
1ff1
0007
0019
0027
0016
0004
0000
0002
1fff
0002
1ffc
1ffd
1ff9
0012
0018
001d
000e
0011
0019
000e
0003
1fe1
1fbc
1fb6
1fc5
1fe0
1ff2
1fef
0002
000e
0011
0028
0015
1ffc
1ffe
1ffc
0002
0001
1ffc
1fff
0000
001a
0013
001a
0012
0018
001e
0008
1fe9
1fc7
1fb3
1fb7
1fcf
1fe8
1ff7
1ff7
0007
0007
0019
001e
000f
1ffe
0000
1ffc
0001
0003
1ffa
1ffd
0004
0017
001d
0017
0010
0010
001b
1ffc
1fd4
1fb4
1fb6
1fc5
1fe0
1ff1
0000
0005
000b
0010
0017
0016
0008
0000
1ffd
1ffc
1ffe
0001
1ffb
1ff6
0001
0011
0015
0014
0006
0010
001a
1ffc
1fcc
1fb5
1fbe
1fd9
1ffb
000a
000e
000d
0011
000d
000a
000c
1fff
1ffe
0001
1ffc
1ffd
0001
1ffe
1ffc
1ffe
000b
0016
000d
0008
0016
0029
0002
1fdf
1fca
1fda
1ff5
000c
000d
000e
0007
0004
0006
000b
0007
1fff
1ffd
0000
1ffe
1ffe
1ffe
1ffe
1ff7
0004
000c
001c
0019
0014
001a
0029
001d
0006
1ff3
1ffa
1ffc
0006
1ffd
1ffb
1ffd
0007
0006
000c
1ffe
0002
1ffd
1ffa
0002
0002
0003
1ffe
1ffc
1ffd
000c
0016
0011
0014
0019
0027
0027
0014
0006
1ffc
0003
0003
1ffa
1ffc
1ffa
0003
0004
0006
0002
1ffd
1fff
1ffb
1ffd
1ffc
1ffb
1ffe
1ffc
1ffe
0003
000e
0017
0010
0011
0022
0026
0019
000a
0004
0001
1fff
1ff6
1ff8
1ffb
0004
0000
1ffb
1ff8
1ffe
1ffe
1ffc
1ffd
1ffc
0000
0000
1ffd
1ffb
0002
000a
0009
0019
0015
0017
001b
0017
001e
000d
000d
0007
1ffa
1ffb
0000
1ff9
1ff9
1ffd
1ffc
1fff
1ffe
1ffd
1ffe
1ffc
1fff
0000
1ffb
1ffa
1ffe
1fff
0007
000a
0017
001c
0022
0022
0014
0011
0009
0004
0000
1ff3
1ff0
1ff3
1ffa
1ffb
1fff
1ffe
0002
1ffd
1ffa
1ffd
1fff
1ffa
0000
1ffe
1fff
1ff9
1ff7
1ffb
1ffc
0005
0004
0009
000e
0007
1ffa
1ff7
1ff6
1ff7
1ff4
1ff4
1ff5
1ffe
1ffd
1ffb
1ffd
0000
1ffc
1ffd
0003
1ffe
0003
0003
0000
1ffa
1ffd
1ff4
1ff5
1ff2
1fee
1fec
1fed
1fea
1fec
1fed
1ff5
1ff7
1ff8
1ff7
1ff8
1ffd
0003
0001
1ffe
1ffd
1fff
0003
0002
1ffe
0000
1ffd
1ffd
1ffb
0001
1ffd
1ff6
1ff6
1ff7
1ffc
1ff7
1ff8
1ffd
1ff7
1ff9
1ffb
1ff9
1ffd
1ff8
1ff9
0003
1ffc
0001
0002
1fff
1ffb
0002
1fff
1ffd
0002
0000
0001
1ffa
0003
0003
0001
0002
1fff
1ffd
0002
1ffb
1ffe
1ffd
1fff
1ffd
1ffa
1ffb
1ff9
1ffe
0001
1ffb
1ffa
0002
