1ffa
0000
1ffd
1ffb
1ffd
1ffb
1ffe
1ffe
1ff9
1ffd
1ffa
1ffc
0001
0001
1ffa
1ffe
1ffa
1ffa
0002
0000
1ffb
1ffe
1ffc
1ff9
1ffa
1ffe
0000
1ffe
1ffd
1ffd
0002
1ffe
1ffa
1ffa
1ff9
1ffb
1ffb
1ffe
0000
1ffa
1ffc
1ffa
1ffe
1ff9
1ffe
1ffa
1ffc
1ffb
1ffe
1ffa
1ff9
1ff9
0000
1ffe
0000
1ffc
1ffd
1ff9
1ffa
0000
1ff9
1ffa
1ffd
1ffe
1fff
1ffc
0004
0003
0009
0007
0007
0003
0009
0003
0003
1ffb
0000
1ffe
1ff7
1ffd
1fff
0002
1ffd
1ffc
1ffb
1ffb
1fff
1ffb
0001
1ffa
1ffe
0000
0002
000f
0017
0017
0016
0020
0012
0008
000f
0007
1ffa
1ffe
1ff9
1ff7
1ff6
1ffb
0001
0002
1ffa
1fff
1ffb
1ffc
0002
1ff8
1ff9
1ffe
0003
0003
0009
001c
001c
0024
001e
0018
0016
000a
000d
000c
1ffc
1ffa
1ffb
1ff2
1fef
1ff0
1ffe
1ffe
1ff9
1fff
0001
1ffe
1ffb
1ff9
1ffa
1ffb
0003
000e
0013
0021
0024
0026
0023
0027
0024
0021
0024
001d
0015
1ff7
1ff7
1ff2
1ff2
1fea
1ff6
1ffb
0001
1ffc
1ffd
1ffb
0001
1ffd
1ffc
0002
000d
001a
0014
0017
001f
0013
0014
001a
0017
000d
000e
0004
0003
1ff8
1ffb
1fee
1fee
1fe7
1ff1
1ff8
0001
1fff
1ffc
0001
0001
1ffd
0000
0007
0011
0019
0015
0013
0007
0009
0001
000d
0011
0003
0002
1feb
1ff9
1ffa
1ff9
1ff8
1ffa
1fec
1ff2
1ffc
1ffb
1ff9
1ffe
0001
1ffd
0001
0004
000c
0009
000c
000c
000e
000e
0010
0009
000b
001d
0010
1ffe
1ff8
0000
0006
0000
1ffc
1ff4
1fe8
1fee
1ff8
1ffc
1ffa
1ffb
1fff
0000
0003
0006
000d
0005
0001
1ffb
0007
0006
0007
0002
1fff
0013
0015
0007
0001
1ffe
0000
1fff
0000
1ff8
1fec
1fef
1ffa
0001
1ff9
0001
1fff
1ffd
1ffc
0001
1ffd
1ff9
1fe0
1fe3
1fea
1fdf
1fdb
1fd5
1fd0
1fec
0004
0005
0001
0003
1ffc
1ffd
1ffc
1ff6
1fe9
1ff3
1fff
1fff
1ffb
1ff9
0002
1fff
1ffa
1ff4
1fe6
1fd3
1fc1
1fc3
1fb8
1fb8
1fbe
1fba
1fab
1fbf
1fe1
1ff5
1ff7
1ff7
1ffe
1ffb
1ffa
1ff1
1ff6
1ffe
1ffc
1ffa
1ffe
1ffe
1ffe
0001
1ffd
1ff3
1fd9
1fb4
1fa3
1fa9
1fae
1fb5
1fba
1fba
1fb7
1fc4
1fd8
1fe5
1fe7
1ff4
0000
0000
1ff9
1ff0
1fe8
1ffd
1ffc
0002
1ffe
1ffb
1ffd
0002
1ffb
1feb
1fcf
1fb2
1fb8
1fbd
1fd2
1fdf
1ff1
1fe8
1ff5
1fe4
1fe4
1fdf
1fe8
1ff3
1ffd
1ffc
1ff7
1fec
1fee
1ff7
0002
1ffd
0000
0001
1ffe
0000
1ffc
1ff8
1fdf
1fd6
1fde
1ff2
1ffe
0009
000b
000d
0015
0001
1ff3
1ff6
1fef
1ffd
1ff5
1ffc
1ff3
1fe9
1fef
1ffd
0008
0009
1ffb
1ffc
1ffd
1ffc
0008
0004
0002
0009
000b
0014
000e
0011
000a
0009
0014
0002
0008
0001
1ff0
1ff1
1ff7
1ff9
1ff6
1feb
1ff5
0006
000b
0006
1ffa
1ffc
1ff9
1ff8
0008
0011
001c
001c
0011
0007
000e
000d
000c
0019
0016
0005
1ffd
0000
1ff6
1ff7
1ff0
1ffa
0001
0004
0007
0018
001d
0005
1ffb
1ffc
0001
1ffd
000a
001d
0028
0025
0019
0012
0015
0021
001b
001f
000e
0007
000a
000a
1ffe
0007
1ffc
000c
000d
000a
000d
0026
0021
0007
0001
1fff
0000
1ff6
0003
001f
0035
0032
0024
0018
001b
0029
0025
003b
002b
0025
0012
000c
0017
000f
000a
001b
001c
001e
0028
0032
001d
1ffd
1ffa
1ffb
1ffb
1ff9
0000
0011
0020
0029
0023
0021
0022
0021
0023
0027
001e
0014
0009
000e
0019
000c
000c
0014
0019
0021
0023
001e
0010
0001
0000
1ffa
0000
1ffe
1ff7
000f
0013
001d
0029
0027
001a
0019
0029
0017
0008
0005
0006
0008
0000
0012
001c
0013
001b
0025
0021
0017
000b
0000
1fff
1ffe
1ffa
1fff
1ffd
0003
0008
0014
0017
0014
0019
0016
0016
0009
0004
1ffe
0001
000b
000c
001a
001b
000c
001b
0021
0026
0013
0007
0002
1fff
1ffa
1ffe
1ffb
0002
0006
0002
000e
000c
000b
0010
0010
0013
0002
1ff1
1fed
1ff5
1ff6
0008
0018
001f
001c
001b
0017
001a
000a
1fff
1ffe
1ffc
1ffe
1fff
1ffd
1ffd
1ffc
1ff9
1ff7
1ff8
1ff3
1ff9
1ffb
0006
0001
1ff6
1ff3
1fee
1fed
1ff6
0004
0018
0015
001a
0013
0007
0004
0003
1fff
1ffd
1ffe
1ffb
0000
1fff
1ffb
1ff2
1fe6
1fec
1fec
1fea
1feb
1ff0
1ff0
1ff7
1ff4
1fef
1ff0
1ff4
1ff1
1ff8
1ff9
1ff9
1ffc
1ffd
0000
0003
1ffa
1ffb
0000
1ff9
1ffc
1ffc
1ffa
1ff6
1ff3
1fed
1feb
1fec
1fee
1fe9
1ff1
1ff2
1fed
1ff0
1ff4
1ff5
1ffc
1ff6
1ffc
1ffc
0000
1ffb
1ffe
1ffb
1ff9
1ffb
1ff9
1ffc
1ffd
0000
1fff
1ffd
1fff
0000
1ffd
0000
0000
0000
0001
1ffe
1ffb
1ff8
1ffc
1ffe
1ffd
1ffb
0001
0000
1ffb
1ffc
1ff9
0000
0000
0000
1fff
1ffb
1ffa
1ffe
1ff9
0001
0001
1ffc
0000
1ffb
0001
1ff9
0000
1ffd
1ffe
1ffa
1ffe
1ffc
1ffe
1ffd
1fff
1ff9
1ffd
0000
1ff9
1ffd
1fff
1ffc
