1ffc
1ffd
1ffd
1ffe
1ffe
0001
1ff9
1ffe
1ffb
1ffc
1ffa
0001
1ffe
0000
1ffa
0000
1ffe
1ff9
0001
1ffd
1ffd
1ffc
1ffd
0001
0000
1ffc
1ffb
1ffd
1ffd
1ff9
0001
0000
1ff9
1ffa
1ff9
1ffa
0001
1ffd
1ffd
1ff9
0001
1fff
1ffb
1ffc
1fff
1ffe
1ffa
1ffe
0001
1ff9
1fff
1ffa
1fff
0002
1ffb
1ffa
1ffa
0000
1ffe
1ffd
1ffa
1ff9
1ffe
1ff9
0001
1ff9
1ff9
1fff
1ffe
1ff8
1ffe
1ffe
1ff8
1ffb
1ffb
1fff
0000
0000
1ffe
1ffd
0001
1ffb
1fff
0001
1ffb
1ffd
1ffd
1ffa
0001
1ffa
1ff9
1ffc
1ff9
1ffd
1ffb
1ff6
1ff5
1ff2
1ff5
1ff9
1ff5
1ff7
1ffa
1ffc
1ff7
0001
1ffc
0000
1ffb
1ffe
1ffe
1ff9
1ffd
1fff
1ffc
1ff9
0000
1fff
1ffd
1ffa
1ffa
1ffc
1ffd
1ffe
000a
0006
0015
0010
0007
0004
0006
1ffb
1ff9
1ffd
1ff6
1ff9
0000
0000
1ffc
1ffd
1ffd
1fff
1fff
0000
1ffa
1ffd
1ffb
1ff3
1ffb
0005
1ff5
000f
001c
0017
0018
000c
0009
0016
0001
1fff
0008
0004
1ff2
1ff5
1ff8
0006
1ffe
0001
1ffb
1ffa
1ff9
1ff9
1ff8
1ff8
1ff3
1ff3
0001
0004
1fff
0007
000b
0009
000d
0018
000c
000e
0003
0010
0006
0007
0009
0008
0007
0003
1ffd
1fff
0001
1ffb
1ffa
1ffb
1ff8
1ffd
1ff7
1fff
0009
0004
0004
1ffd
1ff5
1ff8
1ff4
0007
0009
1fff
0006
1ff9
0009
000e
0003
001e
0012
1fff
0000
1fff
1fff
0000
1fff
1ffa
1ffe
1ffd
000c
0008
0003
0016
0001
0001
000e
0013
1ff1
1ff3
000a
1ff9
0003
000a
0006
0014
000d
0017
0015
1ffe
1ffe
0002
0000
0000
1ffd
1ffc
1ffe
000d
0009
0013
001a
0016
000e
0018
0007
0007
1fe4
1fd9
1ff2
0002
0004
0008
000a
0009
0015
0015
1ffd
1ffd
0005
1ff9
1ffb
0000
1ffa
0001
0005
000f
000f
001c
0015
0018
0024
0011
0012
000f
1ffb
1fda
1fe1
1ff7
000b
000b
000b
0019
001c
0017
0000
1ffe
1ffd
1ffb
1ffa
0001
0000
1ff7
0007
0011
0021
002a
0021
002a
001d
000e
0011
002a
0033
1ffa
1fe2
1ff6
1ff6
0004
0017
001c
0025
0023
0018
0004
0002
1ffe
1ffb
1ffe
1ffc
1ffe
1ffe
0014
0011
001a
0018
001f
0005
0007
0004
0032
0033
000b
0002
1ffc
1ffc
000d
0016
0025
002b
0024
0017
0009
0004
1ffa
1ff9
1ffd
0001
1ffa
1ffb
0000
1ffd
1ffd
0003
1ffc
1ff5
0004
0013
002f
000e
0023
000e
1ff7
0001
0001
000f
000e
0008
000b
0006
0001
0001
1fff
1ffc
1ff9
1fff
1ffd
1ffa
1ff2
1fe8
1fe1
1fdb
1fe2
1ffc
0013
0012
0027
001f
0015
1ffd
0003
1ffb
1ff3
1fec
1fee
1ff0
1fed
1ff8
1fff
1ff8
0000
0001
1ffb
1ffb
1ffe
1ff9
1ff2
1fe1
1fdb
1fde
1ff8
0001
0001
001a
001f
001b
0010
1ff8
1ff9
1ffb
1fe4
1fde
1fe6
1fef
1ff0
1ff4
1ffe
1ff8
0001
1ffc
1ff9
1ffb
1ffe
1ff5
1fec
1fe0
1fed
000d
000e
0006
000d
0019
0016
0008
000d
0005
1ff6
1fea
1fe0
1fe0
1fe0
1fe6
1ff7
1ff5
1ffc
1ffc
1ff9
0002
0001
1ffb
1ff9
1ff9
1fec
1fe4
0005
001a
0020
000a
0018
0028
0018
0002
1ffa
0003
1ff4
1fdf
1ff0
1ff1
1fea
1ff0
1ff6
1ffa
1ff8
1fff
1ffc
1ffb
0000
1ff9
1ff7
1ff4
1ff3
1ff8
0008
0015
0027
001b
0025
0018
000e
1fef
1ffc
1ff7
1fe7
1ffa
1ffb
0002
1ff2
1ffe
1ff4
1ff0
1ff8
1fff
0001
1ffb
1ffe
1ffe
1ff5
1ff2
1ffa
0004
000a
000b
001a
000d
1ffe
0006
1fee
1fec
1ff8
1ffa
1ff8
0006
0002
0008
0001
0005
1ffb
1ff4
1ff9
1ffa
0001
1ffa
1fff
1ffb
1ff8
1ff0
1ffd
0003
0017
0007
1ffd
0000
1fed
0001
1fff
1fee
1ffd
1feb
1ff9
0004
0002
0007
000b
000b
1ffd
1ff9
1ff6
1ffd
1ffa
0001
1ffd
0001
1ff3
1fed
1ffe
000a
0015
0004
0009
1ffe
1ff2
1ff8
0005
0000
1ffe
1ff0
1ff9
1ffb
1fff
0000
0004
0003
1ffb
1ffa
0000
1fff
1ffc
1ffe
1ff9
1ffb
1ff8
1ff1
1fea
0003
0006
1fff
1ff9
0004
0002
001a
001c
0014
000f
1fff
1fff
0007
1ff8
1ff7
0004
1ffe
1ffa
1fff
1fff
1ffe
1ffb
1ffa
1fff
1ffd
1ff9
1ff0
1fdb
1fe3
1ff1
0005
0005
000b
000e
001f
002d
0026
001f
0019
0012
000e
0012
000d
0003
1ffe
1ffc
1ff8
1fff
1ff9
1fff
1fff
1fff
0001
1ffa
1ffa
1fe8
1fde
1fe3
1ffe
0007
1ffd
000c
0009
0006
000f
0020
0022
0017
0020
001e
000a
0001
1ff9
0001
1ffd
1ffb
0001
1ffe
0001
1fff
0001
1ffa
1ffb
1ff7
1ff3
1ff0
1fee
1fee
1ff9
1ff3
1ff9
1ff8
1fff
000b
0008
000a
000c
0002
1ffe
0000
1ff8
1ff9
1fff
1ffe
1ffb
1ffe
1fff
0000
1ffc
1ffb
1ff8
1ffa
1ff6
1ffd
1ff7
1ff8
1ff7
1ffb
1ffa
1ffb
1ff9
1ffb
1ffa
1ff8
1ff7
1ffa
1ffc
1fff
1ffc
0002
0002
1ff9
1ffe
1ffd
1ffe
1ffb
1ffd
1ffe
1ffe
1ff9
0000
1ffb
0001
1ffc
1ffa
1fff
1ffb
1ffa
1ffc
1ffe
1ffe
0000
0001
0001
1fff
1ffe
1fff
1ffa
1ffd
0001
1ff9
1ffd
