1ffd
1ffa
0000
0000
0001
1fff
1ffe
0001
1ffb
0000
0000
1ffc
1ffc
1ffb
1ffc
1ffc
0000
0000
1ffa
0001
1ffe
1ffe
1ff8
0000
0000
1ff8
1ffc
0000
1ffa
1ffc
1ffa
1ffe
1ff9
1ffd
0001
0000
1ff8
1ff8
1ff9
1ffe
1ffe
1ffc
1ffc
1ffa
0001
1ffa
1fff
1ffb
1ffb
1ff8
1ffd
1fff
1ff9
0000
1ffd
1ff9
1ffa
1ffd
1ffd
1ffa
1ffe
1fff
1ffb
1fff
1fff
1ffc
1ff9
1ff9
1ff8
1ff9
1ffc
1ffb
1ffb
1ffa
1fff
0000
1ffc
1ffa
0001
1fff
0000
1ffb
1ff8
1ffc
0001
1fff
1ffc
1fff
1ffe
0000
1ffe
0000
1fff
1ffd
0003
0009
0014
0010
0011
0012
000d
000e
000b
0001
1fff
1ff2
1ff8
1fff
0000
1ffa
1ffd
1ffb
1ffd
0000
1ffe
0000
0003
0000
000b
000a
001a
0017
001c
0022
0027
002a
0026
001c
0010
000d
0014
0003
1ff2
1fea
1fed
1fee
1ffe
1ffd
1ffb
1fff
1ff9
1ff8
1ffa
1ffa
0001
000c
0016
0011
0014
0012
0010
0015
0015
0019
0004
0011
0013
1fff
1fff
1ff7
1ff4
1fe6
1fdf
1fe4
1ff8
0000
1ffa
1ffd
1ffa
1ffb
1ffb
0003
000f
001c
0015
0010
0018
0014
0012
0011
0017
0020
0017
0008
0015
0014
0013
1ff8
0008
1ff8
1fe3
1fe3
1fef
1ffc
1fff
1ffd
0000
1fff
0002
000c
0020
0020
0017
0006
0007
000e
0004
0007
0013
0012
001e
0012
0005
000f
000c
000e
000e
0002
1ff2
1fe0
1fe9
1ffa
1ff8
1ffc
1ffd
1ffb
0001
000c
001b
0019
0013
0008
000d
0006
0010
0005
0004
0008
0020
001b
0006
000f
0016
000e
0015
000b
1ffb
1fe2
1fea
1ff8
1ff9
1ffb
1ffc
1ff8
1ffe
0005
000e
0012
000f
0004
1ffe
1ff2
1fe5
1fce
1fd8
1ffb
0027
003b
0022
0014
0016
0014
001e
0013
1ffa
1fe2
1ff1
1ff8
1ffa
1ffb
1fff
1fff
0000
0007
0007
0003
1ff7
1fea
1fd8
1fc7
1fba
1fb8
1fcb
1ff3
0020
0025
001f
001d
0012
001f
001d
000c
1ff6
1fed
1ff9
1ff8
1ffd
1fff
0001
1fff
1ff9
0007
1ffc
1fea
1fde
1fce
1fc2
1fca
1fd7
1fed
1ff6
000d
0015
0015
000a
0016
001b
001b
0017
0000
1ff6
1ff7
1ff8
1ffc
1ffa
1ff9
0000
1ffb
1fff
0000
1ff8
1fe9
1fd9
1fcf
1fd3
1fe8
0000
0004
0006
000e
0023
0012
000c
0012
000e
1fff
1fee
1fe7
1fe6
1fef
1ffd
1ffb
1ffd
1ffe
1ffc
1ffb
1ffd
1ffe
1ff6
1ff1
1fe0
1fdb
1fe7
1ffb
1ff8
1feb
0002
001e
001f
0006
000e
000f
0008
1ff6
1fe4
1fe4
1fea
1ff0
1ff7
0000
1ffe
1ffb
0001
1ffa
1ffc
1ffd
1ffe
1ff3
1fe3
1fe6
1fee
1ffe
1fed
1fec
0006
000f
0010
1ffe
1ffa
1ffb
0002
1ff4
1fef
1ff8
1ff5
1ff8
1ff6
1ff7
0000
0000
0001
1ffa
0001
0002
1ffd
1ff2
1fe5
1fe3
1fea
1ff3
1ff2
1ffb
0006
0018
000e
1fff
1fec
1ffa
1ffe
0005
000c
000c
0004
0002
1ff8
1ffe
1ffe
1ffa
1ffe
1fff
0006
0001
0004
1ff9
1ff5
1fed
1fd7
1fd4
1fd9
1ff6
000c
001e
1ffd
1fea
1fe9
1ff8
000a
0019
0012
0017
0016
000a
1ffd
1ffe
0000
1fff
1fff
0001
0000
000e
0008
0002
1ff9
1fe7
1fd3
1fb9
1fa8
1faf
1fc3
1fdd
1fe0
1fe3
1fff
0009
0010
001a
0005
001f
001f
0009
1ffb
1ff9
1ffa
1ffa
1ffd
1ffd
0003
0015
000f
0009
0005
1ffb
1ff0
1fcc
1fb4
1fb8
1fa9
1fb9
1fd3
1ff6
0012
0019
001a
001a
0012
0024
0022
000d
1ff4
1ff8
1ffa
1fff
1fff
1ffa
1ffc
001a
001a
001f
001b
000a
0003
1ff5
1ff8
1fe7
1fdc
1fda
1fe6
0009
0019
001f
0023
001f
001b
0020
000c
0001
1ff6
1ffe
1fff
1ffe
1fff
1ff8
0005
001c
0022
0025
0027
0014
0017
001a
000a
1ffd
1ff7
1ff2
0004
0007
000e
0019
001a
0012
001f
0011
1ffd
1ff9
1ff8
1ffe
1ffd
1ffd
1ffb
0000
1ffe
000e
0021
0021
001d
0010
0011
0006
1ffe
1ff8
0002
1fff
1ffe
1ffc
0008
0003
0010
0019
000f
0006
1ffa
1ff1
1ffb
1ffa
1ff8
1ff8
1ffd
1ffe
1ffe
0009
0011
0017
0014
000b
0001
0008
000a
000c
0003
1ffc
1ffb
1ff9
0005
0004
0004
0012
0009
1ffd
1ffc
1ffb
1ff5
1ff8
1ffe
0000
1ffe
1ffa
1ffb
0006
0012
001b
0014
0015
0005
000e
0009
0000
1ff9
0001
0003
0007
0005
000b
0011
1ffd
1ff5
1ff5
1ffa
1ff9
1fff
1ffe
1ff9
1ffa
1ffb
0001
0001
0000
000c
0013
0016
001a
001a
0016
0020
0021
0022
001b
0018
0012
0011
1fff
1ff2
1fed
1fef
1ff6
1ff6
1ffd
1ffb
0000
1ffb
0001
1fff
1ff8
0001
0001
1ffe
0007
000b
0006
000f
000f
001c
0020
0022
001b
0013
0008
1ffd
1ff4
1ff4
1ff6
1ff6
1ffb
1ffb
1fff
1ffa
0001
1ff8
1fff
1ffa
1ff8
1ff8
1ffe
1ffe
1ffb
1ffa
1ffe
1ffe
1ffd
1ffc
1ffd
1ffb
1ffe
1ffb
1ff7
1ffb
1ffd
1ffc
1ffe
1ff8
1ff8
1fff
1ffc
0000
1ffa
1fff
0001
1ffc
1ffa
1ffd
1ff8
0000
1ffe
0000
1ffe
1fff
1ff8
1ffa
1ffe
1ffa
1fff
1ffb
1ffd
1ffb
0000
1ff9
1ffa
1fff
1ffd
1ffa
1ffe
1ff9
1ff8
0000
1ffc
