0000
0001
0008
0008
0000
0000
0006
0002
0000
0001
0000
0005
0007
0004
0005
0001
0005
0007
0001
0005
0000
0003
0007
0001
0007
0001
0008
0003
0002
0004
0000
0001
0004
0009
0002
1fff
0005
0000
0003
1ffd
0002
1ffc
0000
0005
0006
0002
0000
0001
0006
0000
0000
0001
0005
0006
0001
0006
0007
0004
0006
0007
0006
0006
0007
1ffe
1ffd
0001
1fff
1ffc
1fef
1ff9
1ff8
1ff4
1ff7
1ffe
0002
0006
0008
0004
0007
0002
0003
0005
0000
0003
0007
0006
0002
0004
0004
0000
0005
1ffc
1ffa
1ffc
1ff1
1fef
1fe4
1fe6
1fe7
1fe1
1fec
1ff6
0001
0003
0006
0009
0002
0002
0008
0008
0003
0005
0008
0005
0006
0006
0004
0007
1ffb
1fff
1ff6
1ff7
1fe7
1fe8
1fe0
1fe5
1fdf
1fe4
1ff2
1ff4
1ff9
0007
000a
000b
000b
000e
0004
0008
0002
0001
0008
0002
0006
0002
0005
0001
0004
1ffb
0001
1ffb
1fee
1ff4
1feb
1fe6
1fee
1ff1
1ffe
0002
1ffc
0006
0007
000a
0017
001a
000e
1fff
0002
0001
0008
0009
0003
0007
0007
0006
0006
0000
1fff
1ff9
1ff2
1fe7
1fda
1fd3
1fd1
1fd7
1fd6
1fe7
1fe6
1ff4
1ff8
1fff
0021
0023
000d
000a
0007
0000
0004
0002
0003
0005
0003
0006
1ffc
1fff
1ffc
1ff6
1fe7
1fda
1fce
1fdd
1fd4
1fd4
1fd2
1fe3
1fe2
1feb
1fe8
1ff5
0014
001c
000f
0008
0008
0005
0007
0006
0008
0002
0002
0003
0002
1ffe
1fed
1ff7
1ff4
1fe7
1fdc
1fe9
1fcb
1fca
1fd6
1fe6
1fe8
1ff9
1ff2
1ff2
0009
000e
000b
0002
0003
0005
0009
0007
0007
0001
1ffb
0000
1ff5
1ff8
1ffb
1ffe
1ffa
1ff8
1ff8
1feb
1fb4
1fc7
1ff2
1ff6
1ffd
0002
1ff8
1ff8
0004
0001
1ff7
1ff7
1ffc
0006
0005
0003
0003
0001
0004
1ff6
1fef
1ff8
0002
0016
000d
000a
000c
1fe3
1fb0
1fe8
0003
1ffc
1ffd
0003
1ff0
1ff5
1ffe
1fef
1ff6
1ffa
0005
0008
0006
0006
0005
1ffd
1fff
1ffa
1ffa
0005
0010
001c
0026
0018
001b
1fd4
1fc4
0008
001f
0005
1ffe
1ffb
1fef
1ff1
1ff9
1ff2
1ff1
1fff
1fff
0002
0006
0005
0003
0004
0000
1ffa
0010
001a
0029
0024
003c
0044
0040
1fff
1fe0
0019
0029
0005
0002
0006
1fff
0001
1ffe
1ff7
1ff8
1ffe
0009
0005
0001
0006
0001
0002
0007
0013
0027
002e
0035
002c
0033
0054
003f
0001
1ff7
001d
001e
0021
0017
000a
0017
0011
0008
1ffb
1ffc
0000
0007
0005
0001
0007
0001
0009
0011
0023
0030
0035
0027
0025
002d
0037
0028
0003
1ffa
000b
0022
0037
0025
0022
0013
000d
0004
0002
1fff
0002
0004
0002
0006
0009
0006
0007
000f
0012
001b
0019
0028
0023
0018
0012
0015
0004
0011
0017
0030
002b
001f
0012
1ffb
0007
000c
0001
1ff9
0004
0001
0002
0003
0000
0000
1fff
0004
000a
0011
001e
002b
001f
0008
1fff
0008
000a
0027
0037
0038
002f
0020
0004
000d
0013
0004
1ffd
1fff
0002
0003
0004
0003
0003
0006
0000
1ffb
1ff7
0005
0017
002d
0027
000e
000b
0010
0027
0040
0033
002a
000d
0002
1ff2
0004
0002
1ff7
1ffc
1ffa
1ffd
0006
0007
0003
0005
0005
0001
1ffb
1ff5
1ff3
0000
000c
0003
1ff7
1ffa
000f
0011
001c
0018
000d
1fed
1fee
1fe5
1ff0
1fef
1fea
1fef
1ffc
1ffe
0002
0000
0003
0006
0002
0001
1ff4
1ff1
1fec
1fe1
1fde
1fdb
1fd5
1fd7
1fdb
1feb
1ffa
0006
1fef
1ff2
1fee
1fe8
1fe5
1fe7
1fe6
1fef
1ffb
0003
0006
0006
0009
0008
0002
0001
1ff6
1fef
1fe7
1fd7
1fd0
1fcd
1fcc
1fda
1fe1
1fde
1fea
1ff5
1ffc
1ffe
1ff7
1fed
1ff3
1ff1
1fee
1ff7
1ff7
0001
0002
0006
0002
0003
0001
0001
0000
1ff6
1fe7
1fde
1fe1
1fdd
1fe1
1fe9
1fed
1fee
1fec
1ff7
1ff4
0002
1ffc
0001
1ffe
1ff4
1ff6
1ffe
0000
0004
0005
0005
0004
0005
0002
0006
1fff
1ffb
1ff6
1fef
1fe9
1ff2
1ff2
1ff6
1ff6
1ff7
1ff5
1ff9
1ff9
0002
000a
0010
000d
0008
1ffb
1ffb
0000
0004
0001
0003
0003
0000
0002
0005
0003
0003
1ffb
1ffa
1ff8
0004
1ff7
0001
1ff7
1ff9
1ff9
1fff
0002
0006
0013
0012
0010
0007
1ffd
0002
0004
0006
0002
0007
0005
0008
0004
0006
0001
0005
0002
1ff7
1ff7
1ffd
1ff7
1ffe
1ff9
1ffa
1ff5
1ff3
1ffa
1ffd
0001
000a
0007
1ffd
1fff
0004
0006
0001
0002
0005
0008
0008
0007
0002
0007
0000
1ffb
1ff8
1ff4
1ff3
1fea
1fe8
1fe9
1fe9
1fed
1feb
1fe5
1fe2
1fe5
1ff1
1ff2
1ffb
0000
0005
0000
0007
0003
0003
0004
0005
0001
0004
0000
1fff
0002
0002
1ffe
1ff8
1fee
1ff0
1fee
1fe7
1fe5
1feb
1fe8
1fec
1fef
1ff6
1ffc
0005
0005
0001
0003
0001
0009
0004
0005
0001
0001
0008
0003
0007
0003
0008
0000
0004
0002
1fff
1fff
0000
1ffd
0007
1ffe
1ffe
1fff
0004
0003
0003
0003
0005
0005
0006
0004
0003
