FFFFFF
000024
0000F1
0000F1
000004
000004
0000BD
000033
00000F
000023
000006
0000AD
0000E4
000082
0000A8
000012
00009D
0000D8
00002D
0000AE
00000D
000067
0000E8
000017
0000E8
000024
0000FE
000068
000042
000077
FFFFFE
000014
000074
000118
00003A
FFFFD2
00009C
000005
000068
FFFFAE
000048
FFFF8F
000005
00009A
0000B5
000035
000002
00002D
0000C3
FFFFFB
FFFFF9
000010
0000AD
0000B7
00002B
0000B6
0000D1
000088
0000CF
0000D4
0000C9
0000B3
0000EE
FFFFB3
FFFFAD
00002B
FFFFE4
FFFF72
FFFDDD
FFFF23
FFFEF7
FFFE89
FFFEEF
FFFFCA
000044
0000C0
0000F9
00008F
0000EB
00003F
000059
00009F
000009
00006E
0000D3
0000BE
000049
000077
00007C
000001
00009E
FFFF73
FFFF32
FFFF8F
FFFE2A
FFFDD4
FFFC88
FFFCB1
FFFCDA
FFFC2D
FFFD73
FFFEB9
00002F
000068
0000BD
000117
000049
00004A
00010F
000104
000050
000099
000107
0000AF
0000C5
0000BF
000071
0000D8
FFFF5D
FFFFDB
FFFEB5
FFFEE8
FFFCE4
FFFD0B
FFFBF5
FFFCA4
FFFBE0
FFFC78
FFFE49
FFFE79
FFFF16
0000E0
000135
000161
000150
0001BE
00007B
0000FA
00003F
000029
00010C
00004B
0000BD
00003D
0000AD
000023
00007A
FFFF6A
000028
FFFF53
FFFDBA
FFFE7E
FFFD6A
FFFCCB
FFFDC2
FFFE26
FFFFB0
000048
FFFF8E
0000BF
0000EA
00013C
0002E1
000340
0001C4
FFFFD3
00004A
00002C
0000F9
000113
000051
0000D8
0000EB
0000C1
0000BF
FFFFF0
FFFFD4
FFFF1B
FFFE32
FFFCD4
FFFB31
FFFA51
FFFA11
FFFAD9
FFFAB9
FFFCE8
FFFCCD
FFFE8F
FFFF0D
FFFFED
000420
000455
0001AA
00014E
0000EF
00000A
000075
00003D
000054
000095
000055
0000C8
FFFF83
FFFFE9
FFFF76
FFFEC8
FFFCEB
FFFB33
FFF9C3
FFFB97
FFFA7D
FFFA72
FFFA4A
FFFC5C
FFFC45
FFFD67
FFFCFF
FFFEA1
00028C
000372
0001D6
000109
0000F8
000093
0000EF
0000C9
000108
000033
00004F
00006D
000049
FFFFC0
FFFDAD
FFFED1
FFFE75
FFFCE5
FFFB75
FFFD18
FFF96A
FFF93D
FFFABE
FFFCB5
FFFD0B
FFFF11
FFFE32
FFFE3A
00012C
0001CE
000160
000046
00005F
0000AC
00011C
0000EF
0000DF
00002E
FFFF6B
000004
FFFE91
FFFEF9
FFFF55
FFFFC7
FFFF34
FFFF0B
FFFF03
FFFD61
FFF683
FFF8E6
FFFE47
FFFEBA
FFFF9B
000035
FFFF00
FFFF06
00007D
00001C
FFFEDE
FFFED3
FFFF7D
0000C0
000098
00006B
00006C
00001D
000071
FFFEB8
FFFDE3
FFFEF9
00004E
0002B4
0001A2
000139
000176
FFFC5F
FFF5FB
FFFCF2
000059
FFFF8C
FFFFA8
00005A
FFFE00
FFFEAD
FFFFC0
FFFDD2
FFFEC4
FFFF37
00009F
000107
0000B1
0000B9
00009C
FFFF9E
FFFFDB
FFFF49
FFFF3E
0000A3
00020B
000372
0004C0
000305
000369
FFFA71
FFF874
0000FA
0003E6
0000A8
FFFFC6
FFFF5F
FFFDDD
FFFE2C
FFFF11
FFFE4F
FFFE1F
FFFFE4
FFFFEF
000042
0000C6
0000AD
000052
000077
FFFFF3
FFFF4D
000201
00034E
00051F
00047D
000777
000875
0007FF
FFFFDE
FFFC05
000321
000515
000093
000036
0000B1
FFFFE0
000026
FFFFC5
FFFEE1
FFFEFF
FFFFB7
00011A
0000A3
00001E
0000BA
000019
00004D
0000DB
00026B
0004ED
0005B7
000692
00057D
000668
000A70
0007EA
00001E
FFFEE0
0003AA
0003C4
00042F
0002E2
00014C
0002E3
000220
000103
FFFF68
FFFF7B
00000E
0000E2
0000A2
00001C
0000E8
000012
000110
000224
000450
0005FF
000690
0004E7
0004AF
0005A5
0006D8
0004FB
000069
FFFF46
000153
000431
0006E4
0004AE
00044D
000267
00019D
000086
00004B
FFFFD4
000049
00008A
000041
0000BF
000112
0000B0
0000E3
0001EF
000232
00036A
000325
00050F
000458
000306
000232
000298
000083
000215
0002E9
00060B
00055F
0003D7
000246
FFFF63
0000D8
000186
000029
FFFF14
00007B
00001F
00004E
000055
000001
00000A
FFFFDD
000086
00014B
00021C
0003B0
00055F
0003D3
000106
FFFFDC
00010D
00014F
0004ED
0006D1
000705
0005D5
0003F2
00007E
0001A7
00025A
00008C
FFFF9C
FFFFE4
00003A
00006C
000071
000065
000067
0000CD
FFFFFC
FFFF6F
FFFED7
0000AF
0002ED
0005A4
0004E4
0001C5
000164
000204
0004D7
0007FF
000654
00054B
0001A2
000040
FFFE3A
000087
000031
FFFEEA
FFFF88
FFFF4B
FFFF98
0000B6
0000DE
00006F
0000AA
000095
000016
FFFF51
FFFE90
FFFE55
FFFFF7
000171
000054
FFFED3
FFFF4E
0001D8
000214
000383
000301
000192
FFFD91
FFFDB2
FFFC9F
FFFDFE
FFFDEB
FFFD3B
FFFDDA
FFFF70
FFFFB4
000041
000009
00006C
0000C8
00004C
00002D
FFFE74
FFFE14
FFFD76
FFFC2F
FFFBB2
FFFB6A
FFFA97
FFFAD3
FFFB6A
FFFD50
FFFF33
0000B2
FFFDEA
FFFE34
FFFDCA
FFFCF3
FFFC97
FFFCDC
FFFCCF
FFFDD7
FFFF6E
00006D
0000C1
0000B0
00011F
00010A
00004D
00002D
FFFEBE
FFFDDA
FFFCE1
FFFAEC
FFF9F7
FFF99B
FFF97D
FFFB3B
FFFC25
FFFBB0
FFFD4A
FFFE96
FFFF83
FFFFBA
FFFEE1
FFFD92
FFFE5E
FFFE27
FFFDC5
FFFEDB
FFFEE7
000014
000043
0000C0
000035
000053
000015
000026
FFFFFC
FFFEC6
FFFCED
FFFBB1
FFFC1F
FFFB97
FFFC29
FFFD26
FFFDA1
FFFDCE
FFFD7C
FFFED6
FFFE72
000047
FFFF89
000015
FFFFCC
FFFE7D
FFFEB8
FFFFC3
FFFFF5
000077
00009F
00009A
00008A
0000A1
000040
0000B0
FFFFD6
FFFF59
FFFEBB
FFFDE7
FFFD2B
FFFE48
FFFE3A
FFFEC5
FFFEB4
FFFEE3
FFFE9C
FFFF25
FFFF2E
00004B
000141
00020C
000192
000107
FFFF51
FFFF54
FFFFF9
000073
000012
000058
000059
000006
00004F
00009D
000058
00006D
FFFF53
FFFF3F
FFFEFB
000079
FFFEE8
00002D
FFFEDE
FFFF1C
FFFF21
FFFFEF
00004A
0000C3
00025B
00024C
0001F5
0000DF
FFFFAD
000043
000084
0000B6
00003B
0000E2
0000AB
0000F4
000073
0000C1
00002D
000094
000038
FFFEEC
FFFEE6
FFFFA6
FFFED5
FFFFCF
FFFF29
FFFF3A
FFFE93
FFFE67
FFFF4F
FFFFA4
000020
00013D
0000E7
FFFFA1
FFFFE4
00007A
0000C9
000020
000034
0000AE
000100
0000F8
0000E3
000032
0000E4
00000A
FFFF5C
FFFEF6
FFFE70
FFFE5B
FFFD4D
FFFCF4
FFFD20
FFFD24
FFFD92
FFFD6D
FFFCAC
FFFC35
FFFC98
FFFE22
FFFE4B
FFFF62
000009
0000A7
00000C
0000E8
00005C
000054
000077
0000AC
000027
000073
FFFFF4
FFFFD8
000045
000032
FFFFCB
FFFF0E
FFFDB8
FFFE03
FFFDB9
FFFCE9
FFFCA0
FFFD5F
FFFD02
FFFD75
FFFDEA
FFFEC1
FFFF8B
0000AC
0000AA
000015
00006F
000012
000112
000078
0000A6
000018
000025
000108
000063
0000DB
000065
00010D
FFFFFF
000074
00003B
FFFFDA
FFFFE4
000009
FFFF90
0000D5
FFFFC9
FFFFC1
FFFFEA
000070
000056
000055
00005B
00009B
000095
0000C5
00008D
00005D
