FFFF32
000004
FFFF99
FFFF56
FFFF96
FFFF61
FFFFBA
FFFFC5
FFFF2C
FFFFAA
FFFF3B
FFFF7D
000027
000022
FFFF37
FFFFB7
FFFF45
FFFF48
000035
00000F
FFFF67
FFFFBE
FFFF78
FFFF1F
FFFF32
FFFFB2
FFFFF5
FFFFC7
FFFFA8
FFFF9A
000031
FFFFCC
FFFF3C
FFFF36
FFFF2E
FFFF61
FFFF63
FFFFB6
000002
FFFF44
FFFF87
FFFF3D
FFFFBA
FFFF20
FFFFC4
FFFF44
FFFF81
FFFF52
FFFFB9
FFFF49
FFFF29
FFFF15
00000B
FFFFCC
00000F
FFFF72
FFFF9C
FFFF23
FFFF38
FFFFFE
FFFF2B
FFFF3D
FFFF91
FFFFB2
FFFFEB
FFFF87
000073
00005F
000127
0000EB
0000D7
000055
000122
000063
000054
FFFF6C
FFFFFB
FFFFBB
FFFED3
FFFF96
FFFFE0
000048
FFFFA9
FFFF86
FFFF6D
FFFF59
FFFFD0
FFFF67
000029
FFFF46
FFFFBC
000000
000034
0001D7
0002E1
0002DC
0002BC
000406
000232
0000F9
0001D9
0000D9
FFFF32
FFFFCD
FFFF17
FFFEEF
FFFEB2
FFFF5A
000018
00004E
FFFF47
FFFFDA
FFFF5E
FFFF8F
000038
FFFF0F
FFFF2B
FFFFBC
00006D
000069
00012F
000386
00038F
000479
0003C8
0002FF
0002B9
000134
00019C
00017D
FFFF8D
FFFF3F
FFFF6B
FFFE3A
FFFDDB
FFFDF0
FFFFBC
FFFFBC
FFFF23
FFFFD6
000012
FFFFB8
FFFF52
FFFF17
FFFF41
FFFF5C
000065
0001B9
000263
000416
000487
0004B9
000453
0004DA
00047D
00042A
000485
0003A8
0002A4
FFFEE2
FFFEEC
FFFE3D
FFFE36
FFFD39
FFFECD
FFFF51
00001C
FFFF78
FFFFA3
FFFF5A
000025
FFFFA6
FFFF8B
000049
0001AF
000342
00027E
0002D4
0003D4
000265
00028B
000349
0002E7
000194
0001BF
000073
000055
FFFEF9
FFFF51
FFFDC2
FFFDC7
FFFCE6
FFFE27
FFFEF7
000021
FFFFE5
FFFF85
000018
00001A
FFFF90
00000B
0000E7
00022B
000324
000292
000266
0000EA
000115
00002F
0001AF
000213
00006F
000047
FFFD5E
FFFF1B
FFFF42
FFFF28
FFFF03
FFFF43
FFFD72
FFFE3B
FFFF75
FFFF51
FFFF2B
FFFFCF
00001F
FFFFA5
00001D
000079
000178
000110
000180
000185
0001B0
0001B2
0001F0
000127
000160
0003A1
00020A
FFFFBF
FFFF00
FFFFF9
0000CE
000004
FFFF71
FFFE85
FFFD05
FFFDB7
FFFF0C
FFFF8D
FFFF44
FFFF5F
FFFFD8
FFFFF7
000061
0000BD
0001A5
000093
00001C
FFFF6E
0000E2
0000B0
0000E3
00003B
FFFFE8
00025E
000290
0000E2
000011
FFFFC3
FFFFFA
FFFFE4
FFFFF1
FFFF0F
FFFD77
FFFDD6
FFFF4B
00001C
FFFF2F
000028
FFFFD0
FFFFA0
FFFF77
00001C
FFFF99
FFFF2D
FFFC01
FFFC6C
FFFD4C
FFFBDF
FFFB6B
FFFAAC
FFFA04
FFFD7D
000074
0000A5
00001B
000055
FFFF83
FFFFA5
FFFF83
FFFEBF
FFFD16
FFFE66
FFFFEE
FFFFED
FFFF53
FFFF2A
000034
FFFFEA
FFFF3C
FFFE80
FFFCB9
FFFA61
FFF814
FFF863
FFF709
FFF703
FFF7CB
FFF74A
FFF563
FFF7D6
FFFC18
FFFEA5
FFFED6
FFFEE1
FFFFC6
FFFF53
FFFF4C
FFFE25
FFFEBB
FFFFC5
FFFF8F
FFFF4E
FFFFCE
FFFFB6
FFFFC3
000015
FFFFA6
FFFE63
FFFB20
FFF684
FFF465
FFF52D
FFF5BE
FFF6A0
FFF73A
FFF741
FFF6E6
FFF886
FFFB03
FFFC94
FFFCED
FFFE73
000001
FFFFF8
FFFF21
FFFE06
FFFCFF
FFFFA2
FFFF80
000039
FFFFC2
FFFF65
FFFF9A
000035
FFFF60
FFFD63
FFF9DA
FFF63E
FFF70B
FFF7A4
FFFA41
FFFBED
FFFE17
FFFCFC
FFFEA0
FFFC8E
FFFC7C
FFFBD5
FFFCFD
FFFE57
FFFFAE
FFFF83
FFFEEE
FFFD84
FFFDBD
FFFEDB
000049
FFFF9E
FFFFF9
000021
FFFFCA
000005
FFFF79
FFFF00
FFFBD9
FFFABF
FFFBB7
FFFE48
FFFFB4
000112
00016A
0001AE
00029D
00002D
FFFE53
FFFEC1
FFFDD7
FFFFA3
FFFE9C
FFFF8F
FFFE66
FFFD20
FFFDE9
FFFF97
000104
000127
FFFF5B
FFFF8D
FFFFA5
FFFF89
0000F2
000075
000035
00011F
000150
000271
0001BA
000212
000137
000113
000287
000030
0000FD
000024
FFFDFE
FFFE17
FFFED4
FFFF25
FFFEB5
FFFD65
FFFEA9
0000CC
00015D
0000BC
FFFF45
FFFF71
FFFF22
FFFF04
000102
00021E
000374
000385
000218
0000DE
0001CE
0001AD
000188
000328
0002C8
000095
FFFFAA
FFFFFC
FFFEB2
FFFEDC
FFFE00
FFFF4A
00001B
000070
0000ED
0002F3
0003A7
00009C
FFFF6D
FFFF87
00002A
FFFFA1
000139
00039D
000509
00049A
000327
000231
0002A9
000417
00035A
0003D8
0001CC
0000ED
000140
000143
FFFFCE
0000D1
FFFF7A
000182
00019C
000132
0001A9
0004B9
000419
0000EF
00001F
FFFFE4
FFFFF1
FFFEC1
000054
0003EB
00069F
00063A
00047B
0002FD
000353
000514
000497
000750
000556
0004A9
000244
00018F
0002DE
0001D9
000142
000362
00037E
0003CF
000508
00063E
00039A
FFFFA7
FFFF41
FFFF5E
FFFF68
FFFF21
FFFFFC
000227
000405
000514
000467
000410
00044D
00041E
000460
0004E5
0003C4
000270
000128
0001CB
00031E
000181
000178
000283
000322
000418
000464
0003C9
0001FB
00002A
00000B
FFFF37
FFFFF0
FFFFCA
FFFEEB
0001E9
00025C
0003A9
000518
0004D7
000334
000315
000529
0002DE
0000F3
0000A2
0000C8
000102
00000B
00023B
00037C
00025D
00035C
0004AE
000410
0002EC
000162
FFFFFB
FFFFDE
FFFFB1
FFFF40
FFFFDD
FFFF91
000066
000103
00028A
0002DB
000284
000324
0002C7
0002BA
000112
000082
FFFFB9
00001E
00015B
00017C
000342
00036D
000180
00035C
000426
0004BA
000254
0000EC
000036
FFFFE5
FFFF35
FFFFC9
FFFF51
000039
0000CC
000049
0001BA
000184
00016A
0001FC
0001F9
000256
000040
FFFE26
FFFDAC
FFFEAE
FFFEC2
0000F6
000307
0003DD
000384
00035D
0002EB
000338
000132
FFFFDE
FFFFCB
FFFF70
FFFFCE
FFFFD4
FFFFA6
FFFF98
FFFF8B
FFFF19
FFFEE5
FFFF0A
FFFE6D
FFFF13
FFFF62
0000CB
000012
FFFEC3
FFFE53
FFFDCF
FFFDA0
FFFEC3
00007C
000306
0002A6
00033E
000254
0000E3
000089
000057
FFFFEC
FFFF95
FFFFB3
FFFF62
FFFFF8
FFFFE5
FFFF59
FFFE4E
FFFCB9
FFFD8D
FFFD7B
FFFD4F
FFFD55
FFFDF4
FFFDF0
FFFEE1
FFFE8A
FFFDEB
FFFE06
FFFE73
FFFE1B
FFFEFA
FFFF18
FFFF19
FFFF79
FFFF95
FFFFF0
000056
FFFF4B
FFFF50
FFFFF8
FFFF1D
FFFF8C
FFFF75
FFFF4D
FFFECE
FFFE69
FFFD94
FFFD50
FFFD82
FFFDBE
FFFD20
FFFE13
FFFE32
FFFD9B
FFFE07
FFFE89
FFFEA0
FFFF79
FFFEBE
FFFF8C
FFFF83
FFFFFA
FFFF52
FFFFBF
FFFF56
FFFF23
FFFF59
FFFF2B
FFFF79
FFFF9E
00000A
FFFFDD
FFFF95
FFFFD5
FFFFF8
FFFF91
00000C
FFFFFC
000007
000014
FFFFBF
FFFF6D
FFFF0F
FFFF81
FFFFBD
FFFFAF
FFFF54
000016
FFFFFB
FFFF56
FFFF7A
FFFF28
000009
000006
FFFFF4
FFFFED
FFFF63
FFFF3D
FFFFB2
FFFF25
00002D
000028
FFFF81
FFFFF2
FFFF54
00001D
FFFF20
FFFFF4
FFFF93
FFFFCD
FFFF41
FFFFB1
FFFF8B
FFFFBD
FFFFAC
FFFFE7
FFFF17
FFFF9C
000007
FFFF17
FFFFA8
FFFFDE
FFFF83
