000090
00007E
FFFFD8
000058
000051
000084
FFFFCE
000018
000098
FFFFC1
FFFFED
000042
0000C0
00007D
FFFFB1
FFFFDB
FFFFD7
00004B
00008B
00000A
00000D
FFFFF5
FFFFC2
000015
00009C
00002F
FFFFB8
00004D
000081
00006C
000034
FFFFE1
FFFFB4
FFFFC2
FFFFF3
0000C2
FFFFB6
00009D
00003C
000061
00004B
00006E
000002
FFFFAA
FFFFD4
000077
FFFFFA
000022
000097
FFFFF4
00001A
00000D
000053
0000A2
FFFFFE
000022
0000AB
0000AF
00000D
000077
000091
FFFFF9
FFFFEE
000034
000091
FFFFEB
FFFFD3
00006F
000041
00008B
FFFFAD
000093
FFFFCB
FFFFC7
00000D
FFFFB9
0000A8
FFFFD3
FFFFC3
0000A7
00001E
00001D
000025
00004A
0000D1
000007
FFFFEC
00003D
000041
FFFFBA
0000AB
00005D
FFFFDE
0000AC
000036
000088
FFFFF1
FFFF64
FFFFF1
FFFF13
FFFFE2
FFFF84
000028
000018
000034
FFFFF2
000087
FFFFEE
FFFFEB
0000BB
000045
000076
000016
000026
000009
FFFFD7
FFFFBD
000078
000053
FFFFF0
FFFF95
000028
FFFF50
FFFF09
FFFEA4
FFFD8A
FFFCDE
FFFBD0
FFFCE8
FFFCE5
FFFDB1
FFFEFC
FFFF86
FFFFA8
00001D
000095
000074
00006C
000000
000005
000090
000066
000078
00004C
00005B
FFFF8D
FFFF9A
FFFF8F
FFFE94
FFFE9B
FFFE7E
FFFE05
FFFD84
FFFD10
FFFB85
FFFB29
FFF9E2
FFFBF8
FFFD75
FFFEC4
FFFEB3
FFFE4F
FFFE6D
FFFEE0
FFFF8D
FFFFCA
000011
000065
000082
000085
FFFFAC
000086
000055
FFFE7D
FFFE29
FFFDD5
FFFD8E
FFFD00
FFFDCC
FFFF4B
00002D
0002B4
000409
000335
00023F
0001DE
00025E
FFFF99
FFFF6D
FFFE32
FFFCC4
FFFCFD
FFFE46
FFFF29
FFFFDF
000045
0000C7
FFFFF8
FFFFBF
FFFFB8
FFFE45
FFFD5F
FFFCE8
FFFC51
FFFC84
FFFEC5
FFFFE6
0000F4
0003AA
000460
0005FF
000607
000646
0002D8
000224
00003B
00008E
0000A1
FFFDD6
FFFC20
FFFDB7
FFFF6E
FFFF6A
000083
0000C1
0000C2
000062
FFFFC4
FFFE33
FFFD47
FFFCD4
FFFB91
FFFED4
FFFF75
FFFF5F
FFFEBD
FFFFE7
0001C1
000524
0002D6
0002E3
000097
00003A
000027
FFFF0C
00007E
FFFEC8
FFFCE9
FFFD64
FFFEBF
FFFF74
0000B4
00003A
000023
00000D
FFFEB6
FFFD32
FFFDD9
FFFF64
FFFEC4
FFFF44
FFFFAA
000151
0000CB
00003B
00021F
00038E
00032B
FFFFE0
FFFF17
000008
FFFE1B
FFFF32
FFFE03
FFFDDF
FFFDBB
FFFE74
FFFF53
FFFF82
0000A0
000022
FFFFF9
FFFFB2
FFFF81
FFFDD6
FFFEDE
00010D
000161
0002CC
0002C7
000264
00039A
0001D0
00006D
000076
FFFE2C
FFFEE9
FFFFC8
000145
FFFFF9
000105
FFFF63
FFFEBE
FFFED0
FFFE7F
FFFF92
FFFF6E
00005B
FFFFE1
000024
FFFFAC
FFFFCB
FFFF68
0001FC
000499
00036E
000564
000229
00023D
0003D9
FFFEC6
FFFEF5
FFFF6F
000045
00017C
000536
000276
00027E
000417
0002F6
0001BA
00005B
FFFFB7
FFFF4B
FFFFF8
000000
000053
0000AB
FFFF89
FFFF42
0001AD
00045C
00050B
0002FE
0003BD
000492
0002EB
000008
FFFD11
000289
00057B
000456
0003B5
0005AB
0005B6
0005ED
000618
000412
0001F5
00000D
FFFF17
000025
000054
00005B
0000C0
000076
FFFF5D
00003C
000289
0003D0
000398
00025C
0002F6
0001E6
0001B8
FFFF1C
FFFE76
0003FD
000578
0003F7
000491
000418
00059E
0005B7
000477
00029C
000026
FFFE38
FFFEF6
FFFFAD
000056
000057
000026
000013
000084
000054
000129
000118
0002FA
000215
000103
FFFFFD
00005E
FFFFD0
FFFEE0
00014B
0000BC
00037F
0003B6
0003B7
000287
0001A0
000207
000009
FFFDF3
FFFD05
FFFEC4
000034
00001D
000023
000092
000085
000058
FFFF95
000015
000153
000144
0000D6
0000DA
FFFE6D
FFFF45
FFFF43
FFFEE7
FFFF26
FFFEF8
0003D2
000598
00055D
0002AF
000042
FFFED5
FFFCEC
FFFC29
FFFD42
FFFEC7
000005
000050
FFFFF4
0000A8
00000E
FFFF87
FFFFE1
00000A
000065
FFFEF9
0000CF
00024C
FFFF76
00014E
0001D9
FFFFBF
FFFDE5
FFFFA5
00021F
0003D1
0003CB
0000F2
FFFDD7
FFFC6B
FFFB0C
FFFC86
FFFD2D
FFFE21
00000F
FFFF97
00005A
000037
FFFFDA
FFFF7C
FFFF3F
FFFE97
FFFE49
FFFE96
0000A2
00013D
000169
000226
000321
0001E8
0000E3
000136
00031D
0000EC
FFFF5E
FFFE9F
FFFCD6
FFFCE0
FFFCA3
FFFCD6
FFFDAC
FFFE4E
00002B
00002C
FFFFD9
00009B
FFFFFF
FFFFA5
FFFFDB
FFFEC3
FFFD28
FFFD1A
FFFD28
FFFECE
000079
00036E
0002C5
FFFE4E
FFFE48
00001B
00020F
FFFEBC
FFFE8E
FFFD4D
FFFE60
FFFE7A
FFFD9F
FFFD7F
FFFD61
FFFE25
FFFFB4
000009
00008D
000064
0000C9
000023
FFFF52
FFFEDD
FFFDFD
FFFCD2
FFFCBD
FFFC9F
FFFCA6
FFFC40
FFFCD5
FFFBE6
FFFD22
FFFD95
FFFD40
FFFDA1
FFFF39
FFFE32
FFFF7F
FFFECB
FFFE92
FFFEA6
FFFECC
FFFF3E
000037
FFFFC3
000015
FFFFDA
00001C
000055
000006
FFFED3
FFFE0F
FFFD0E
FFFB63
FFFAB8
FFFA13
FFF7FB
FFF9DC
FFFA05
FFFE0B
FFFD41
FFFEB6
FFFE74
FFFF95
FFFD5F
FFFF22
FFFEF4
FFFE53
FFFF87
FFFF32
000014
0000AB
000067
000020
00000D
000000
0000AB
FFFF4A
FFFF35
FFFE16
FFFD4C
FFFBD4
FFFB43
FFFACA
FFFA89
FFFB16
FFFCDE
FFFCE9
FFFCDC
FFFE32
FFFE0C
FFFD10
FFFC74
FFFE7F
FFFF29
FFFF84
00003C
FFFFEE
00004C
000069
000005
00000C
000083
000020
000025
00007D
FFFFAF
FFFE74
FFFD86
FFFCA2
FFFD7E
FFFD62
FFFD24
FFFE12
FFFDD4
FFFD1D
FFFD93
FFFC99
FFFC3D
FFFC50
FFFCEF
FFFD46
FFFF40
0000EA
000082
0000A1
000108
000037
00003D
000060
00009A
000078
00002D
FFFFC3
FFFF90
FFFEAB
FFFE74
FFFDF4
FFFFD8
FFFF2C
FFFF56
FFFD85
FFFDFB
FFFD74
FFFDD8
FFFC53
FFFC08
FFFC81
FFFDD2
FFFFC9
0000DA
0001FA
0002D9
000263
00011D
FFFFEC
0000CD
FFFFE8
FFFFFF
FFFFAF
FFFFEA
0000AC
00007C
0000C2
00008D
0000CD
000122
00009C
FFFF98
FFFEBA
FFFFE8
FFFE0C
FFFD89
FFFD65
FFFED1
0000DB
000176
000182
000372
0003B5
000222
00014E
000107
FFFFCC
000075
FFFFF8
00002A
0000AB
0000AB
FFFFED
000010
000125
0000DE
000281
0002BE
0002CB
00026B
0000F5
00028B
000244
00022C
00020A
0003D0
000425
00048F
0004C2
00054F
0003C4
000178
0000B2
FFFFE8
FFFFF1
000031
000029
000007
00009C
000029
FFFFC7
00009C
0000F3
000155
0001D9
00021B
000332
00034C
0003B4
000462
00046C
00056B
000320
000224
0001CE
0002AA
0002E0
000216
000174
00009A
000037
000022
00003D
FFFFC5
000022
FFFFDA
000047
FFFFBF
0000BD
00006C
00003C
FFFFE5
0000B7
00009B
00006A
FFFFDD
FFFFD9
000024
FFFFDD
000027
000076
00000A
000040
0000D1
0000BA
000069
000040
FFFFCB
0000CF
000070
FFFFD9
00000E
FFFFEB
