000
000
000
000
000
000
000
000
000
000
000
000
000
000
000
000
000
000
000
000
000
000
000
000
000
000
000
000
000
000
000
000
000
000
000
000
000
000
000
000
000
000
000
000
000
000
000
000
000
000
000
000
000
000
000
000
000
000
000
000
000
000
000
000
000
000
000
000
000
000
000
000
1ff
000
000
000
000
000
000
000
000
000
000
000
000
000
000
000
000
000
000
000
000
000
000
1ff
1ff
1ff
1ff
000
1ff
1ff
000
000
1ff
000
000
000
000
000
000
000
000
000
000
000
000
000
000
000
000
000
000
000
001
000
001
001
000
000
000
000
000
000
1ff
000
000
000
000
000
000
000
000
000
000
000
000
1ff
000
000
1ff
001
002
001
002
001
001
001
000
000
000
000
1ff
1ff
000
000
000
000
000
000
000
000
1ff
000
1ff
1ff
000
000
000
000
001
001
001
001
001
001
000
001
000
000
001
001
000
000
000
000
000
000
000
000
1ff
000
1ff
000
001
000
000
000
1ff
1ff
1ff
000
001
000
000
000
001
001
000
002
001
000
000
000
000
000
000
000
000
000
001
000
000
001
000
000
001
001
1ff
1ff
001
000
000
001
000
001
001
001
001
000
000
000
000
000
000
000
000
001
001
001
002
001
001
002
000
000
1fe
1fe
1ff
000
000
000
001
001
001
001
000
000
000
000
000
000
000
000
000
001
001
002
001
002
002
001
001
001
000
1fe
1fe
1ff
001
001
001
002
002
001
000
000
000
000
000
000
000
1ff
000
001
002
003
002
003
002
001
001
003
003
000
1fe
1ff
1ff
000
001
002
002
002
002
000
000
000
000
000
000
000
000
001
001
002
002
002
000
000
000
003
003
001
000
000
000
001
001
002
003
002
001
001
000
000
000
000
000
000
000
000
000
000
000
000
1ff
000
001
003
001
002
001
1ff
000
000
001
001
000
001
000
000
000
000
000
000
000
000
000
1ff
1fe
1fe
1fe
1fe
000
001
001
002
002
001
000
000
000
1ff
1ff
1ff
1ff
1ff
1ff
000
000
000
000
000
000
000
000
1ff
1fe
1fe
1fe
1ff
000
000
002
002
002
001
000
000
000
1fe
1fe
1fe
1ff
1ff
1ff
000
1ff
000
000
000
000
000
1ff
1ff
1fe
1ff
001
001
000
001
002
001
001
001
000
1ff
1ff
1fe
1fe
1fe
1fe
1ff
1ff
000
000
000
000
000
000
000
000
1ff
1fe
000
002
002
001
002
002
002
000
000
000
1ff
1fe
1ff
1ff
1ff
1ff
1ff
000
1ff
000
000
000
000
000
1ff
1ff
1ff
000
000
001
002
002
002
001
001
1ff
000
1ff
1fe
000
000
000
1ff
000
1ff
1ff
1ff
000
000
000
000
000
1ff
1ff
000
000
001
001
002
001
000
000
1ff
1ff
000
000
1ff
000
000
001
000
000
000
1ff
000
000
000
000
000
000
000
1ff
000
000
001
000
000
000
1ff
000
000
1ff
000
1ff
000
000
000
000
001
001
000
000
1ff
000
000
000
000
000
1ff
1ff
000
001
001
000
001
000
1ff
000
000
000
000
1ff
000
000
000
000
000
000
000
000
000
000
000
000
000
000
000
1ff
1ff
000
000
000
000
000
000
002
002
001
001
000
000
000
1ff
1ff
000
000
000
000
000
000
000
000
000
000
000
1ff
1fe
1fe
1ff
000
000
001
001
002
003
002
002
002
001
001
001
001
000
000
000
1ff
000
000
000
000
000
000
000
000
1fe
1fe
1fe
000
000
000
001
001
000
001
002
002
001
002
002
001
000
000
000
000
000
000
000
000
000
000
000
000
1ff
1ff
1ff
1ff
1ff
000
1ff
000
000
000
001
001
001
001
000
000
000
000
000
000
000
000
000
000
000
000
000
000
000
1ff
000
1ff
000
1ff
000
000
000
000
000
000
1ff
1ff
000
000
000
000
000
000
000
000
000
000
000
000
000
000
000
000
000
000
000
000
000
000
000
000
000
000
000
000
000
000
000
000
000
000
000
000
000
