000
000
000
000
000
000
000
000
000
000
000
000
000
000
000
000
000
000
000
000
000
000
1ff
000
000
000
000
000
000
000
000
000
000
000
000
000
000
1ff
000
000
000
000
000
000
000
000
000
000
000
000
000
000
000
000
000
000
000
000
000
000
000
000
000
000
000
000
000
000
000
000
000
000
000
000
000
000
000
000
000
000
000
000
000
000
000
000
000
000
000
000
000
000
000
000
000
001
001
001
001
001
001
001
001
000
000
1ff
000
000
000
000
000
000
000
000
000
000
000
000
001
001
002
001
002
002
002
003
002
002
001
001
001
000
1ff
1ff
1ff
1ff
000
000
000
000
000
000
000
000
000
001
001
001
001
001
001
001
001
002
000
001
001
000
000
1ff
1ff
1fe
1fe
1fe
1ff
000
000
000
000
000
000
000
001
002
001
001
002
001
001
001
001
002
001
001
001
001
001
1ff
000
000
1fe
1fe
1ff
000
000
000
000
000
000
001
002
002
001
000
000
001
000
000
001
001
002
001
000
001
001
001
001
000
1ff
1fe
1ff
000
000
000
000
000
000
001
002
002
001
000
001
000
001
000
000
000
002
002
000
001
001
001
001
001
000
1fe
1ff
1ff
000
000
000
000
000
000
001
001
001
000
000
1ff
1fe
1fd
1fd
000
002
004
002
001
001
001
002
001
000
1fe
1ff
1ff
000
000
000
000
000
000
000
000
1ff
1ff
1fd
1fc
1fc
1fb
1fd
1ff
002
002
002
002
001
002
002
001
1ff
1ff
000
1ff
000
000
000
000
000
000
000
1ff
1fe
1fd
1fc
1fd
1fd
1ff
1ff
001
001
001
001
001
002
002
001
000
1ff
1ff
000
000
000
000
000
000
000
000
1ff
1ff
1fe
1fd
1fd
1ff
000
000
000
001
002
001
001
001
001
000
1ff
1fe
1fe
1ff
000
000
000
000
000
000
000
000
1ff
1ff
1fe
1fe
1fe
000
1ff
1ff
000
002
002
000
001
001
000
1ff
1fe
1fe
1ff
1ff
1ff
000
000
000
000
000
000
000
000
1ff
1fe
1fe
1ff
000
1ff
1ff
000
001
001
000
000
000
000
1ff
1ff
1ff
1ff
000
1ff
1ff
000
000
000
000
000
000
000
1ff
1fe
1fe
1ff
1ff
1ff
000
000
001
001
000
1ff
000
000
000
001
001
000
000
000
000
000
000
000
000
000
000
000
000
1ff
1ff
1fd
1fd
1fe
1ff
001
002
000
1ff
1ff
000
001
002
001
001
001
001
000
000
000
000
000
000
000
001
000
000
000
1fe
1fd
1fc
1fa
1fb
1fc
1fe
1fe
1fe
000
001
001
002
000
002
002
001
000
000
000
000
000
000
000
001
001
001
000
000
1ff
1fd
1fb
1fb
1fb
1fc
1fd
1ff
001
002
002
002
001
002
002
001
1ff
1ff
000
000
000
000
000
002
002
002
002
001
000
1ff
000
1fe
1fe
1fe
1fe
001
002
002
002
002
002
002
001
000
1ff
000
000
000
000
000
000
002
002
002
002
001
001
002
001
000
1ff
1ff
000
000
001
002
002
001
002
001
000
000
1ff
000
000
000
000
000
000
001
002
002
002
001
001
000
000
000
000
000
000
000
001
000
001
002
001
000
000
1ff
000
000
1ff
000
000
000
000
001
001
001
001
001
000
001
001
001
000
000
000
000
000
000
000
001
001
000
000
000
1ff
1ff
000
000
000
000
000
000
001
002
001
001
000
001
001
000
000
000
000
000
000
001
001
000
1ff
1ff
000
000
000
000
000
000
000
000
000
000
001
001
001
002
002
001
002
002
002
002
001
001
001
000
1ff
1ff
1ff
1ff
1ff
000
000
000
000
000
000
1ff
000
000
000
000
001
000
001
001
002
002
002
002
001
000
000
1ff
1ff
1ff
1ff
000
000
000
000
000
000
000
000
1ff
000
000
000
000
000
000
000
000
000
000
000
000
000
1ff
000
000
000
000
000
000
000
000
000
000
000
000
000
000
000
000
000
000
000
000
000
000
000
000
000
000
000
000
000
000
000
000
000
000
000
000
000
000
000
000
