000
000
000
000
000
000
000
000
000
000
000
000
000
001
000
000
000
000
001
001
000
000
000
001
000
001
000
000
000
001
000
000
000
000
000
000
000
000
000
000
000
000
001
000
000
001
000
000
001
001
000
001
001
000
001
000
001
000
001
000
000
000
000
000
000
000
000
000
000
000
000
000
000
000
000
000
000
000
001
000
000
000
000
000
000
000
000
000
001
000
000
001
000
000
000
000
000
000
000
000
000
000
000
000
000
000
000
000
000
001
000
001
000
000
001
001
000
000
001
000
000
1ff
000
000
000
001
001
001
000
000
000
000
001
001
001
001
000
000
000
000
000
000
000
000
000
000
000
000
1ff
1ff
1ff
000
000
000
001
001
000
1ff
000
000
001
001
002
001
001
000
000
000
000
000
000
000
000
000
1ff
1ff
1ff
1fe
1ff
000
000
1ff
000
1ff
1ff
1ff
1ff
000
001
001
001
001
000
000
000
000
000
000
000
000
000
000
1ff
1ff
1fe
1fe
1fe
1ff
1ff
1ff
1ff
1fe
1fe
1ff
1ff
000
000
000
000
1ff
1ff
000
000
000
000
000
000
001
000
000
1ff
1ff
1fe
1fe
1fe
1ff
1ff
1ff
1ff
000
1ff
000
000
000
1ff
1ff
1ff
1fe
1ff
000
000
001
001
000
000
000
000
000
1ff
1ff
1fe
1fe
1fe
1ff
1ff
000
001
002
001
000
000
1ff
1fe
1fe
1fe
1fe
1ff
000
000
000
001
001
001
000
000
000
1ff
000
1ff
1ff
1ff
1ff
000
001
004
004
002
000
1ff
1ff
1fe
1fe
1ff
1ff
000
000
001
000
000
000
000
000
000
000
000
1ff
000
1ff
1ff
1fe
000
002
005
005
002
000
000
1ff
1ff
1ff
1ff
000
000
000
001
000
000
001
000
000
001
000
000
000
1ff
1ff
1fe
1fd
000
002
005
004
001
000
000
1ff
1ff
000
000
000
000
001
000
000
000
000
000
000
001
000
000
000
000
1fe
1fd
1fd
000
002
004
003
001
000
1ff
1ff
1ff
000
000
000
000
000
001
000
000
001
000
000
000
000
000
000
1ff
1fe
1fd
1fe
000
002
004
002
001
1ff
1fe
1ff
1ff
000
000
000
000
000
000
000
001
000
000
000
000
000
000
000
1ff
1fe
1fe
1ff
001
002
004
001
000
1fd
1fe
1ff
1ff
1ff
000
000
000
000
001
000
001
000
001
000
000
000
1ff
1ff
1ff
1ff
1ff
000
000
003
004
000
1ff
1fd
1fe
1ff
1ff
000
000
000
000
000
000
000
000
001
000
001
000
000
1ff
1ff
1ff
1ff
000
000
001
004
003
1ff
1fe
1fd
1fe
1ff
1ff
000
000
000
000
000
000
000
000
000
000
000
000
000
1ff
1ff
000
000
000
001
002
003
002
1ff
1fe
1fe
1fe
1ff
000
1ff
000
1ff
000
000
001
001
001
000
000
000
000
1ff
1fe
1ff
000
000
000
000
000
001
000
1ff
1ff
1ff
1ff
1ff
1ff
1ff
1ff
000
000
000
000
000
000
001
000
000
000
1ff
000
000
000
000
000
000
1ff
000
000
000
001
000
000
1ff
1ff
1ff
1ff
000
000
000
000
001
000
000
000
000
000
001
001
000
000
000
000
1ff
1ff
1ff
000
000
001
001
001
1ff
1ff
1ff
1ff
000
000
000
000
000
000
000
000
000
001
002
002
001
000
000
000
1fe
1fd
1fe
000
000
002
003
001
000
1ff
000
000
000
000
000
001
000
001
000
000
000
001
002
002
001
000
000
000
1ff
1ff
1ff
1ff
000
002
002
001
000
000
1ff
000
000
000
000
000
000
000
000
000
000
000
001
001
000
1ff
1ff
1fe
1fe
1fe
1ff
1ff
1ff
000
000
000
000
000
000
000
000
000
000
000
000
001
000
000
000
000
000
000
000
000
000
1ff
1ff
1ff
1ff
1ff
1ff
1ff
000
000
000
000
000
000
001
000
000
000
000
000
000
000
000
000
001
000
000
000
000
000
000
000
000
000
000
000
001
000
000
000
000
000
000
000
000
001
000
000
001
000
000
001
000
001
000
001
000
000
000
000
000
001
000
000
000
000
000
000
000
000
000
001
001
001
000
