fff5
0017
ffe6
fffe
ffff
fffc
000c
0025
ffe8
fff0
fff1
ffe9
000c
0022
0013
ffe1
fffc
0025
0006
fffd
ffe4
ffed
0009
0020
0011
0015
ffe3
ffe4
0018
0013
0018
fffa
ffe0
ffed
0010
0036
0024
000b
002c
002f
0032
002f
001e
0020
ffde
001e
0029
0017
fff9
ffeb
002c
0021
fff2
0025
fffa
001b
ffeb
ffe6
ffe0
fffd
0012
000b
0013
0034
0025
0050
0064
0071
0071
0077
003c
002b
0063
002c
002b
002f
002e
0017
001e
0006
0011
fff6
ffde
000a
ffe3
0003
001b
0010
0023
ffe1
0026
002a
0032
0065
005a
0070
006e
006a
009b
0093
005b
0073
00b9
00b8
00c5
00ae
00b0
0066
005b
0016
fff0
0014
0005
fff9
fffe
001f
001b
000a
000a
003f
fff9
fff3
003d
0017
001c
000a
0018
0024
007b
007a
00bf
00c2
00f5
0110
00ea
009d
0016
002a
0006
0000
0006
0013
000b
fff2
ffe6
fffd
ffea
ffd5
0020
ffd6
000f
ff71
ffb4
ffcc
ffed
ffbd
ffbd
000d
005c
00ac
0095
0085
0069
0048
fff8
0004
ffdc
0022
fffb
001f
001d
ffdb
000d
fffa
000c
0001
ffcb
ffbf
ff5c
ff29
ff83
ff0b
ff94
ffb1
ff8f
ff9c
ffe4
ffbd
ff93
ff98
ff5f
ff97
ffa9
ffa4
fff2
001e
000c
0012
0001
fffa
0002
ffe0
ffbf
fff6
ffa4
ff8e
ff5a
ff7e
ff16
fefa
ff77
ff7e
ff34
ff3f
ff10
febb
feb4
feea
fedd
ff1a
ffa8
ffb1
ffe1
ffe8
fff4
fff6
0023
ffd3
ffdb
ffce
ff83
ffe5
ffd2
ff7e
ff68
ff51
ff2e
ff0c
ff12
ff02
fed3
fea5
fe16
fe38
fe68
fe6c
fee6
ff08
ff65
ff9e
ffba
000a
fffb
ffe5
fff0
ffe1
0001
ffe3
ffd4
ffe7
001e
ffb1
ff6b
ff8e
ffb6
ff75
ff81
feea
febc
fe2b
fe0b
fe67
feb1
fef5
fecb
ff39
ff69
ff90
ffd2
0018
ffe8
001f
0015
ffdc
ffcc
000d
002b
002a
0098
fffd
001e
000d
ffa4
ffc2
ff77
fee0
fedb
fea9
fe9b
fee3
ff3e
ff75
ff4a
ffed
ff89
ffad
ffe7
fff4
ffed
000c
ffeb
fffd
ffeb
0005
fff5
007f
005b
002c
0037
0027
0027
0006
ffbe
ff1c
ff2a
ff4a
ff49
ff72
ffbd
001a
0057
0088
0000
ffb8
ffe2
fff5
ffed
fff6
ffe1
fff1
0012
003c
005b
0077
0037
004d
0037
0090
008a
0063
ffab
ff67
fffa
fff2
ff6a
ff70
ffee
0051
00c4
015c
00bb
ffcb
ffc3
ffed
ffee
0020
0019
ffdd
ffd0
0013
0097
0051
0046
0022
0092
007a
0070
0014
ffeb
fffc
000b
ffdf
ff7e
ffef
ffc1
0068
010f
01ae
00e8
ffed
0001
0015
fff1
0003
0018
0001
ffcd
0036
008a
0077
00a4
009a
00a6
00b4
003d
ffa8
0006
0049
0023
ffc7
ffc8
fff8
0076
0074
0133
0166
00ea
fffd
ffbd
ffdf
0019
fff3
0005
ffe4
ff9f
fff4
0090
00c0
007c
00c2
00f4
012a
004e
ffea
0073
006a
0010
ffca
000b
003b
008a
00bd
00ae
00d7
0073
ffc5
ffdb
ffda
0007
ffe5
ffe4
ffe1
ff80
ffba
00d6
00da
0091
00df
017a
0177
0072
0044
00a3
0056
ffd3
ffa7
001f
005f
002c
0001
0059
0035
ffe6
ffbb
ffd5
fffa
0006
0015
001d
fffb
ff49
ffa0
0059
00aa
00c1
00f4
01a5
01ac
00dd
007c
007e
004f
0000
0017
00af
003c
0019
ffd3
0028
fff7
ffce
ff9f
fff2
0010
fff2
ffec
ffff
ffcb
ff54
ff59
ffaf
0075
00bb
00aa
0127
016b
01ac
00c7
0036
006f
00bf
007c
009a
0051
000a
001b
001e
ffef
ffc3
ffd3
ffdd
ffdb
0009
ffe6
0010
ffbc
ff91
ff4e
ff76
000a
007a
00bf
00fe
0195
01c8
00eb
00d2
00db
009c
0080
00c8
0088
0058
0013
ffe0
ffd9
ffd7
fff9
ffec
001d
ffee
ffe6
fff7
ffe1
ff72
ff56
ff6d
ffc4
0028
0080
00d2
008c
0114
014b
0189
014f
00b5
0074
00e1
009f
006c
ffea
ffad
0005
ffec
fff6
ffe7
0005
fffd
0003
000b
fff5
ffca
ff8b
ff39
ffa6
ffca
0060
00af
00f8
013f
0144
0110
00eb
0093
00c8
00bb
0077
0010
ffc1
ffa7
ffcc
0003
ffdf
fff9
ffed
ffed
fffd
0020
0009
ffed
ff9a
ff87
ff5e
ff94
ffcf
ffd8
0014
005d
0028
0022
0065
004b
0001
ffe7
ff8f
ff94
ffa6
ffac
fff8
fff1
ffe1
0022
000d
001c
fff5
fff1
0003
000a
ffd6
ffbe
ff6f
ff49
fef9
fefa
fecf
ff44
ff6c
ff8c
ff54
ff1e
ff00
ff36
ffa4
ffa2
ffae
ffe3
0004
ffde
ffe4
fff4
fffd
0014
0010
000b
ffe0
ffe6
fff4
ffe1
ffce
ffd8
ffc0
ffa0
ff87
ff73
ff76
ff5f
ff60
ff58
ff80
ffd4
ffd7
fff2
ffe9
0011
fff9
ffdf
fff5
ffe7
ffe8
001f
ffe3
0009
fff1
ffe9
fffc
0015
fffe
ffdd
000d
ffdd
fffb
0002
ffdb
ffec
fff4
fffd
ffe0
ffed
ffdd
ffe4
0004
fff3
0019
0024
0020
0001
0018
0022
fffe
0006
fffa
ffed
001c
0015
ffee
fff5
0010
fff3
0007
fff2
0015
0016
ffe4
ffea
001d
0017
fff5
0014
fff8
fff8
000d
000e
fff9
ffef
fff6
0021
fffe
0012
ffed
000b
ffff
001f
0004
fffc
ffdc
ffe8
000b
ffdf
ffe5
ffeb
ffdf
ffe9
fff5
ffe2
ffe9
ffed
fff0
001e
ffe3
ffed
ffe4
ffec
0006
