0003
0004
001e
000c
0032
ffea
fff1
0010
0026
0025
ffeb
000a
000b
fffa
0028
000b
0001
ffff
0004
000e
001a
0030
fff3
0024
fffb
001a
fffe
0000
002e
fff6
000a
002d
0011
0002
002d
000e
0004
fff8
fffa
ffe9
0026
fffd
002e
fff4
0014
0023
0027
001f
0001
001f
ffff
0031
0025
fff2
fff3
0014
002b
002b
0022
fffa
0027
ffee
fff1
001e
001a
fff1
fffd
0013
fffb
fff6
000c
0027
0020
0006
000f
002c
0026
002b
ffea
0022
000d
001e
001a
0026
fffd
0003
0028
fffa
0004
fffd
fff1
001a
0000
001a
ffeb
0005
0015
ffe3
0018
ffed
ffd6
ffde
ffe3
ffec
fffb
ffee
0010
fffe
0013
0031
fff0
0014
002f
ffef
001a
ffec
000b
fff7
0002
ffed
000f
fff9
ffd2
ffa7
ffa2
ffa6
ff95
ff50
ff98
ffb2
ffbc
ffee
ffcd
0018
0004
ffe7
002d
fffe
002c
002b
0028
0002
0027
fff5
ffe2
fffb
ffe9
fff7
ffe4
ffc0
ff63
ff3f
ff0d
fee3
fe9d
fe9f
fe8e
feba
feeb
ff2e
ff6b
ffcb
ffae
fff6
0024
001d
fff9
0002
0022
002e
0003
0007
0032
003b
0045
0068
009b
007c
0084
0018
ff96
ff22
ff19
ff88
ffb7
ffa9
ff97
ff86
ff48
ffbb
ff7f
ffa2
ffc1
ffeb
ffea
0005
001f
002e
0026
005a
006d
0062
008e
00d9
012a
00ec
00a3
00b3
00bf
0025
001b
0044
00c9
00e0
0098
007a
001e
ffde
0010
ffdc
ffde
fffe
0018
fff7
ffe9
0030
0013
004c
009a
008b
00ba
014e
00e1
009b
00c5
0108
00fb
007e
004a
0066
00b2
0111
00bb
00a0
0080
0003
004e
0042
ffd1
ffea
001a
0028
0015
0027
0034
006e
0097
00ab
003f
0054
005f
003f
009a
00bc
00f0
00c3
0118
0158
013d
0162
00e7
00eb
00c6
00a5
004e
ffe4
ffd0
ffe8
0015
fff5
0008
002a
002f
0088
009c
0082
0018
0027
ffcb
fffe
005f
00a8
0075
0110
015d
01ad
01e9
016a
011d
0129
0104
00dd
0062
ffd8
ffbe
ffe5
0005
fff6
0025
001a
002f
008c
00a8
0053
001e
001b
0008
0065
0034
0042
006d
006c
0070
0148
01aa
011c
011f
00dd
00d6
0087
0061
ffde
ff9d
fffd
0009
002b
0021
fffe
0017
0058
0063
0010
0016
005e
0040
fffc
ffb3
ff34
fe50
fd63
fe0b
000b
011b
0101
0065
0024
0007
ffdb
ffde
ffc4
ffd4
0029
001d
0000
0024
0015
0027
0050
001e
000d
ffe6
0011
fff4
ffbe
ff29
fe3c
fce6
fc89
fe25
ffc2
0090
005d
0014
002a
ffa9
ff91
ffe6
0008
ffeb
ffef
0017
ffea
fff6
0013
0047
0059
0038
0041
ffea
ffd2
ff9b
ff14
fea5
fde8
fd51
fdbc
ff2b
0005
002c
005c
0107
011a
00aa
006d
006d
005f
0020
000a
fff1
fff2
0017
0022
000c
0022
0022
ffa1
ffd6
ffc5
ff03
fecd
fe68
fe2c
fe02
fe88
ff25
0007
0018
0165
01a2
0159
0132
0107
00aa
004d
fffd
ffeb
0006
0025
0017
002d
fffc
0030
0025
ffd5
ffc4
fff7
ff34
ff1a
fe8e
fe48
feec
ff66
ff20
0073
008b
012e
0103
010f
00d8
00a4
0020
ffbc
ffd6
ffe8
001a
002d
0001
0006
001b
fffe
0009
ffe5
ff77
ff4b
ff1d
ff45
ff08
ff48
ffc5
002e
001a
002e
ffe5
0049
0041
002e
0018
ffda
ffac
ffda
ffdf
ffe6
fff2
fff4
fff3
fffc
001f
000a
ffc8
ff7c
ff25
fef0
ff03
ff14
fed0
ff98
ffe0
0004
0055
ffa6
ff91
ffc3
ff74
ffaa
ff70
ff23
ff5e
ff9a
ffb0
0008
fff7
0002
002b
002e
002a
0015
ffda
ff54
feed
fed9
fed1
fecf
ff31
ff6b
ffa7
0027
0079
ff82
ff85
ff65
ff09
ff16
fee0
fef6
ff35
ff74
ffb9
ffe6
002c
ffec
ffe9
fff6
0012
fff9
ffd5
ff7b
feeb
fedf
feef
fef5
ff46
ff40
000e
0013
0040
ff57
ff2d
feec
fe83
ff0d
feb2
ff01
ff48
ffb2
ffcc
0028
0026
001a
0024
0025
0008
ffcf
ffe7
ff8a
ff75
ff38
ff4c
ff95
ff68
ff84
ffc8
0008
ffdf
ff8e
ff7d
fef0
fef1
fef0
fee2
ff0e
ff72
ff94
fffb
0011
0024
fff8
000c
0003
000a
ffe2
fff2
0012
ffd5
0016
0022
ffc9
ff98
ff4e
ff5a
ffbd
0014
0014
ff99
ff80
ff26
ff26
ff0a
ff29
ff93
ffdb
0018
ffe9
000b
0001
0011
0022
ffe6
ffe8
002d
003c
0083
00af
0054
0011
ffcd
ff89
ff9f
0007
0044
003f
ffe6
ffd9
ff74
ff3d
ff39
ff64
ff80
ffac
ffdb
0003
0002
fff2
0000
fffb
000c
001d
003f
0090
00da
00f6
00d1
006c
00e8
0089
0077
00a7
0067
0094
0058
0045
fffc
ffc0
ffbc
ffad
ffa3
ffab
000d
fff9
ffea
0019
ffe9
0015
0026
0023
0014
0048
006a
00a4
00fe
00f8
0125
0111
00f3
00c1
00c5
00d1
00af
00a3
0084
002d
ffc9
0007
ffe5
ffec
fffa
000d
0032
0020
ffee
000a
002f
fff8
fff0
002c
0003
0028
0026
0005
0037
0051
0017
0046
0096
00b9
0092
00bb
006b
0032
0002
0013
fffb
000b
0002
fff3
fffd
fffa
ffe9
0013
000d
0018
0020
0013
0008
0003
0035
0020
000a
0021
0010
003d
0024
001c
0054
001d
0019
003b
0007
fff6
0030
001a
000c
fff7
ffec
0020
