0000
0009
003c
003c
0001
0001
002f
000d
0004
0009
0002
002b
0039
0021
002a
0005
0027
0036
000b
002c
0003
001a
003a
0006
003a
0009
0040
001a
0011
001e
0000
0005
001d
0046
000f
fff5
0027
0001
001a
ffec
0012
ffe4
0001
0027
002d
000d
0001
000b
0031
ffff
fffe
0004
002b
002e
000b
002e
0034
0022
0034
0035
0032
002d
003c
ffed
ffeb
000b
fff9
ffdd
ff77
ffc9
ffbe
ffa2
ffbc
fff3
0011
0030
003e
0024
003b
0010
0016
0028
0002
001c
0035
0030
0012
001e
001f
0000
0028
ffdd
ffcd
ffe4
ff8b
ff75
ff22
ff2c
ff37
ff0b
ff5d
ffae
000c
001a
002f
0046
0012
0013
0044
0041
0014
0026
0042
002c
0031
0030
001c
0036
ffd7
fff7
ffad
ffba
ff39
ff43
fefd
ff29
fef8
ff1e
ff92
ff9e
ffc6
0038
004d
0058
0054
0070
001f
003f
0010
000a
0043
0013
002f
000f
002b
0009
001f
ffdb
000a
ffd5
ff6f
ffa0
ff5b
ff33
ff71
ff8a
ffec
0012
ffe4
0030
003b
004f
00b8
00d0
0071
fff5
0013
000b
003e
0045
0014
0036
003b
0030
0030
fffc
fff5
ffc7
ff8d
ff35
fecc
fe94
fe84
feb6
feae
ff3a
ff33
ffa4
ffc3
fffb
0108
0115
006b
0054
003c
0003
001d
000f
0015
0025
0015
0032
ffe1
fffa
ffde
ffb2
ff3b
fecd
fe71
fee6
fe9f
fe9d
fe93
ff17
ff11
ff5a
ff40
ffa8
00a3
00dd
0076
0042
003e
0025
003c
0032
0042
000d
0014
001b
0012
fff0
ff6b
ffb4
ff9d
ff39
fedd
ff46
fe5b
fe4f
feb0
ff2d
ff43
ffc4
ff8d
ff8f
004b
0074
0058
0012
0018
002b
0047
003c
0038
000c
ffdb
0001
ffa4
ffbe
ffd5
fff2
ffcd
ffc3
ffc1
ff58
fda1
fe3a
ff92
ffaf
ffe7
000d
ffc0
ffc2
001f
0007
ffb8
ffb5
ffdf
0030
0026
001b
001b
0007
001c
ffae
ff79
ffbe
0014
00ad
0069
004e
005e
ff18
fd7f
ff3d
0016
ffe3
ffea
0017
ff80
ffab
fff0
ff75
ffb1
ffce
0028
0042
002c
002e
0027
ffe8
fff7
ffd2
ffd0
0029
0083
00dd
0130
00c1
00da
fe9c
fe1d
003f
00fa
002a
fff2
ffd8
ff77
ff8b
ffc4
ff94
ff88
fff9
fffc
0011
0032
002b
0015
001e
fffd
ffd3
0080
00d4
0148
011f
01de
021d
0200
fff8
ff01
00c8
0145
0025
000e
002c
fff8
000a
fff1
ffb8
ffc0
ffee
0047
0029
0008
002f
0006
0013
0037
009b
013b
016e
01a5
015f
019a
029c
01fb
0008
ffb8
00eb
00f1
010c
00b9
0053
00b9
0088
0041
ffda
ffdf
0004
0039
0029
0007
003a
0005
0044
0089
0114
0180
01a4
013a
012c
0169
01b6
013f
001a
ffd2
0055
010c
01b9
012c
0113
009a
0067
0022
0013
fff5
0012
0023
0010
0030
0045
002c
0039
007c
008d
00db
00c9
0144
0116
00c2
008d
00a6
0021
0085
00ba
0183
0158
00f6
0092
ffd9
0036
0062
000a
ffc5
001f
0008
0014
0015
0000
0003
fff7
0022
0053
0087
00ec
0158
00f5
0042
fff7
0043
0054
013b
01b4
01c1
0175
00fd
0020
006a
0097
0023
ffe7
fff9
000f
001b
001c
0019
001a
0033
ffff
ffdc
ffb6
002c
00bb
0169
0139
0071
0059
0081
0136
0200
0195
0153
0069
0010
ff8f
0022
000c
ffbb
ffe2
ffd3
ffe6
002e
0038
001c
002b
0025
0006
ffd4
ffa4
ff95
fffe
005c
0015
ffb5
ffd4
0076
0085
00e1
00c0
0065
ff64
ff6d
ff28
ff80
ff7b
ff4f
ff77
ffdc
ffed
0010
0002
001b
0032
0013
000b
ff9d
ff85
ff5e
ff0c
feed
fedb
fea6
feb5
fedb
ff54
ffcd
002d
ff7b
ff8d
ff73
ff3d
ff26
ff37
ff34
ff76
ffdc
001b
0030
002c
0048
0043
0013
000b
ffb0
ff77
ff38
febb
fe7e
fe67
fe5f
fecf
ff09
feec
ff53
ffa6
ffe1
ffef
ffb8
ff65
ff98
ff8a
ff71
ffb7
ffba
0005
0011
0030
000d
0015
0005
000a
ffff
ffb2
ff3b
feec
ff08
fee6
ff0a
ff4a
ff68
ff74
ff5f
ffb6
ff9d
0012
ffe2
0005
fff3
ff9f
ffae
fff1
fffd
001e
0028
0027
0023
0028
0010
002c
fff6
ffd6
ffaf
ff7a
ff4b
ff92
ff8f
ffb1
ffad
ffb9
ffa7
ffc9
ffcc
0013
0050
0083
0065
0042
ffd4
ffd5
fffe
001d
0005
0016
0016
0002
0014
0027
0016
001b
ffd5
ffd0
ffbf
001e
ffba
000b
ffb8
ffc7
ffc8
fffc
0013
0031
0097
0093
007d
0038
ffeb
0011
0021
002e
000f
0039
002b
003d
001d
0030
000b
0025
000e
ffbb
ffba
ffea
ffb5
fff4
ffca
ffcf
ffa5
ff9a
ffd4
ffe9
0008
004f
003a
ffe8
fff9
001f
0032
0008
000d
002c
0040
003e
0039
000d
0039
0003
ffd7
ffbe
ff9c
ff97
ff53
ff3d
ff48
ff49
ff65
ff5b
ff2b
ff0d
ff26
ff89
ff93
ffd9
0002
002a
0003
003a
0017
0015
001e
002b
000a
001d
fffd
fff6
0011
000d
fff3
ffc4
ff6e
ff81
ff6e
ff3a
ff28
ff58
ff41
ff5d
ff7b
ffb0
ffe3
002b
002b
0005
001c
0005
0045
001e
002a
0006
0009
0042
0019
0037
0019
0043
0000
001d
000f
fff7
fff9
0002
ffe4
0035
fff2
fff0
fffb
001c
0016
0015
0017
0027
0025
0031
0023
0017
