0024
0020
fff6
0016
0014
0021
fff4
0006
0026
fff0
fffb
0011
0030
001f
ffec
fff7
fff6
0013
0023
0003
0003
fffd
fff1
0005
0027
000c
ffee
0013
0020
001b
000d
fff8
ffed
fff1
fffd
0031
ffee
0027
000f
0018
0013
001c
0001
ffeb
fff5
001e
ffff
0009
0026
fffd
0007
0003
0015
0029
0000
0009
002b
002c
0003
001e
0024
fffe
fffc
000d
0024
fffb
fff5
001c
0010
0023
ffeb
0025
fff3
fff2
0003
ffee
002a
fff5
fff1
002a
0008
0007
0009
0013
0034
0002
fffb
000f
0010
ffef
002b
0017
fff8
002b
000e
0022
fffc
ffd9
fffc
ffc5
fff9
ffe1
000a
0006
000d
fffd
0022
fffc
fffb
002f
0011
001e
0006
000a
0002
fff6
ffef
001e
0015
fffc
ffe5
000a
ffd4
ffc2
ffa9
ff63
ff38
fef4
ff3a
ff39
ff6c
ffbf
ffe2
ffea
0007
0025
001d
001b
0000
0001
0024
001a
001e
0013
0017
ffe3
ffe7
ffe4
ffa5
ffa7
ffa0
ff81
ff61
ff44
fee1
feca
fe79
fefe
ff5d
ffb1
ffad
ff94
ff9b
ffb8
ffe3
fff3
0004
0019
0021
0021
ffeb
0022
0015
ff9f
ff8a
ff75
ff64
ff40
ff73
ffd3
000b
00ad
0102
00cd
0090
0078
0098
ffe6
ffdb
ff8d
ff31
ff3f
ff92
ffca
fff8
0011
0032
fffe
fff0
ffee
ff91
ff58
ff3a
ff14
ff21
ffb1
fffa
003d
00eb
0118
0180
0182
0192
00b6
0089
000f
0024
0028
ff76
ff08
ff6e
ffdc
ffdb
0021
0030
0031
0019
fff1
ff8d
ff52
ff35
fee4
ffb5
ffdd
ffd8
ffaf
fffa
0070
0149
00b6
00b9
0026
000f
000a
ffc3
0020
ffb2
ff3a
ff59
ffb0
ffdd
002d
000f
0009
0003
ffae
ff4d
ff76
ffd9
ffb1
ffd1
ffeb
0054
0033
000f
0088
00e4
00cb
fff8
ffc6
0002
ff87
ffcd
ff81
ff78
ff6f
ff9d
ffd5
ffe1
0028
0009
fffe
ffed
ffe0
ff76
ffb8
0043
0058
00b3
00b2
0099
00e7
0074
001b
001e
ff8b
ffba
fff2
0051
fffe
0041
ffd9
ffb0
ffb4
ffa0
ffe5
ffdc
0017
fff8
0009
ffeb
fff3
ffda
007f
0126
00dc
0159
008a
008f
00f6
ffb2
ffbd
ffdc
0011
005f
014e
009e
00a0
0106
00be
006f
0017
ffee
ffd3
fffe
0000
0015
002b
ffe2
ffd1
006b
0117
0143
00c0
00ef
0125
00bb
0002
ff44
00a2
015f
0116
00ed
016b
016e
017b
0186
0105
007d
0003
ffc6
0009
0015
0017
0030
001e
ffd7
000f
00a2
00f4
00e6
0097
00be
007a
006e
ffc7
ff9e
00ff
015e
00fe
0124
0106
0168
016e
011e
00a7
000a
ff8e
ffbe
ffeb
0016
0016
000a
0005
0021
0015
004a
0046
00bf
0085
0041
ffff
0018
fff4
ffb8
0053
002f
00e0
00ee
00ee
00a2
0068
0082
0002
ff7d
ff41
ffb1
000d
0007
0009
0025
0021
0016
ffe5
0005
0055
0051
0036
0037
ff9b
ffd1
ffd1
ffba
ffca
ffbe
00f5
0166
0157
00ac
0011
ffb5
ff3b
ff0a
ff51
ffb2
0001
0014
fffd
002a
0004
ffe2
fff8
0003
0019
ffbe
0034
0093
ffde
0054
0076
fff0
ff79
ffe9
0088
00f4
00f3
003d
ff76
ff1b
fec3
ff22
ff4b
ff88
0004
ffe6
0017
000e
fff7
ffdf
ffd0
ffa6
ff92
ffa6
0029
004f
005a
008a
00c8
007a
0039
004e
00c7
003b
ffd8
ffa8
ff36
ff38
ff29
ff36
ff6b
ff94
000b
000b
fff6
0027
0000
ffe9
fff7
ffb1
ff4a
ff47
ff4a
ffb4
001e
00dc
00b1
ff94
ff92
0007
0084
ffaf
ffa4
ff53
ff98
ff9f
ff68
ff60
ff58
ff89
ffed
0002
0023
0019
0032
0009
ffd5
ffb7
ff7f
ff35
ff2f
ff28
ff2a
ff10
ff35
fefa
ff49
ff65
ff50
ff68
ffce
ff8d
ffe0
ffb3
ffa5
ffaa
ffb3
ffd0
000e
fff1
0005
fff7
0007
0015
0002
ffb5
ff84
ff44
fed9
feae
fe85
fdff
fe77
fe81
ff83
ff50
ffae
ff9d
ffe5
ff58
ffc9
ffbd
ff95
ffe2
ffcd
0005
002b
001a
0008
0003
0000
002b
ffd3
ffcd
ff86
ff53
fef5
fed1
feb3
fea2
fec6
ff38
ff3a
ff37
ff8d
ff83
ff44
ff1d
ffa0
ffca
ffe1
000f
fffc
0013
001a
0001
0003
0021
0008
0009
001f
ffec
ff9d
ff62
ff29
ff60
ff59
ff49
ff85
ff75
ff47
ff65
ff26
ff0f
ff14
ff3c
ff52
ffd0
003b
0021
0028
0042
000e
000f
0018
0027
001e
000b
fff1
ffe4
ffab
ff9d
ff7d
fff6
ffcb
ffd6
ff61
ff7f
ff5d
ff76
ff15
ff02
ff20
ff75
fff2
0037
007f
00b6
0099
0047
fffb
0033
fffa
0000
ffec
fffb
002b
001f
0031
0023
0033
0049
0027
ffe6
ffaf
fffa
ff83
ff62
ff59
ffb4
0037
005e
0061
00dd
00ed
0089
0054
0042
fff3
001d
fffe
000b
002b
002b
fffb
0004
0049
0038
00a0
00b0
00b3
009b
003d
00a3
0091
008b
0083
00f4
0109
0124
0131
0154
00f1
005e
002d
fffa
fffc
000c
000a
0002
0027
000a
fff2
0027
003d
0055
0076
0087
00cd
00d3
00ed
0119
011b
015b
00c8
0089
0074
00ab
00b8
0086
005d
0027
000e
0009
000f
fff1
0009
fff7
0012
fff0
002f
001b
000f
fff9
002e
0027
001b
fff7
fff6
0009
fff7
000a
001e
0003
0010
0034
002f
001a
0010
fff3
0034
001c
fff6
0004
fffb
