0040
001e
0022
000e
0036
0035
003a
000e
0033
0010
0030
0027
0036
0048
0040
002c
002c
0010
004a
004a
002a
0036
002a
0041
0019
0045
002a
003c
0008
0040
0013
002e
0029
0010
0017
003c
003a
002f
002f
0022
0037
003e
0051
0028
0020
0041
002c
001e
0046
0044
001c
0049
004e
0029
0042
0035
0041
0031
004e
000f
000f
0033
0026
0025
0019
002b
0001
0016
0003
0013
0028
0040
0030
0000
0030
001d
003f
001b
0045
0032
0036
0009
003b
003c
0017
001a
002c
0024
004a
0027
0008
0048
fff8
fff1
fff2
ffd8
fff2
0005
001e
003c
ffe2
fff5
fffe
ffd2
fffb
0013
0030
002f
fff7
0042
0019
0046
0036
0021
004a
004a
0008
000f
0041
0029
0010
ffbc
0006
0018
0025
0042
004d
009e
002b
ffdf
ffdc
0019
0058
0062
0062
0072
003c
001c
0019
001b
000a
0040
000c
002d
000b
002b
000d
ffef
ff71
ff70
ffbe
0001
0036
003d
006a
0052
0031
ffb0
fff8
0011
004e
007e
00d1
0082
006b
ffe4
001e
0010
000e
002e
0009
0024
0008
ffeb
ffb2
ffb2
ff4e
ff29
ff79
ffe0
ffdf
ffbc
ffe1
ff65
ff5a
ff58
ffba
ffcc
004e
0081
0078
0065
001a
ffeb
0002
0026
001f
0011
0015
0005
0033
fff5
ffb5
ff66
ff0f
fece
ff30
ffa5
ffad
ff88
ff6c
ff1a
ff37
ff43
ff56
fffa
0024
0016
0015
ffbf
ffa8
ffdd
001d
0021
0025
001f
001f
0041
0015
fffe
ffa7
ff78
fee8
fed0
fede
ff64
ffb8
ffa8
ffb8
001f
ff81
ffd5
fff9
0011
ffa0
ffa3
ff6c
ff3d
ff65
ffda
003a
004c
004d
0012
001f
001b
fffb
fff8
ff8e
ff94
ff3f
feda
fef3
ff96
ffb0
003c
00be
0111
0065
fff9
ffd2
ff47
ff1d
ff20
fee5
ff0b
ff7d
000f
003f
002e
0046
004d
0040
0008
0034
ffc3
ff94
ffce
ff6a
ff68
ff91
ffb6
ffce
0098
01ec
0207
00f7
fffb
ff6c
ff4e
ff29
ff3e
ff49
ff8e
ffda
fff9
0042
001b
000d
000c
0035
0039
0000
ffef
fff7
ffa2
ffc4
ffa3
ff77
ff30
ffe8
0104
0251
0274
00e9
ffcd
ffd1
ff84
ff7d
ff86
ff8f
ffcb
ffea
0034
0049
0033
0008
0046
0022
0017
0048
fff2
ffea
ffe1
ffa7
ff8b
ff08
fea5
fff5
0108
02ba
01e4
0060
0033
ffe2
ff73
ffa7
ffd5
ffe8
ffe2
0005
0047
000b
0032
0007
0030
002c
002f
004f
0000
0007
ffdd
ffd0
ff3d
fe63
fe5d
0001
00dc
023f
0145
0056
002a
ff7d
ff41
ffbb
ffe8
ffe7
fff7
0020
0030
0045
002d
0023
004b
002a
003c
003c
0000
000a
ffe9
ff7f
ff23
fe64
fec8
fff9
00df
01eb
013c
005e
ff51
ff12
ff4c
ff95
ffe1
ffde
ffe9
0035
0008
000f
002b
004f
000d
0033
0020
0012
002e
ffd3
ffcd
ffaf
ff0e
fef1
ffbc
0064
013a
020d
00ba
0022
feb5
fedb
ff4d
ff94
ffb3
ffec
0006
001c
0024
004a
000c
004d
0026
0046
002b
0017
ffe1
ffb9
ffb3
ff45
ff90
ffa7
ffce
fff3
019d
01f0
001c
ff67
fe9a
fed8
ff42
ff6f
ffc2
ffc1
0001
ffe4
0004
0013
0028
0020
004c
0011
004b
0037
ffd4
ff63
ff56
ff86
ffb2
0038
0001
0087
01d9
0196
ffae
fee6
fe99
feda
ff46
ffba
ffdd
ffe7
ffde
ffc6
0011
002c
0034
002f
002b
001b
003f
0023
ffc2
ff59
ff5a
ffc2
0040
0035
0054
00dc
0161
00f4
ff5f
fef8
ff1e
ff3f
ff7f
ffc0
ff94
ffd0
ffb7
ffd3
0029
0046
0048
004a
0034
0036
003c
0007
ffa3
ff30
ff74
ffc7
0021
0011
000b
001d
00a3
0024
ff7b
ff91
ffa0
ff87
ffa2
ff77
ff8e
ffbb
ffc3
0003
0017
001a
000a
000c
004e
002a
001b
ffeb
ffbe
fff4
ffd2
ffff
0013
ffcd
ffee
ffad
ffe4
ffeb
0005
004f
001c
ffe2
ff91
ff77
ff82
ff9d
ffea
000a
003f
0019
004e
0037
001d
002d
0036
002b
0074
0060
002d
0008
ffdf
0001
ffbd
ff67
ff52
fff0
0034
0054
005f
0042
ff91
ff93
ff84
ffab
ffcf
000b
0022
0007
000a
002b
002c
0032
000a
0065
00e1
00e9
008d
0013
fff0
ffcb
ff22
fe97
feec
0001
0036
00cf
0153
0094
001f
ffb4
ffc5
fffb
000a
0005
0021
004b
0024
0046
002c
0038
001f
005a
00c2
00ce
005f
001a
ffd0
ffdf
ff82
ffa8
ffb2
ff97
0029
00f1
0122
0082
ffe9
ffc9
ffaa
ffe2
ffe5
0011
0009
0010
0008
0011
000b
001c
0009
002c
0056
0058
ffe3
ff80
ff7f
ff1d
ff27
ff3d
ff59
ff5a
ff5a
ffd0
0014
0025
0035
002d
000b
0017
003e
0013
001e
003b
0013
004c
0018
001d
0029
003b
0035
0001
ffdf
fff3
ffe2
ff81
ff66
ff8e
ff60
ff9e
ff84
ffb9
fff3
0019
0033
0005
002e
001c
0042
0011
0014
001c
0018
001c
0036
0030
000f
0034
0045
002f
002b
003d
0034
0007
002a
0026
0016
ffff
0014
002d
0046
0033
0008
0030
002d
002b
0014
0012
0034
0047
003a
003a
0049
000c
0028
004d
003d
0045
0040
0045
0021
003d
003f
0006
000d
004b
0031
002d
0007
0021
000e
000d
0019
002c
0040
0047
0045
0044
0017
