3ffaf6
3ff38a
3fff62
000090
000141
3ffee8
3ffb43
00014c
3ff5f1
0000cb
0000d9
3ff76d
3ff738
3ff700
3ff7ad
3ff8c3
00002c
00008e
3ff391
000145
3ffbf6
3ffc81
3fefac
3fff1a
3fff64
3ff0a5
3ff871
000073
3ff327
3ff7f3
3ff35d
3ffb9a
3ff181
3ff911
0001aa
0000ec
3ff08f
3fefda
3ff17c
3ffb3c
3ffc8f
3ff89d
3ff75f
3ff463
000197
3ff398
3ffd3f
3ff68b
3ff6bd
3ff0fd
3ff9bd
3ffe83
3ff271
3fff37
3ffaa4
3ff291
3ff4b2
3ff9aa
3ff93a
3ff39b
3ffc0d
3ffd57
3ff570
3ffd21
3ffe9a
3ff89e
3ff232
3ff291
3ff0e0
3ff2e1
3ff7b2
3ff680
3ff541
3ff4dd
3ffd23
3fffac
3ff84a
3ff348
000166
3ffef5
00000a
3ff613
3ff050
3ff8b4
0001bc
3ffd02
3ff8e6
3ffe18
3ffcd2
000011
3ffb50
3fff1e
3ffe30
3ffa05
00058f
001286
00271d
00207e
00211e
00248f
00195a
001c95
001654
0001ac
3ffdc7
3fe4b9
3ff03a
3ffea4
0000c4
3ff407
3ffa8d
3ff57f
3ffa62
3fff17
3ffbc0
000079
0005f2
3ffff3
0016fa
001365
0034e3
002d70
003856
0043c5
004ea0
005444
004bc3
00378b
001f52
001910
0028f5
000507
3fe3f4
3fd443
3fda9f
3fdb6c
3ffb8e
3ff959
3ff677
3ffd81
3ff236
3ff036
3ff435
3ff439
0002f4
0017e4
002bac
0022e5
0027f1
00233e
001fe6
002988
002a2a
003295
0008a5
0021b2
0026e9
3ffd02
3ffdec
3fee5c
3fe77b
3fcbf3
3fbd6e
3fc7a8
3fefab
000012
3ff4c5
3ff91b
3ff3a1
3ff647
3ff538
000509
001d95
003700
002a10
00203b
0030d0
0027d3
002365
0021dd
002d4a
0040f7
002d2a
00104f
002afa
002767
002582
3fef3a
001000
3ff024
3fc6df
3fc6de
3fdd02
3ff8f6
3ffe71
3ffa80
0000ac
3ffe12
00035b
0018b1
0040f0
004099
002d85
000ccc
000db8
001cf0
0008e1
000d30
002618
002413
003bc7
00231f
000ac3
001e01
0018df
001b05
001b63
0003df
3fe46a
3fbfe4
3fd207
3ff3ed
3ff047
3ff79d
3ff9e8
3ff696
0002ba
00170e
003588
0032dd
00263a
000f9d
0019e4
000c57
0020b4
000a7f
0008ef
000ffd
0040ff
0035ed
000c71
001df8
002b11
001c11
002913
001526
3ff501
3fc495
3fd383
3fefc4
3ff231
3ff612
3ff835
3ff0bc
3ffb21
0009f0
001ba9
0024b3
001e64
000762
3ffc25
3fe3a7
3fc9f5
3f9cc2
3faf79
3ff546
004d6b
0076ff
0044be
002833
002bb1
002862
003c7d
00269a
3ff44e
3fc4fd
3fe24e
3fef41
3ff368
3ff57e
3ffe50
3ffd7c
0000d4
000eea
000d69
0005b5
3feeb4
3fd42d
3fafd8
3f8d6b
3f7396
3f6ffd
3f95ea
3fe53a
003f7a
004961
003e79
003a3f
0023f4
003e5e
0039e3
001731
3feb3f
3fd9b8
3ff1b0
3fefcb
3ff924
3ffe41
0001e3
3ffe43
3ff2bd
000e87
3ff768
3fd312
3fbc9a
3f9ced
3f8425
3f94f9
3fae83
3fd995
3feb31
001ae6
002a3e
002a77
001362
002bfb
00366b
003510
002e52
000038
3feb9b
3feeef
3ff0f9
3ff71a
3ff3ae
3ff233
000088
3ff598
3ffd59
3fff31
3fefab
3fd2e7
3fb10b
3f9d38
3fa6ad
3fd06d
0000f0
0007ee
000c92
001c89
0046b3
002488
0018f3
00234d
001c48
3ffd88
3fdb65
3fcdbc
3fcb62
3fde8c
3ffa20
3ff5dc
3ffa88
3ffc26
3ff8de
3ff530
3ff95c
3ffb8e
3feb1c
3fe12b
3fbfc8
3fb5dd
3fcdb6
3ff61a
3fefa8
3fd560
000364
003cdb
003d78
000b38
001be7
001dc0
000fca
3feb0f
3fc7e5
3fc79e
3fd378
3fe0b9
3fee0a
3fff9e
3ffcba
3ff671
00017c
3ff3cb
3ff830
3ffaea
3ffc22
3fe637
3fc60d
3fcb9f
3fdc6e
3ffb0f
3fdab3
3fd83b
000b45
001d72
001f70
3ffb54
3ff339
3ff67c
00044b
3fe79a
3fdef9
3fefff
3fe946
3ff0a8
3febcd
3fedd7
000074
0000e7
000154
3ff3fb
0001cf
000472
3ffad1
3fe308
3fca3e
3fc679
3fd4f6
3fe6c4
3fe40d
3ff68f
000b9e
002fdd
001b7b
3ffd4a
3fd80c
3ff466
3ffc10
000a83
0018cf
00183a
00085f
00032e
3ff0d7
3ffc99
3ffb33
3ff3ef
3ffb76
3ffd6f
000b06
0001f5
000814
3ff29f
3fea09
3fd9f9
3fad3e
3fa8ca
3fb2b5
3fec6c
00170f
003bb4
3ff98c
3fd46f
3fd1eb
3ff0ff
001370
0032ec
0023d6
002d1a
002bce
001365
3ffa44
3ffc21
3fff78
3ffe90
3ffe3c
0001de
00003d
001be7
000f6c
0004d3
3ff13b
3fcdc8
3fa694
3f7236
3f4f8b
3f5ef0
3f85b8
3fba55
3fbf58
3fc64b
3ffdb5
0011cf
0020a0
0033a5
000ab3
003e7e
003e62
0012c7
3ff6c5
3ff2b6
3ff3e3
3ff4ee
3ff929
3ff996
00056b
002947
001db8
0011ec
000964
3ff51b
3fe035
3f9833
3f671d
3f6f5a
3f5155
3f7170
3fa5d1
3feb7d
002468
003113
0034e3
003449
00249c
0048fa
00441c
001a06
3fe807
3fefc5
3ff430
3ffe1e
3ffe22
3ff411
3ff85a
0033c0
0034c9
003e02
00356f
00139c
0005e3
3fea35
3ff049
3fcebb
3fb803
3fb36f
3fcbd4
001261
003145
003d98
004508
003dbd
0036a7
003fc1
00186f
0002d9
3febbb
3ffc41
3ffdfb
3ffbab
3ffd62
3ff041
000950
003789
004441
0049e2
004e3f
00277b
002e74
003491
001367
3ffab4
3fee5b
3fe4fb
00082c
000e8f
001bc9
003185
0033dd
00234c
003d77
0022ed
3ff97d
3ff201
3fefc0
3ffb34
3ffafe
3ffa6a
3ff568
3fff47
3ffc27
001b9c
0041e8
0041d1
00397d
00206e
00229a
000b71
3ffb72
3ff071
0004fd
3ffd33
3ffbed
3ff868
001023
0005e4
001fa8
0032e6
001d9b
000b52
3ff488
3fe270
3ff664
3ff3ce
3fefef
3ff0f2
3ff95e
3ffb62
3ffced
00112b
002119
002d0d
002832
0016e4
0001c8
001090
001401
00184f
0006bb
3ff726
3ff694
3ff29a
000a7b
0007ff
0007dd
00232d
001111
3ff9f1
3ff820
3ff5b6
3fe963
3fef10
3ffced
3fff88
3ffb4b
3ff34c
3ff574
000b4e
002427
003698
0028ae
002af4
000a64
001b83
00117b
3fffba
3ff237
000234
000597
000dc3
000a3e
001545
0021dc
3ffa48
3fe95b
3fe996
3ff431
3ff136
3ffeb0
3ffc2c
3ff1f2
3ff329
3ff5e2
00019a
0001b3
000036
00173c
00256c
002c17
003407
0034db
002b5a
003f2d
0042b6
004455
0035d2
002f78
00231b
002184
3ffd17
3fe4c3
3fda50
3fde23
3feb56
3fecb2
3ffa4c
3ff667
3fffc0
3ff62f
0001c5
3ffe7f
3fefc9
00013f
00029f
3ffbfd
000e9c
0015fc
000c4a
001d9f
001df3
0037fd
003ffe
0044b4
0035cc
00263d
000f5d
3ff9d3
3fe7c4
3fe7a3
3fec0a
3fec31
3ff605
3ff604
3ffeeb
3ff3e3
00018a
3ff01e
3ffdc4
3ff482
3fefa3
3ff064
3ffc00
3ffc3a
3ff537
3ff371
3ffba5
3ffc02
3ffac2
3ff8a9
3ff9df
3ff6ea
3ffb1b
3ff6d4
3fee4d
3ff524
3ffad9
3ff8e0
3ffb5c
3ff0b7
3ff0fb
3ffdb5
3ff744
000067
3ff43d
3ffeb5
0001d2
3ff830
3ff3c6
3ffa9a
3ff0ab
0000ca
3ffbd4
3fff37
3ffb20
3ffd80
3ff078
3ff344
3ffca5
3ff333
3ffd99
3ff673
3ffa63
3ff6e3
3fffb4
3ff150
3ff3dd
3ffef9
3ffaaf
3ff3bf
3ffc31
3ff186
3ff04c
3fff1c
3ff8b3
