0000c1
000104
000797
0002ed
000c60
3ffa80
3ffc54
000404
000984
000953
3ffabc
00027d
0002b0
3ffe98
0009f6
0002aa
000033
3fffa6
00010d
000373
000667
000c1d
3ffcc1
0008ea
3ffec3
000664
3fff7b
3ffff7
000b69
3ffd90
000290
000b3f
000452
00006a
000b2b
000384
000113
3ffe19
3ffe82
3ffa21
00099b
3fff4e
000b86
3ffcfe
0004fe
0008aa
0009bf
0007c7
000041
0007a9
3fffc6
000c27
00095f
3ffca0
3ffcb3
0004f6
000acf
000aa7
000861
3ffe72
0009b6
3ffb60
3ffc36
00079a
000669
3ffc3e
3fff2a
0004bb
3ffeb0
3ffd84
0002f8
0009c7
0007e4
000176
0003de
000b0c
000960
000adb
3ffa8b
000875
000335
000779
00066f
000985
3fff22
0000a4
0009e7
3ffe7f
00011d
3fff54
3ffc5a
00066f
00000d
000670
3ffab5
00014f
00052e
3ff8dc
0005e1
3ffb28
3ff582
3ff769
3ff8a1
3ffb0b
3ffec3
3ffb73
0003fa
3fff7e
0004cd
000c32
3ffbff
000509
000bd2
3ffbb3
000698
3ffafb
0002c3
3ffdba
000086
3ffb26
0003ae
3ffe45
3ff46c
3fe9ae
3fe88e
3fe99f
3fe554
3fd414
3fe614
3fec7b
3fef09
3ffb6a
3ff357
0005e8
0000e7
3ff9da
000b33
3fff9a
000afa
000aa3
000a14
000067
0009b7
3ffd59
3ff865
3ffeb2
3ffa2c
3ffddf
3ff91a
3feff9
3fd8a5
3fcfb3
3fc335
3fb8c8
3fa724
3fa7ce
3fa384
3fae68
3fbadc
3fcb65
3fdaa0
3ff2ab
3feb63
3ffd6c
000905
000732
3ffe27
000068
000861
000b79
0000ce
0001dd
000c6a
000ec8
00114d
001a0b
0026a2
001ef1
0020ee
0005eb
3fe596
3fc892
3fc627
3fe1f4
3fedc2
3fea58
3fe5bf
3fe1a0
3fd204
3feebf
3fdfc5
3fe88b
3ff04c
3ffabc
3ffa8e
000144
0007a2
000b91
000985
001682
001b4a
00188a
00238b
003654
004a6a
003af5
0028ad
002ccd
002fb9
00092c
0006c6
001115
00325e
0037ff
0025f2
001e6c
00076c
3ff795
0003f4
3ff6ed
3ff784
3fff8d
000601
3ffdbf
3ffa29
000c1f
0004ae
001302
00267d
0022b6
002e79
00536e
003829
0026af
003138
0041ec
003ea8
001f86
00126c
001993
002c6d
00444c
002ece
002818
002001
0000bf
001365
001076
3ff442
3ffa65
00067e
0009fb
000527
0009a7
000cf6
001b68
0025b7
002ad5
000fb7
0014e6
0017b1
000faa
002665
002f0b
003bfb
0030cc
0045e9
00560d
004f46
005878
0039c2
003ad2
003176
002942
001388
3ff8e5
3ff3fd
3ffa1d
000538
3ffd53
0001ff
000a86
000bac
002213
002709
002073
0005fb
0009c2
3ff2e0
3fff81
0017d0
0029ee
001d2c
0043e3
00575a
006b49
007a28
005a88
00474d
004a29
00411c
00375b
001879
3ff603
3fef79
3ff94d
000141
3ffd7f
000943
000681
000bcf
0022e7
002a0f
0014da
000793
0006cc
0001f3
001940
000d06
00106d
001b25
001ae6
001bf8
00521b
006a9e
00470d
0047c1
00372c
00359a
0021b8
001859
3ff78a
3fe75f
3fff50
00025a
000ac9
000840
3fff67
0005df
0015fb
0018ae
000410
000584
00177c
001019
3fff10
3feccc
3fcce1
3f93ef
3f58bc
3f82ce
0002b9
0046b6
00402e
00193f
000912
0001b2
3ff6c0
3ff79c
3ff0e0
3ff51a
000a33
00072b
000017
0008ef
000542
0009a2
0013f2
00076e
000330
3ff974
00044c
3ffcfc
3fef9f
3fca5d
3f8eea
3f3976
3f223c
3f8956
3ff071
002418
001747
000509
000a96
3fea42
3fe42e
3ff979
00020e
3ffab7
3ffbc7
0005a7
3ffa83
3ffd9a
0004c4
0011da
00163d
000e19
00105f
3ffa93
3ff498
3fe6d5
3fc50b
3fa958
3f79f2
3f542b
3f6f0d
3fcadc
00013c
000b0b
0016e3
0041ae
004698
002a79
001b21
001b49
0017a9
000801
000260
3ffc38
3ffc92
0005c2
00087e
00031d
00086c
000865
3fe837
3ff565
3ff143
3fc0ba
3fb339
3f99f0
3f8b0c
3f809c
3fa21d
3fc92a
0001ad
0005fb
005955
006896
005630
004c8a
0041d8
002a8d
001338
3fff34
3ffab1
00016b
000929
0005b4
000b55
3fff10
000be5
00095d
3ff558
3ff0f1
3ffdd6
3fcd10
3fc681
3fa36d
3f91f3
3fbb02
3fd968
3fc80d
001cc8
0022d1
004b95
0040c1
0043d9
0035fc
00291c
00081c
3fef15
3ff581
3ffa08
00066c
000b2e
00005b
000170
0006df
3fff88
000243
3ff933
3fddac
3fd2c4
3fc73b
3fd123
3fc1e1
3fd1e8
3ff146
000b7f
000686
000b74
3ff937
001229
001031
000b82
00061a
3ff697
3feb1d
3ff699
3ff7d5
3ff996
3ffc8d
3ffce6
3ffcd9
3ffefb
0007c7
000267
3ff219
3fdeef
3fc95e
3fbbf9
3fc0d9
3fc4e2
3fb40e
3fe5e0
3ff81c
0000ed
00155d
3fe972
3fe44d
3ff0b1
3fdd1e
3fea99
3fdc13
3fc8cd
3fd79f
3fe680
3febf2
000214
3ffdcb
000079
000ad2
000b97
000a9c
00054a
3ff69d
3fd502
3fbb2c
3fb627
3fb42e
3fb3b5
3fcc56
3fdacf
3fe9c1
0009a5
001e38
3fe072
3fe138
3fd922
3fc237
3fc578
3fb7e8
3fbd70
3fcd55
3fdd18
3fee4d
3ff970
000b19
3ffaf8
3ffa3a
3ffd62
00048f
3ffe24
3ff521
3fded1
3fbaa7
3fb7ab
3fbbc4
3fbd5c
3fd189
3fd010
000378
0004c3
00100a
3fd5b7
3fcb27
3fbaf5
3fa0b4
3fc359
3fac78
3fc04c
3fd1eb
3fec68
3ff2ea
0009e3
000964
000660
0008e8
000955
000218
3ff3ce
3ff9d1
3fe26f
3fdd57
3fce0b
3fd2fd
3fe53c
3fd9e8
3fe0f2
3ff21d
0001e2
3ff7aa
3fe380
3fdf36
3fbbe5
3fbc2a
3fbc06
3fb867
3fc364
3fdc64
3fe511
3ffed1
000427
0008fd
3ffe10
000308
0000b4
000262
3ff87e
3ffc98
000466
3ff52a
000561
000890
3ff250
3fe5f2
3fd38c
3fd673
3fef3e
0004fa
0004e7
3fe62a
3fe001
3fc97d
3fc982
3fc296
3fca3e
3fe4b3
3ff6c5
0005f2
3ffa32
0002d7
00002e
000433
00087d
3ff972
3ffa09
000b43
000f12
0020ca
002bba
0014e2
000429
3ff322
3fe245
3fe7b0
0001af
001109
000fb2
3ff974
3ff64c
3fdd1f
3fcf54
3fce34
3fd920
3fdfee
3feb17
3ff6c4
0000b1
00009b
3ffc8f
3fffeb
3ffedb
00031e
00074e
000fa6
0023fc
003677
003d60
003421
001ae2
0039eb
002233
001dab
0029c9
0019b9
00251e
0015fb
001127
3ffee7
3ff001
3fef00
3feb5c
3fe8b2
3feac9
00033e
3ffe54
3ffa74
00065b
3ffa55
00052f
000963
0008cb
000519
0011f0
001a8e
00290c
003f74
003df0
004953
00443c
003cce
00302a
003132
003422
002bb1
0028d4
0020e9
000b4b
3ff222
0001df
3ff926
3ffaf8
3ffe66
000323
000c6e
000811
3ffb97
000263
000bbf
3ffe00
3ffc03
000afb
0000cb
000a08
000992
000157
000dcd
001457
0005dd
001175
002570
002e3a
002477
002eb8
001aa1
000c93
00006a
0004d5
3ffeb4
0002b2
00008a
3ffcdd
3fff42
3ffe6e
3ffa33
0004bd
000337
0005e6
000804
0004ca
000213
0000dc
000d24
000810
000261
000824
0003f1
000f31
000910
0006eb
00151f
000727
000655
000ea8
0001be
3ffd87
000bf6
00068e
00030b
3ffdd1
3ffb1b
0007f6
