00090a
0007eb
3ffd90
00058d
00051e
000849
3ffce5
00018b
00098d
3ffc19
3ffed9
00042c
000c0e
0007da
3ffb15
3ffdba
3ffd7f
0004be
0008b6
0000a4
0000de
3fff5e
3ffc24
000159
0009c7
0002f4
3ffb8a
0004da
00081a
0006c7
000344
3ffe1c
3ffb4d
3ffc29
3fff39
000c20
3ffb6d
0009d7
0003ca
000612
0004c0
0006e2
000030
3ffaab
3ffd47
00077d
3fffad
000221
00097f
3fff49
0001aa
0000dc
00053c
000a2d
3fffe0
00022b
000ab7
000afe
0000d3
00077d
000915
3fff93
3ffeee
000341
00091d
3ffeb1
3ffd39
0006f8
00041d
0008b4
3ffadf
000930
3ffcb1
3ffc7c
0000d7
3ffb9d
000a8b
3ffd3c
3ffc37
000a7f
0001e3
0001d5
000258
0004ad
000d14
000071
3ffece
0003df
000419
3ffbab
000ab5
0005dc
3ffde4
000ad0
000363
000885
3fff20
3ff642
3fff20
3ff131
3ffe2d
3ff848
000290
00018b
00034e
3fff2d
00087f
3ffeeb
3ffebe
000bb2
000459
00076e
00016f
00026a
000098
3ffd7a
3ffbd8
00078a
000536
3fff0a
3ff95f
000285
3ff50b
3ff093
3fea50
3fd8a6
3fcde9
3fbd0b
3fce84
3fce5f
3fdb17
3fefc6
3ff866
3ffa88
0001d3
000954
00074e
0006c5
00000c
000055
00090b
00066b
000783
0004c2
0005be
3ff8dd
3ff9a8
3ff8f6
3fe947
3fe9bb
3fe7ef
3fe052
3fd84d
3fd10b
3fb852
3fb29a
3f9e2f
3fbf85
3fd75e
3fec4f
3feb3a
3fe4f4
3fe6d3
3fee0c
3ff8d9
3ffcb0
000118
000656
000820
00085c
3ffac2
00086f
00055e
3fe7d1
3fe291
3fdd55
3fd8eb
3fd00e
3fdcc9
3ff4be
0002d4
002b49
004093
00335e
0023fe
001de8
0025ed
3ff99b
3ff6df
3fe326
3fcc4a
3fcfdf
3fe470
3ff296
3ffdf7
000460
000c78
3fff8c
3ffbf2
3ffb82
3fe45c
3fd5f8
3fce83
3fc519
3fc84b
3fec5b
3ffe65
000f44
003aa9
004605
006000
00607e
006464
002d80
002242
0003b4
0008e6
000a13
3fdd6c
3fc20e
3fdb7d
3ff6e0
3ff6a7
000831
000c19
000c2e
00062f
3ffc47
3fe33b
3fd473
3fcd4b
3fb91b
3fed44
3ff753
3ff5f5
3febd3
3ffe75
001c19
005245
002d69
002e3c
000977
0003a6
000273
3ff0cb
0007e5
3fec85
3fce96
3fd641
3febfd
3ff741
000b48
0003ac
000233
0000d2
3feb6c
3fd322
3fdd97
3ff641
3fec47
3ff443
3ffaad
001517
000cb5
0003ba
0021fb
0038e6
0032bb
3ffe07
3ff175
000090
3fe1b5
3ff326
3fe03e
3fddff
3fdbb9
3fe744
3ff531
3ff827
000a05
00022c
3fff90
3ffb2b
3ff81e
3fdd6f
3fedec
0010db
001614
002cce
002c7e
00264f
0039b0
001d0a
0006d7
00076a
3fe2cd
3fee97
3ffc8e
001457
3fff91
00105d
3ff63a
3febec
3fed0d
3fe7f1
3ff921
3ff6e8
0005c0
3ffe1a
00024e
3ffacd
3ffcb2
3ff685
001fcd
004992
0036e9
005646
002296
0023dc
003d9b
3fec67
3fef58
3ff700
00045a
0017cf
005362
002763
0027ed
004179
002f61
001bae
0005b9
3ffb78
3ff4b8
3fff82
00000d
000536
000abb
3ff899
3ff42f
001ad8
0045c2
0050b6
002fe0
003bd6
00492b
002eba
00008c
3fd11f
00289c
0057bd
004569
003b59
005abd
005b64
005ed7
006180
004127
001f56
0000d4
3ff17e
00025e
000543
0005b2
000c10
000768
3ff5da
0003cf
002897
003d0b
003986
0025c3
002f6a
001e70
001b81
3ff1c1
3fe762
003fd4
00578d
003f70
00491c
00418b
0059ea
005b7a
004780
0029c3
000264
3fe38f
3fef6e
3ffada
000565
00057b
00026d
000133
00084c
000546
001292
001181
002faa
002159
001036
3fffd3
0005ef
3ffd0b
3fee02
0014b2
000bc1
0037fc
003b61
003b76
00287f
001a07
00207a
000098
3fdf37
3fd05d
3fec4b
00034a
0001e0
000238
000921
000853
000583
3ff958
00015c
001533
00144e
000d69
000dad
3fe6df
3ff454
3ff43f
3fee75
3ff26d
3fef8c
003d29
00598a
0055d2
002af8
000426
3fed56
3fcec9
3fc29c
3fd426
3fec7c
00005c
000504
3fff4a
000a82
0000e1
3ff879
3ffe11
0000ab
00065b
3fef98
000cf5
0024cf
3ff760
0014e2
001d9b
3ffbf7
3fde51
3ffa5d
0021f4
003d19
003cb4
000f29
3fdd7b
3fc6b6
3fb0cb
3fc864
3fd2d1
3fe21a
0000fd
3ff979
0005a6
000378
3ffdaf
3ff7c7
3ff3fb
3fe97e
3fe49d
3fe96d
000a2e
0013d3
001694
00226d
003218
001e8d
000e33
001368
0031d4
000ecc
3ff5e7
3fe9fb
3fcd68
3fce0e
3fca3c
3fcd6f
3fdac6
3fe4e4
0002b5
0002cb
3ffd9d
0009b4
3ffff8
3ffa56
3ffdbf
3fec35
3fd28f
3fd1ad
3fd28e
3fece9
000793
0036e4
002c5e
3fe4eb
3fe483
0001b3
0020fc
3febc8
3fe8f0
3fd4d1
3fe603
3fe7a2
3fd9f7
3fd7f9
3fd617
3fe25a
3ffb49
000099
0008df
00064b
000c93
00023b
3ff521
3fedd5
3fdfd7
3fcd2c
3fcbd6
3fc9fd
3fca6c
3fc409
3fcd59
3fbe6e
3fd22b
3fd95f
3fd40e
3fda13
3ff39c
3fe324
3ff7f1
3fecb3
3fe921
3fea69
3feccc
3ff3ec
000379
3ffc33
000159
3ffda2
0001c1
000557
000068
3fed31
3fe0f2
3fd0e9
3fb63d
3fab85
3fa13b
3f7fb4
3f9dcf
3fa052
3fe0b1
3fd417
3feb60
3fe744
3ff956
3fd5f3
3ff227
3fef4f
3fe533
3ff872
3ff329
00014b
000ab4
000674
000206
0000dc
000002
000ab4
3ff4a8
3ff358
3fe161
3fd4c1
3fbd41
3fb43a
3faca4
3fa89e
3fb16a
3fcdef
3fce96
3fcdc5
3fe32e
3fe0c8
3fd102
3fc74c
3fe7f9
3ff299
3ff846
0003c9
3ffeee
0004cf
000693
00005f
0000c9
000836
00020d
000251
0007dc
3ffaf3
3fe744
3fd86d
3fca2b
3fd7f0
3fd625
3fd24c
3fe124
3fdd4f
3fd1d7
3fd935
3fc9a0
3fc3db
3fc50a
3fcef7
3fd467
3ff408
000eac
000828
000a1f
00108b
000378
0003dc
000609
0009a3
000790
0002d5
3ffc39
3ff90f
3feabb
3fe745
3fdf4d
3ffd88
3ff2c7
3ff568
3fd85f
3fdfb5
3fd742
3fdd8e
3fc530
3fc084
3fc81f
3fdd2f
3ffc9b
000da2
001fa3
002d9a
002632
0011e0
3ffec7
000cd1
3ffe82
3ffff5
3ffaf2
3ffea5
000acc
0007c3
000c29
0008d6
000cd5
001222
0009ca
3ff98b
3febad
3ffe90
3fe0cf
3fd893
3fd660
3fed20
000db2
001760
001829
00372b
003b5f
00222d
0014e3
00107e
3ffcc4
00075f
3fff83
0002b0
000ab5
000abd
3ffede
000102
001255
000de3
002814
002bed
002cb8
0026b1
000f5d
0028b3
00244e
0022c2
0020ac
003d09
004254
0048f3
004c24
0054fe
003c4f
001788
000b28
3ffe81
3fff1a
000320
0002a0
000074
0009c1
00029e
3ffc72
0009d0
000f33
001553
001d9e
0021b8
003323
0034c4
003b45
00462f
0046ce
0056b2
003203
002241
001cee
002aaa
002e0e
00216f
00174a
0009b0
00037e
00022d
0003dc
3ffc57
000222
3ffda9
000476
3ffbfa
000bd2
0006c9
0003c0
3ffe53
000b7d
0009b6
0006a4
3ffddc
3ffd9a
000248
3ffdde
00027a
000760
0000ae
000406
000d1e
000baf
000695
000405
3ffcbe
000cf7
00070b
3ffd9b
0000e6
3ffeb1
