3ffffd
000240
000f1f
000f1a
000047
000049
000bd7
00033c
000100
00023c
000070
000adf
000e4e
000825
000a84
00012a
0009d9
000d81
0002d8
000ae6
0000d0
000679
000e90
000174
000e8e
00024f
000feb
00068e
00042a
000773
3fffe1
000140
000748
001190
0003a2
3ffd2f
0009c1
00005a
00068b
3ffae2
000481
3ff8f5
000060
0009a6
000b5f
000358
00002d
0002db
000c3b
3fffb6
3fff98
000101
000ad4
000b77
0002b7
000b6e
000d1c
000886
000cf0
000d45
000c92
000b35
000ee4
3ffb3d
3ffade
0002b6
3ffe40
3ff72b
3fddd8
3ff234
3fef78
3fe899
3feef5
3ffca6
000444
000c04
000f9b
0008ff
000eb4
0003f6
000592
0009f2
00009e
0006ed
000d39
000be3
000497
00077b
0007c1
00001b
0009ed
3ff734
3ff326
3ff8fe
3fe2a3
3fdd40
3fc88f
3fcb1b
3fcda1
3fc2e0
3fd731
3feb9e
0002ff
000689
000bd6
001171
000491
0004a8
0010f8
00104d
00050b
000991
00107c
000af0
000c52
000bf3
00071c
000d81
3ff5df
3ffdbe
3feb54
3fee84
3fce4a
3fd0b4
3fbf52
3fca49
3fbe0d
3fc78b
3fe492
3fe79e
3ff169
000e07
001353
001613
001505
001be1
0007ba
000faa
0003fc
000292
0010c5
0004b2
000bd7
0003e0
000ada
000230
0007ad
3ff6af
000280
3ff53b
3fdba3
3fe7eb
3fd6b0
3fccba
3fdc23
3fe267
3ffb0b
00048b
3ff8e8
000bf1
000ea6
0013ca
002e1e
003409
001c4e
3ffd3a
0004a6
0002cf
000f90
001136
000520
000d88
000eba
000c19
000bfe
3fff0d
3ffd49
3ff1b9
3fe328
3fcd41
3fb31c
3fa519
3fa112
3fad98
3fab90
3fce81
3fccd8
3fe8fd
3ff0dc
3ffed8
004203
004559
001aae
0014eb
000ef3
0000a4
00075b
0003da
00054c
00095e
00055f
000c88
3ff83f
3ffe96
3ff76a
3fec84
3fcec0
3fb333
3f9c3d
3fb97f
3fa7d6
3fa72e
3fa4a7
3fc5c3
3fc457
3fd677
3fcffe
3fea19
0028c6
00372c
001d6f
001095
000f8b
00093b
000efb
000c93
00108c
000333
0004fb
0006d2
000496
3ffc04
3fdadf
3fed1d
3fe754
3fce60
3fb752
3fd18a
3f96ae
3f93d0
3fabe7
3fcb55
3fd0ba
3ff11e
3fe327
3fe3a4
0012c9
001ce9
00160d
000462
0005f2
000ace
0011cf
000efb
000dfd
0002ef
3ff6b7
000046
3fe918
3fef90
3ff555
3ffc7e
3ff34a
3ff0b6
3ff03e
3fd616
3f6831
3f8e6d
3fe473
3feba3
3ff9b6
00035d
3ff00c
3ff06a
0007dc
0001c9
3feded
3fed31
3ff7d9
000c09
000981
0006b9
0006cc
0001dd
000710
3feb90
3fde32
3fef95
0004e3
002b43
001a2f
001393
001770
3fc5f1
3f5fb1
3fcf23
000598
3ff8cd
3ffa84
0005ac
3fe000
3feadd
3ffc03
3fdd2b
3fec43
3ff37b
0009fb
00107c
000b18
000b91
0009c4
3ff9e2
3ffdbd
3ff494
3ff3e8
000a3e
0020bc
003727
004c06
00305b
003695
3fa712
3f8747
000fac
003e6d
000a84
3ffc63
3ff5fd
3fddda
3fe2cf
3ff11d
3fe4fe
3fe1fd
3ffe4f
3ffefc
000423
000c65
000add
000527
000771
3fff3e
3ff4d6
00201c
0034ed
0051fa
0047d4
007779
00875e
007ff4
3ffde1
3fc059
003213
005152
00093d
00036c
000b1b
3ffe0b
000266
3ffc5f
3fee12
3feff9
3ffb7d
0011ab
000a38
0001ee
000ba2
00019c
0004df
000dbb
0026bb
004ed2
005b73
006923
0057d7
006682
00a70d
007ea2
0001e7
3fee06
003aad
003c45
0042f1
002e2a
0014c5
002e3b
002207
001037
3ff68e
3ff7b4
0000ef
000e30
000a28
0001ce
000e81
000129
001110
00224a
004507
005ff4
006904
004e74
004afd
005a5b
006d82
004fba
00069b
3ff464
001532
00431f
006e4d
004aea
0044dc
002670
0019d8
000868
0004c0
3ffd46
00049a
0008a3
000413
000bf8
00112e
000b08
000e33
001f00
002327
0036a4
003251
0050f7
00458e
003068
002326
002986
000833
002150
002e99
0060bc
0055f3
003d70
002465
3ff634
000d82
00186c
000292
3ff14c
0007bd
0001fa
0004e0
000550
00001a
0000a1
3ffde0
00086c
0014c0
0021cf
003b0a
0055f0
003d3a
001066
3ffdc5
0010d5
0014ff
004edf
006d11
007054
005d52
003f2a
0007ea
001a7f
0025a1
0008cb
3ff9cc
3ffe4b
0003aa
0006c8
00071f
000650
000672
000cdc
3fffcb
3ff6fa
3fed71
000afa
002ed2
005a4b
004e46
001c5a
00164f
00204d
004d73
007ff4
006543
0054b5
001a2b
00040b
3fe3a7
00087d
00031b
3feead
3ff88b
3ff4b7
3ff98b
000b64
000ded
0006fb
000aaf
00095a
000165
3ff519
3fe90f
3fe55c
3fff7c
00171a
000547
3fed30
3ff4e0
001d88
00214a
00383b
00301c
001921
3fd915
3fdb23
3fc9f1
3fdfef
3fdebd
3fd3b2
3fddab
3ff70d
3ffb41
00041d
000092
0006c0
000c81
0004c2
0002da
3fe741
3fe141
3fd761
3fc2f8
3fbb2a
3fb6a3
3fa971
3fad35
3fb6af
3fd508
3ff33d
000b29
3fdeaa
3fe34e
3fdca8
3fcf3c
3fc97c
3fcdc9
3fccf7
3fdd7d
3ff6e7
0006d6
000c16
000b0b
0011fd
0010a7
0004d0
0002dd
3febec
3fdda5
3fce17
3faec4
3f9f71
3f99b0
3f97d0
3fb3b9
3fc252
3fbb0b
3fd4ab
3fe96b
3ff833
3ffba5
3fee17
3fd92f
3fe5e7
3fe277
3fdc5a
3fedb9
3fee73
00014b
00043c
000c07
000353
00053d
00015f
000265
3fffcc
3fec6d
3fced2
3fbb19
3fc1fb
3fb97a
3fc29b
3fd267
3fda15
3fdce0
3fd7c4
3fed64
3fe72f
000479
3ff898
000157
3ffcc5
3fe7da
3feb8a
3ffc3b
3fff57
000772
0009fe
0009a2
0008ab
000a13
000403
000b08
3ffd67
3ff590
3febb4
3fde7f
3fd2bb
3fe482
3fe3ab
3fec59
3feb47
3fee36
3fe9c8
3ff259
3ff2e7
0004b8
001414
0020c3
001925
00107d
3ff518
3ff548
3fff99
000731
000126
000584
00059d
000063
0004f8
0009d2
00058d
0006d0
3ff531
3ff3fa
3fefbc
000794
3fee81
0002d4
3fede7
3ff1c8
3ff21c
3ffefa
0004a0
000c3a
0025b0
0024c6
001f59
000df7
3ffad3
00043f
000850
000b61
0003b7
000e29
000ab4
000f4b
00073d
000c20
0002d9
000948
000387
3feec6
3fee69
3ffa65
3fed58
3ffcf5
3ff296
3ff3a4
3fe93f
3fe67a
3ff4fd
3ffa47
000201
0013d1
000e78
3ffa14
3ffe4b
0007a7
000c99
000203
000344
000ae7
001004
000f88
000e30
00032d
000e47
0000ae
3ff5cb
3fef63
3fe703
3fe5b7
3fd4d6
3fcf50
3fd206
3fd243
3fd922
3fd6dc
3fcac4
3fc352
3fc983
3fe223
3fe4b1
3ff623
00009c
000a72
0000c8
000e84
0005ce
000545
00077d
000acc
000271
000732
3fff47
3ffd86
000456
000321
3ffcb5
3ff0e2
3fdb8e
3fe034
3fdb9f
3fce97
3fca05
3fd5fd
3fd027
3fd75f
3fdea5
3fec20
3ff8b9
000ac4
000aab
000159
000700
000125
00112b
000784
000a6b
000187
000251
001081
000631
000dbe
000656
0010d5
3ffff7
000742
0003b7
3ffda9
3ffe49
00009e
3ff901
000d5a
3ffc93
3ffc16
3ffead
000708
000567
00055e
0005b4
0009be
000952
000c51
0008d4
0005dc
