3ffd28
0005cf
3ff970
3fff7f
3fffc8
3fff1c
00030d
000937
3ff9f3
3ffbfc
3ffc3d
3ffa38
0002fc
00086b
0004bb
3ff84d
3ffef1
000937
000190
3fff2f
3ff8e9
3ffb44
00022c
000814
00045b
000550
3ff8cc
3ff919
0005ee
0004b3
0005f9
3ffe7a
3ff7ec
3ffb2e
00041f
000d6a
000919
0002bb
000b01
000bc0
000c85
000bcb
00076d
0007f2
3ff784
000790
000a41
0005d7
3ffe5a
3ffaca
000ae3
000837
3ffc9f
00092c
3ffe6b
0006c9
3ffaa7
3ff990
3ff7e9
3fff35
00048f
0002d0
0004aa
000d1f
000955
0013e2
001904
001c45
001c55
001dc4
000f16
000ab2
0018d8
000af6
000aaa
000bad
000b6b
0005c8
00079c
00016c
000430
3ffd9d
3ff794
000294
3ff8da
0000d8
0006bd
0003e4
0008d7
3ff84f
000996
000a82
000c82
001959
001675
001c1f
001b71
001a6a
0026dc
0024a8
0016ca
001cc5
002e39
002e18
00312b
002b8d
002c19
00199d
0016bc
00058f
3ffc18
000507
000153
3ffe52
3fff68
0007d0
0006b9
000274
00027e
000fb4
3ffe3f
3ffcb8
000f31
0005b8
00070b
00028b
0005fb
0008fe
001ecf
001e82
002fc6
003092
003d4a
0043ff
003a7f
002748
000591
000a6d
000173
3ffffe
000193
0004c0
0002b5
3ffc63
3ff982
3fff49
3ffa90
3ff53c
000811
3ff59c
0003c0
3fdc52
3fed1c
3ff2f4
3ffb34
3fef26
3fef27
00033e
0016ec
002af7
002548
002153
001a4b
00120a
3ffde8
0000e8
3ff6f0
00088f
3ffed3
0007b5
000730
3ff6b9
000349
3ffe89
0002f9
000039
3ff2bf
3fefd9
3fd6e9
3fca48
3fe0c9
3fc2c1
3fe4fa
3fec29
3fe3bf
3fe708
3ff911
3fef40
3fe4da
3fe61f
3fd7c4
3fe5c2
3fea3a
3fe90c
3ffc93
00077a
0002f8
000472
000045
3ffe87
000080
3ff809
3fefdc
3ffd67
3fe919
3fe38d
3fd699
3fdf75
3fc585
3fbe77
3fdda3
3fdf66
3fcce9
3fcfa3
3fc407
3faea3
3facf7
3fba8d
3fb75b
3fc69f
3fea12
3fec29
3ff82c
3ffa06
3ffd1d
3ffd8d
0008c7
3ff4c7
3ff6ab
3ff393
3fe0d0
3ff928
3ff47d
3fdf63
3fd9e9
3fd457
3fcb72
3fc30d
3fc49d
3fc08f
3fb4c9
3fa95b
3f858f
3f8e07
3f9a18
3f9b16
3fb97a
3fc1e3
3fd93a
3fe793
3fee78
000299
3ffebc
3ff92d
3ffc16
3ff83b
00003b
3ff8d8
3ff51f
3ff9b3
000774
3fec51
3fdac5
3fe373
3fed9d
3fdd52
3fe03b
3fba80
3faf06
3f8ab2
3f82df
3f99d0
3fac2e
3fbd53
3fb2c7
3fce5d
3fda22
3fe3e6
3ff470
000613
3ffa1e
0007ad
000532
3ff6ff
3ff2e6
000353
000acd
000a61
002600
3fff36
00078e
000325
3fe904
3ff060
3fddb5
3fb810
3fb6da
3faa3b
3fa6b2
3fb8b1
3fcf96
3fdd54
3fd261
3ffb39
3fe253
3feb60
3ff9df
3ffd09
3ffb3a
00031d
3ffac4
3fff40
3fface
00015a
3ffd2f
001fca
0016bf
000af1
000dc1
0009bb
0009c0
000190
3fef6f
3fc6f3
3fca7e
3fd276
3fd244
3fdc66
3fef5f
000668
0015d3
0021f3
3fffeb
3fedf1
3ff876
3ffd3e
3ffb35
3ffd6f
3ff836
3ffc47
000489
000ee2
0016bb
001dd0
000dd3
00135d
000dab
0023ed
002292
0018bd
3feacd
3fd9b8
3ffe65
3ffc77
3fda87
3fdc17
3ffb8b
001448
003100
0056f0
002ec3
3ff2a9
3ff0af
3ffb60
3ffb72
000814
00062c
3ff737
3ff3fe
0004d7
0025bb
00144d
001173
0008a0
00249f
001e90
001c0a
0004f3
3ffad1
3fff1b
0002d7
3ff7c2
3fdf62
3ffbb6
3ff04f
001a14
0043d8
006b7c
003a11
3ffb5d
00002d
000545
3ffc24
0000d9
000618
000052
3ff34d
000d85
00229a
001dd2
00290c
002672
00299c
002d0c
000f2b
3fea06
000176
00125b
0008b1
3ff1b6
3ff21e
3ffe01
001d70
001d1b
004cd1
005964
003a9b
3fff2f
3fef39
3ff7be
000646
3ffcd1
00013a
3ff913
3fe7c0
3ffcf1
002413
002ff4
001ee0
003077
003d15
004a88
001379
3ffa99
001cc2
001a73
000418
3ff273
0002bb
000ed7
002270
002f45
002b6f
0035d2
001cb8
3ff146
3ff6d7
3ff6a0
0001ab
3ff927
3ff8e6
3ff825
3fdff2
3fee9c
003571
00369b
002421
0037be
005e8b
005dc6
001c9a
001101
0028c1
001581
3ff4c1
3fe9b5
0007b5
0017d1
000b15
000053
001640
000d54
3ff987
3feeac
3ff55f
3ffe8c
000193
000544
000743
3ffeba
3fd248
3fe816
001659
002a77
003052
003cf1
00692e
006ae3
00373a
001f1a
001f7b
0013df
3ffffd
0005be
002bcd
000f1f
000645
3ff4d4
000a05
3ffddd
3ff38e
3fe7c2
3ffc86
0003f4
3ffc6d
3ffb0f
3fffdd
3ff2a9
3fd51c
3fd621
3febb9
001d35
002ecc
002a89
0049a8
005ad9
006b0d
0031b9
000d73
001bac
002fc3
001efc
002697
00144f
00029e
0006c6
00077e
3ffbc2
3ff0ba
3ff4ba
3ff746
3ff6b7
00024b
3ff985
000418
3fef12
3fe439
3fd370
3fdd62
000273
001e61
002fb8
003f8c
006547
0071f4
003abf
00347b
0036dd
00270f
00201b
003216
00221e
001615
0004bf
3ff804
3ff623
3ff5ab
3ffe57
3ffb0c
00074b
3ffb85
3ff97c
3ffdb8
3ff853
3fdc75
3fd580
3fdb32
3ff0f6
000a0d
001ff1
00349b
002310
00450a
0052c5
00623f
0053a5
002d57
001d01
00384f
0027b5
001aef
3ffa78
3feb21
00015c
3ffaf3
3ffd7a
3ff9ae
000156
3fff2f
0000d4
0002aa
3ffd49
3ff288
3fe2bc
3fce4d
3fe980
3ff286
00180b
002ba8
003e19
004fde
00511c
004416
003ab1
0024a0
003216
002eb1
001dd9
0003f8
3ff02f
3fe9d8
3ff31e
0000c0
3ff7a9
3ffe33
3ffb5e
3ffb55
3fff33
0007f6
000228
3ffb4c
3fe680
3fe1b9
3fd760
3fe4e9
3ff3b3
3ff5e5
0004e7
00175a
000a1c
000883
001935
0012c3
000029
3ff9ba
3fe3d4
3fe4e6
3fe973
3feaed
3ffdf7
3ffc4f
3ff825
000899
000350
0006e7
3ffd47
3ffc25
0000cb
00026d
3ff576
3fef85
3fdbd4
3fd244
3fbe34
3fbe87
3fb3b2
3fd0fa
3fdaf3
3fe31e
3fd50d
3fc78e
3fbffd
3fcd8a
3fe8fe
3fe896
3feb80
3ff8b1
000104
3ff777
3ff8f5
3ffcfe
3fff21
0004f2
0003fc
0002b8
3ff7e2
3ff98e
3ffcf8
3ff836
3ff363
3ff607
3ff00e
3fe81c
3fe1c4
3fdcd8
3fdd99
3fd7d8
3fd7e2
3fd60d
3fdffc
3ff4e3
3ff5aa
3ffc64
3ffa4a
00043e
3ffe24
3ff7a0
3ffd5c
3ff9c3
3ff9ec
0007d2
3ff8b9
000224
3ffc49
3ffa4c
3ffeed
000534
3fff96
3ff720
000337
3ff758
3ffeaa
00006f
3ff6d6
3ffaf3
3ffcea
3fff2b
3ff803
3ffb52
3ff72e
3ff90d
00011a
3ffcaa
00065a
0008fc
0007ef
00005d
0005f5
00086e
3fff9b
00018a
3ffe64
3ffb41
00071b
000559
3ffb63
3ffd3f
000404
3ffcab
0001c4
3ffc7e
00053b
000581
3ff8e0
3ffa93
000733
0005a8
3ffd3b
000512
3ffe15
3ffdfc
000326
00039b
3ffe3d
3ffbc4
3ffd92
000825
3fff98
000499
3ffb55
0002d9
3fffc5
0007a7
000117
3ffefc
3ff6fd
3ff9e6
0002c6
3ff7db
3ff931
3ffad7
3ff7b1
3ffa5d
3ffd37
3ff88c
3ffa60
3ffb23
3ffc08
00078a
3ff8a4
3ffb32
3ff8e2
3ffaff
000163
