3ff7b7
0004bd
3ffd6d
3ffecc
000591
3fff6c
3ffabe
3ffa65
3ffeb7
3ffd3c
000634
3fff82
0002d8
3ff7ee
3fff8c
3ff4ea
3ff6c6
3ffd89
3ff682
00062b
3ff6b8
3ffd09
3ff602
3fff00
000316
3ffdcb
3fff89
3fffb0
000384
000452
00016c
3ff644
3ff5c9
000088
3ff7ec
3ffdbf
3ff9be
3ff494
3ff8b6
000098
0006f3
3ff679
3ffad8
000303
3ff819
3ff53c
000205
0004d2
3ff7b5
000242
3ff8fc
3ff717
3ffe3d
000097
3ffd2e
0005ff
3ff5a3
3ff9a2
3ff909
0002f0
0000ce
3ff54d
3ffd71
0005b8
3ffc8b
3ff853
3ff89e
3ff35c
3ff28b
3ffb5b
3ff20f
3fee1c
3ff2f3
3ffc95
3ff4e9
3ff1b7
3ffd8a
00044f
0000c9
3ff81c
000563
3ff4a0
3ffd3c
000299
3ff55b
3ffd7f
000602
3ff5a6
3ff892
0004de
0001f5
000038
0000c8
3ffd46
3ffc66
3ff1e7
3fecb1
3ff511
3ff0e5
3feee7
0002d8
00015f
3fecf3
3fefb2
3fe8aa
3fef6c
3febff
3ff21c
3ff65d
0003a8
00038a
3ffa7d
000163
3ff532
3ff866
3ff572
3ff412
3ffe70
3ffcc2
3ff54f
3ffc64
3ffdb0
3feeaf
3feee1
3fef27
3fefec
3ffb9e
3ffe48
3ff2bc
3ff38c
3ff32a
3fee15
3ff8b5
3fe8f3
3ff707
3ffebf
3ff5f5
3ffb79
3ffa1a
3fff08
0002d5
3ffae9
3fffc1
3ff686
3ffd6e
3ffb60
3ffc9e
3ff8d5
3ffcc0
3ff313
3ffa2d
0003cf
000f1f
0020a9
002778
002706
002be5
002f3c
0031fa
00119e
000320
000821
3ffbf7
3fff6e
3feaab
3ff082
3ffee8
3ff7c0
3ffbb5
3ffdff
000127
3ffc75
00002a
000089
000138
3fff84
3ff54c
3fedcd
0009f4
3ffe70
001b11
0017f6
0016e0
0021f2
002962
003aa3
00368e
002e84
002ce0
003338
001d05
000a60
3fe9c4
3fe8d9
3ff057
000258
00055c
0000de
3ffee5
3ff25a
3feadc
3ffe22
3ff77d
000028
3ff615
3ffd15
0001e4
001355
00283c
00250b
000f2f
0017a0
0021bc
003ef7
002e57
00288d
001092
001fd1
0022f7
0011e1
3ff26e
3fe9bb
3fec01
3ffec6
000609
000235
3ffd70
3fffe5
3ff07c
3ff3f6
3ff61a
3ff3d4
3ff992
3ff940
001317
001415
000a4b
000451
000722
001c53
005298
0041bd
003d0a
001330
001024
000ec6
002435
003f17
3ff90d
3feb02
3ffdea
3ff4fb
3ffe4a
3ffef4
0001da
000161
3fec83
3ff21d
3fec14
3ff492
3ff4bb
3ffa39
000dbb
3ff445
0006d0
0014ae
001261
000fb0
002d3f
003c4a
004550
002818
000c34
3ffdbd
001dbd
00402d
0012b8
3ff034
00003a
3ffe0e
3ff5df
0004f5
3ff777
3ff07e
3ff1c7
3ff4bd
3ff676
000141
00068e
3ffe7a
3ff519
00038b
000473
3ffd6c
3fea3b
3fda90
3fe987
0015b7
003722
003920
00328f
0024a1
00364f
004a45
00235c
3ff16b
3ff15e
3ff4d1
3ff86c
3ff5df
000443
3ffcda
3fe421
3ffa0f
00045b
001507
000fcc
3ff9f3
000588
000090
000add
3ff89a
3fc4f0
3f9293
3f990c
3fd7c7
3ffaa3
001d0f
002e7e
002b0b
003ab3
00429c
002fe7
3ff6ca
3fff61
3ff427
3ff803
3ffd75
3ffc5a
3ffcf8
3ff049
000286
0016ea
0017f0
000b95
3ffcc9
00106f
000ba7
00157e
3fee57
3f8c18
3f706e
3f710f
3fb1da
3ff22a
3ffa44
000706
001403
004c22
0045a1
003060
0001ba
3ff863
3ff84b
3ff4a6
3fffbd
0003fe
3ff524
3ffbd7
000e37
001bc3
0023d9
001b1e
0012fe
0019ec
001425
000e87
3fb96c
3f8be4
3f6c75
3f86d9
3fc3db
3fe298
3fd88a
3fe1d4
000d40
0031f1
004e6c
002c85
00072c
00000d
000452
3ffe61
00036b
3ff74a
3ff9b2
3ff279
0024ad
002fa3
0039d8
001bc2
00215a
00310f
001c2d
0006e2
3fc292
3f7717
3f6c0b
3f8a49
3fbf9a
3fe3a8
3fddba
000311
001be7
00214f
004f3c
00293b
3ff7a9
3ffbdc
3ff719
00049c
000290
3ff877
3ffe43
3fff62
0033ce
002595
0033b9
0023b5
002f59
003bdf
001084
3fd2eb
3f8d1e
3f6691
3f6de9
3f9d51
3fcfd7
3fee07
3fee9b
000ef8
000d26
003252
003b27
001ea0
3ffcf9
0000e0
3ff7e9
000155
0005cc
3ff447
3ff9a9
0008be
002efd
003a65
002d29
001f5c
001f9e
003550
3ff900
3fa872
3f67ba
3f6bb2
3f8a5c
3fc0fd
3fe293
3fff9d
0009a6
00162c
0020f4
002d52
002b43
001075
0000cd
3ffaa1
3ff8c2
3ffbc9
00016d
3ff618
3fecc0
0001a3
002161
0029e1
0028b6
000cb3
0020b0
0033a8
3ff818
3f971b
3f69ca
3f7bc0
3fb12b
3ff5a6
001418
001cf6
001ab1
00220c
0019f5
001485
00174c
3ffec0
3ffc8b
0001d0
3ff7df
3ffa62
0001d0
3ffc12
3ff8a1
3ffbf6
00154d
002b69
001911
000f66
002b2c
0052cb
000342
3fbd2a
3f942e
3fb4d2
3fe915
001843
0019e7
001b18
000e1d
000708
000bbd
001693
000e13
3ffe46
3ff916
0000d5
3ffc19
3ffc8a
3ffb29
3ffbab
3fed3c
00080a
00175c
0037c5
0032ad
0027a2
003499
0052fa
003a5b
000c55
3fe52c
3ff446
3ff87e
000cb0
3ffa28
3ff539
3ff974
000d0d
000be1
00174e
3ffcea
000355
3ffae5
3ff3fb
000428
000415
00056e
3ffc1d
3ff714
3ffab0
0017ef
002cd5
002104
0028eb
003244
004e5d
004e44
002733
000bf5
3ff7df
0005a1
000554
3ff492
3ff754
3ff3d4
00067a
000804
000c54
000448
3ff91c
3ffe6f
3ff64f
3ffaf6
3ff8ce
3ff55a
3ffc35
3ff8f8
3ffb86
000634
001bb2
002d10
001f9c
002249
004316
004bd8
00324c
001308
000716
00017a
3ffec2
3feb3f
3ff02a
3ff6e3
0007e8
3fff6b
3ff69a
3ff0f2
3ffc4e
3ffb0e
3ff8b0
3ff9be
3ff70e
000089
0000d7
3ffab6
3ff68b
00037b
001423
00117d
00328d
00291a
002d4e
0035e2
002df6
003b11
001994
001a2e
000e50
3ff3d8
3ff652
3fff50
3ff252
3ff1aa
3ff91d
3ff889
3ffd58
3ffb65
3ffa0b
3ffcde
3ff701
3ffd92
3fffc2
3ff526
3ff4e1
3ffcc9
3ffeac
000dfd
0013c4
002ee0
003811
004496
0043e4
0028b4
002126
001251
0007bf
3fff3f
3fe62f
3fdf9a
3fe6e5
3ff399
3ff5ef
3ffeb4
3ffc29
000322
3ffa9d
3ff4b7
3ffafa
3ffdc8
3ff4e1
3fff8f
3ffcf7
3ffd1b
3ff2a4
3fee2f
3ff617
3ff71c
000a5e
0007d2
0012f4
001bbc
000ea5
3ff4dc
3feeb4
3feb56
3fee66
3fe74d
3fe871
3fe9c0
3ffba3
3ffa2d
3ff6a7
3ff91f
00008c
3ff7e2
3ff931
00065a
3ffc9f
00054b
000606
3fffb4
3ff3f8
3ffabd
3fe891
3fe9d1
3fe46e
3fdc34
3fd715
3fdabf
3fd49b
3fd8dc
3fdb00
3fe9bf
3fed8e
3ff065
3feeb5
3ff00f
3ffaa8
0005ff
0002ef
3ffbbb
3ffa4b
3ffdd3
00050a
000486
3ffb68
00004a
3ff9b9
3ffaf1
3ff529
000226
3ffa3e
3fec5d
3fec4f
3fee2f
3ff8d1
3fee36
3fef1e
3ff9b7
3fee03
3ff160
3ff51b
3ff246
3ff928
3fef87
3ff216
000568
3ff77d
000195
00047c
3ffefb
3ff6b9
0003b9
3ffe6c
3ffaff
0004c1
0000ee
0001a9
3ff4a0
000592
000570
0001e2
0003ea
3ffd4d
3ff946
0003b5
3ff63a
3ffc67
3ff922
3ffe54
3ff9ef
3ff467
3ff59a
3ff131
3ffc91
000265
3ff69b
3ff42e
00031c
