000ff7
00079c
00087f
00037f
000d88
000d2c
000e8a
00039d
000cac
0003e1
000c0c
0009b9
000d91
00121a
000fea
000aea
000b14
0003e6
001294
00127a
000a8d
000d88
000a74
001037
00062b
001122
000a74
000f1b
0001f4
00100b
0004bb
000b6b
000a32
00040a
0005b1
000f12
000e79
000bc2
000ba3
000891
000dda
000f9e
001431
000a0c
000820
001039
000aeb
000769
001194
0010eb
0006ef
001224
00136f
000a4a
00108e
000d4f
001056
000c47
001391
0003cb
0003a6
000ce0
000985
000929
000629
000ac8
000045
00056a
0000b3
0004bd
0009ed
000ff1
000c11
000003
000beb
000725
000fac
0006cd
001140
000c8c
000d82
00024f
000eaf
000f08
0005d0
000685
000b01
000908
001260
0009ae
00021f
0011fe
3ffe04
3ffc5f
3ffc82
3ff5fe
3ffc75
000155
00077f
000efd
3ff891
3ffd49
3fff9f
3ff473
3ffece
0004c1
000bf9
000bb4
3ffdda
00109a
00063d
001187
000d7f
000830
001298
00126e
00020f
0003aa
00103c
000a55
0003ea
3fef07
00018f
0005f1
00093c
001084
00135d
00279a
000ad2
3ff7ad
3ff6ef
000627
0015e9
00188c
00186f
001c9e
000ef6
000716
000633
0006d3
000272
000ffb
000320
000b3e
0002d0
000ac7
00033c
3ffbd2
3fdc5b
3fdc0f
3fef88
000038
000d80
000f32
001a68
001484
000c23
3fec0b
3ffdff
00042e
001383
001f69
003445
00209e
001ab6
3ff920
000761
000414
000368
000b97
000220
000908
00021d
3ffaae
3fec62
3fec9f
3fd36f
3fca26
3fde45
3ff816
3ff7c1
3fef10
3ff835
3fd956
3fd66c
3fd61b
3fee7b
3ff30b
00139a
002047
001def
001930
000690
3ffaa5
000071
000971
0007a3
00044e
000558
000133
000ca7
3ffd4b
3fed31
3fd986
3fc3dc
3fb36b
3fcc01
3fe946
3feb31
3fe212
3fdb01
3fc67b
3fcdc3
3fd0da
3fd582
3ffe8e
0008ea
000589
000547
3fefd2
3fe9ee
3ff72e
00072c
00085f
000949
0007da
0007b5
001060
00053c
3fff78
3fe9a2
3fde18
3fb9e9
3fb3e7
3fb78e
3fd904
3fee1b
3fe9fd
3fee08
0007dd
3fe022
3ff532
3ffe33
000421
3fe806
3fe8d2
3fdae4
3fcf4a
3fd941
3ff67d
000e6f
001300
001330
00046e
0007de
0006b8
3ffeca
3ffde1
3fe385
3fe507
3fcfc4
3fb678
3fbca1
3fe561
3fec1d
000f1c
002f94
004426
001940
3ffe3d
3ff49d
3fd1c8
3fc726
3fc7ea
3fb957
3fc2c6
3fdf27
0003d0
000fda
000b7e
00117c
00135e
001008
000219
000d15
3ff0d6
3fe510
3ff383
3fda95
3fda0c
3fe448
3fed79
3ff385
002600
007afc
0081d8
003da8
3ffeaa
3fdb18
3fd382
3fca25
3fcf6c
3fd23d
3fe395
3ff67b
3ffe59
001078
0006c2
00034c
0002f8
000d54
000e31
00000d
3ffbb6
3ffdc4
3fe89b
3ff0e1
3fe8a7
3fdda8
3fcc1f
3ffa0e
0040fe
009446
009d18
003a30
3ff347
3ff44c
3fe10a
3fdf3d
3fe193
3fe3d8
3ff2d2
3ffa6b
000d0b
00124b
000cdc
000206
001182
000864
0005af
0011e6
3ffc92
3ffa88
3ff83e
3fe9b6
3fe2c6
3fc218
3fa92a
3ffd35
0041f9
00ae86
00790d
0017f8
000caf
3ff88b
3fdca2
3fe9ac
3ff529
3ff9e7
3ff87c
000124
0011c7
0002ab
000c80
0001ca
000be1
000b15
000bd5
0013b8
00001e
0001aa
3ff72c
3ff417
3fcf4c
3f98b2
3f9735
000024
003708
008fd3
005146
00157c
000a6f
3fdf2e
3fd04f
3feeaf
3ff9e8
3ff9a6
3ffdb5
00080b
000c05
001157
000b38
0008c1
0012b9
000a89
000efe
000f0e
3ffff0
000294
3ffa3f
3fdfc8
3fc8b0
3f9912
3fb1e2
3ffe42
0037db
007aab
004efe
00179c
3fd42c
3fc4a0
3fd2e8
3fe552
3ff849
3ff79d
3ffa45
000d5e
00020c
0003b3
000aa7
0013da
000342
000cbb
000811
00048e
000b8d
3ff4be
3ff32f
3febb1
3fc380
3fbc2a
3feee9
0018e3
004e87
008345
002e6d
000880
3fad5e
3fb6c9
3fd32f
3fe506
3feca2
3ffb1d
000179
0006fe
0008f6
001279
000315
001337
000965
00118f
000ab4
0005ac
3ff833
3fee2a
3fecd6
3fd123
3fe3f1
3fe9a7
3ff399
3ffcda
006748
007beb
00071a
3fd9a3
3fa69b
3fb60c
3fd063
3fdbd5
3ff093
3ff057
000031
3ff916
000113
0004b5
0009f7
0007f7
0012f9
000437
0012b7
000dd5
3ff520
3fd8c1
3fd57e
3fe193
3fec8a
000df8
000028
0021bf
00764b
006574
3feb66
3fb981
3fa649
3fb681
3fd18b
3fee88
3ff739
3ff9b3
3ff790
3ff187
000427
000b0f
000cef
000bbb
000ad0
0006a5
000fa0
0008ab
3ff080
3fd624
3fd677
3ff06d
000fec
000d24
00150c
0036e4
00585c
003d19
3fd7d5
3fbe01
3fc776
3fcfb8
3fdfa4
3ff019
3fe51b
3ff410
3fedac
3ff4cd
000a23
001197
0011f8
001278
000d03
000d8c
000f01
0001c0
3fe8be
3fcc0f
3fdcf4
3ff1b1
00083f
000423
0002df
000746
0028b1
0008f7
3fdec9
3fe456
3fe7eb
3fe1c1
3fe88b
3fddaa
3fe365
3feebe
3ff0cb
0000d4
0005d4
000666
00028d
0002f1
00136b
000a77
0006b4
3ffacb
3fef72
3ffce4
3ff49d
3fffb8
0004dd
3ff33a
3ffb66
3feb27
3ff8e0
3fface
000154
0013ca
00071d
3ff886
3fe435
3fddda
3fe062
3fe72b
3ffa68
0002a0
000fdb
000655
001385
000ddf
00074e
000b59
000d94
000ac9
001d1d
0017ef
000b42
0001e0
3ff7b7
000059
3fef34
3fd9d9
3fd475
3ffc15
000d16
0014e4
0017cb
001069
3fe45c
3fe4cf
3fe0f8
3feaa6
3ff3ae
0002c3
000870
0001a8
000264
000ac8
000b00
000c66
00028a
001939
00384f
003a52
002332
0004ca
3ffc16
3ff2a2
3fc86b
3fa5c4
3fbb03
000035
000d85
0033b6
0054c9
002518
0007bb
3fece6
3ff120
3ffeac
000282
000131
000839
0012c3
000908
001174
000aea
000df8
0007c5
001686
00306c
003397
0017ad
000685
3ff3fd
3ff7d2
3fe091
3fea10
3fec66
3fe5cd
000a41
003c26
00488c
002098
3ffa34
3ff224
3fea8e
3ff89c
3ff930
000444
000227
000402
0001fb
000440
0002b1
000714
000238
000afe
001569
00161c
3ff8df
3fdfeb
3fdfc3
3fc753
3fc9bc
3fcf51
3fd64c
3fd67b
3fd663
3ff3f6
00050a
00092f
000d4f
000b27
0002b1
0005c9
000f72
0004ae
00079c
000ea7
0004d6
0012f4
000609
00073b
000a3b
000ea2
000d59
000034
3ff7b9
3ffcb9
3ff860
3fe051
3fd96d
3fe37c
3fd802
3fe78e
3fe10d
3fee2e
3ffcca
000629
000cc9
000138
000b9e
0006e7
001094
00042c
0004f1
000716
00061d
0006f9
000d6d
000bf2
0003a6
000ced
001130
000ba7
000abe
000f59
000cff
0001cf
000a92
0009a0
000592
3fffac
000501
000b43
00116f
000cdb
00020d
000bf4
000b39
000ab3
00051a
00047f
000cf7
0011ba
000e64
000e76
00124d
0002e4
000a1f
001334
000f43
00114c
000ff6
00114e
00082d
000f2a
000fc0
000194
00034a
0012d6
000c4a
000b52
0001a4
000836
00039e
00035e
000628
000b1a
000ffd
0011bd
00114f
00110e
0005b1
