3ff722
3ffebf
3ffeb9
3ff412
3ffa62
3ff8e0
3ffff6
3ff854
3ffcd5
000292
3ffcd4
3ffc8b
3ff6e7
3fff73
3ff3de
3ff600
3ff242
3ff4d6
3ffe5c
3ffcee
3ff218
3ffab8
3ffc2b
3ff927
3ff2e7
3ffb0e
3ffc27
3ff782
3fff30
3ff16c
3fffe7
3ff37d
3fff76
3ff7fb
3ffbe1
3ff7a6
3ff58a
3ffc2c
000149
3ff3d3
3ff78a
3ff525
3ff203
3ffdaa
3ff686
3ff4ec
3ff6ce
3ff62f
3ffce5
3ff34c
3fffcc
3ff42c
00002b
3fff09
3ff4aa
3ff9bc
3ff9e2
3ffd50
3ff798
3ff21a
3ff48c
3ffb27
3fff87
3ffc3b
3ff5f0
3ff84a
0001ec
3ff136
3fff4f
3ff597
3ff26f
3ff4f5
3ff725
3ffae0
3ff850
3ff86c
000365
000060
00016d
3ff548
3ff20e
3ff90f
3fff26
3ffc33
3ffd61
3ffbfc
3ff4b1
3fff46
3ff38b
3ff7c2
3ff130
3ff655
3ff23f
3ff62b
3fe814
3fe173
3fee8e
3fefa3
3febe6
3ff958
3ffd1f
3ff037
3ff686
3ffd05
3ffdd9
3ff96f
3feffb
3ff53d
3fecac
000239
000164
3ff35d
3ff287
3ff7a6
00015e
0000c0
0001dd
3ff656
3ff599
3fea64
3fdb8e
3fcf9b
3fb958
3fd2dc
3fd27e
3fc2f5
3fde61
3fffd8
3ffc02
000b63
3ffc8b
3feeab
3fe956
3ff404
3ff62e
3ff91f
3ff77c
000330
0001d0
3ff9bf
3ffadc
000329
3ff513
3ff371
3ff6b5
3fe9ed
3fdea8
3fdfc7
3feae3
3ffc0d
00071d
0007b0
3ff491
3fefa7
3ff623
3ffb62
001057
0010b4
001faa
0013ba
001321
00188d
002d4e
002689
001b0a
000ef3
00094d
00037a
3ff3f5
3ff2dd
0001ac
3ff359
3fefb5
3fd915
3fee84
3ffdf4
3ffea0
000fca
0020c8
001b46
0004a2
000a0b
3ffb7e
3ff077
3ff69a
3ff812
00005b
001f1f
0011cf
00143c
003dda
004a5e
0053a8
002c40
0015db
000557
3ff92a
3ffc50
3ffaa8
3feff6
3fd2c6
3fcaec
3fdfb0
00042d
001529
00298d
002873
002353
000a39
3ffca8
3ff4b4
0000c5
00117f
000fd5
00140b
002ccd
0026bc
002e52
0040c3
0056df
006a0f
004c93
000bcb
3ffe2e
3ffcfa
0002cc
3fffc0
3fea26
3fbedd
3fc84e
3fd7b3
00027f
001f80
000941
0010ee
0020dc
001409
3fe974
3fce8f
3fe20d
3feda1
0001c2
00050a
002556
002767
003824
0058bb
00741b
009ae4
006412
00123b
3ffe23
3ff32d
3ff87d
3ff201
3fe195
3fdd0e
3fdfb6
0003ed
3ffdbe
001ae1
001759
00196a
0043cf
002bbc
3fedde
3fc468
3faa92
3fb033
3fd190
3ff55b
3fffb5
002447
004d91
007040
00998b
00c0f6
007ec8
0016b4
3ff70e
3ffd40
3ff724
3ff40c
3ff65d
3ff5d0
3ff973
0015a6
002857
003ef6
0045af
00429a
00509b
004306
003383
3ff4f6
3fd5e6
3fb9bb
3fbbf7
3fb991
3fafb3
3fc907
3feeed
000958
003386
0066d2
004d48
001a4a
3ff718
3ff3f7
000016
3ff633
3ff994
3ff60d
3ffe97
002267
0029fd
003cb7
003814
00290d
002d39
004ad5
0045e5
00011e
3fd477
3fca06
3fc5dc
3fb268
3f93bc
3f62d2
3f6fb2
3f89be
3fa9c3
3fe150
000360
0008a6
3ffac5
3ffa9b
3ffb8d
3ff984
3ff6f2
3ff920
00116b
002779
002339
0019e4
000ed3
002bbc
005a8b
005493
0056b2
0008f0
3fd407
3fae38
3fbdcd
3fd314
3fbf83
3fb688
3f860b
3f74dc
3f871d
3faf2a
3fe90d
000131
3fffed
3ffb32
3ff490
3ff3d2
3ff783
3ffd6a
00091f
001a71
001364
00166a
001284
003ce7
00440f
0032a0
002f4b
3ff680
3fcba7
3faacf
3fd2fd
3ff005
3fed80
3ff730
3fdd74
3fc18a
3fa4b9
3fbb42
3ff412
3ff303
3ffe1b
3ffb62
3ff39e
3ff9e3
3ff0aa
3ffada
3ffa6f
3fffb8
3ffd12
001bff
002c49
003522
000a2b
0011fa
3ffcac
3fd9fc
3fd439
3fc33d
3fca48
3fcdab
3fe7bb
3feafe
3fecec
3ff46d
3fcddc
3fde40
3fef15
3ff9fc
3ff108
3ff295
00020f
3ff18d
3ffa18
3fea8e
3fdfc8
3fd2e8
3fe220
000ade
0031e0
0017b0
0015d7
0012d4
3feefa
3fc793
3fbf19
3fc56e
3fc3fa
3fd5bb
3ffddd
3ff1a4
3ff3e1
3ff17c
3fef51
3ff44b
3fffa4
000253
3ff705
3ff7ed
3ffac2
3ffc80
3ff197
3ff79c
3fdb5c
3fb699
3fa932
3fc54b
3fdf85
3ff31c
3fed76
3ff3e7
3fd7fe
3fb2f2
3fc16f
3fd28c
3fefa0
3ff098
00027e
000cab
000202
000dc2
000321
000226
0001f0
3ff75f
3ff809
3ff66f
3fff5d
3ffff4
00010d
3ff6b3
0002ad
00055d
3fc6ad
3f984c
3f9ef3
3fba78
3fd62c
3fbe9c
3fab9d
3fadf6
3fdaa4
3fef95
0018cc
0025ea
0018c6
0018ff
000743
0000d0
000dce
000e08
3ff42b
3fff85
000054
000165
3ff5ef
3ff9a4
3ff7d2
001485
001b1d
00406a
000b54
3fc1fb
3fa5bc
3f8938
3f95e8
3fb3eb
3fd48d
3fea50
3ff6eb
3ffe5f
001d1e
000ea4
0019f8
001175
001954
0014df
001cdb
000efd
00011e
3ff508
3ffc7a
000011
3ff5d9
3ffa8f
00022d
001f24
003534
0047a2
003038
001e8b
0009ea
3fe933
3fe7a8
00020f
001d30
000ae9
000f80
000fbc
3ffb0a
000b4b
000b09
00025a
0012ea
00207c
0017bf
0001fb
3fff9c
3fffe4
3ff33d
3fff5b
3ff11d
3ff8e8
3ff4e3
00042c
0022fe
0028a2
003182
004560
003a97
00337a
004b07
002eb6
002308
3ff623
3ff6f1
0019d0
000d35
001591
001c8a
0018fe
0013a1
002ef0
002315
3ffb6e
3ff168
3ffad8
3ff6bf
3ff564
000055
3ff084
3ffa30
000dce
3ffb96
0010bb
002d49
004162
002ac4
002447
00138d
00194e
000fb9
00105e
0013f4
000530
001014
00083c
0019eb
001972
002aae
00347e
000b58
000073
3ff388
3ff6e7
3ff6f3
3ffced
3ff1d0
3ff8a2
3ff6e6
0004fc
3ff902
3ff0ae
3ffd45
00196a
002527
000672
0020e5
003533
0041b0
002171
00050b
0003b1
000833
001137
001120
001d57
001a82
001baf
0009bd
3ffe93
00018d
3ffaa5
3ffc6a
3ff450
3ffa4b
3ffcb1
3ffb71
3ff4e8
3ff8ae
3fe9c1
3ff5e1
001420
0013b4
0013a9
00230f
0021a7
00170a
001a7a
00183f
0017b8
000ae8
3ff379
3ffe3f
000ba0
0004b8
000f93
3ff640
00029c
3ff806
3ff7d9
00026f
3ffee2
3ff857
3ff72d
0002ba
3ff0c6
3fefd5
3ffa30
3ffd0d
3fff18
001a0a
0021cc
001a03
0010e4
001784
002b61
0023e3
001568
000a69
0013e0
000ce2
3fff42
3ffe24
3ffb48
0000d1
3ff585
3ffc3c
000192
3ff32e
3ffa43
00008a
000183
3ff28d
3fffe8
3ffbd7
3ff006
3ffa1a
3ff1a9
000876
00064e
00119a
001183
001eb4
0001af
000924
0007b9
000f09
3ff5ee
3fff8f
3fef3b
000171
3ff9bf
3ff4be
3ffeab
0000c4
3ff1b6
3ff874
3ffb88
3ffb13
3ff57f
3ff80a
3ff726
3ff8bd
3ffd64
3ff595
3ff23f
3ff8da
3ff69b
3ffe39
000047
3ffc66
3ff5fa
3ffae1
3ffdb5
3ff587
3febc8
3fefa2
3ffc8a
3ffc77
3ff6c5
3ffd4d
3ff91f
3ffb4d
3ff77e
3ff1b2
3ffcd9
3ffe10
3ffea4
3ffbfa
3ff3c9
3fff3d
3ff7c5
3ff6ff
0002f8
3ff767
3ff634
3ffed6
3ffabc
3ff103
000054
3ffb63
3ff266
3ff0eb
3ff4b8
3ff0b1
3fffc7
3ff790
0002cf
3ff2fc
3ffc16
3ff977
3ff3f5
3ffe1e
