3ff8d1
3ffa44
3ff90c
3ffcb0
3ffbce
00016f
3ff153
3ffcda
3ff620
3ff7a2
3ff434
00013a
3ffb50
3fff35
3ff3c4
3fff57
3ffc39
3ff2d4
000150
3ffa36
3ff914
3ff8a5
3ff9ae
0002b9
000011
3ff793
3ff582
3ff968
3ff90f
3ff162
000276
000004
3ff2ab
3ff310
3ff1dd
3ff318
0001d1
3ffa98
3ffa06
3ff179
000199
3ffdb0
3ff618
3ff87c
3ffdc1
3ffb4a
3ff4bc
3ffbb6
000165
3ff25a
3ffd8d
3ff4dc
3ffef3
000306
3ff618
3ff4c6
3ff3c9
3fffc6
3ffb1c
3ff9ed
3ff458
3ff1aa
3ffb30
3ff141
00029e
3ff134
3ff1e5
3ffd1b
3ffb0d
3ff0dc
3ffcf3
3ffbee
3feff2
3ff68c
3ff69c
3ffdfe
3fff86
3fff3f
3ffc74
3ff97f
000165
3ff610
3ffdbe
0001e1
3ff509
3ff9ab
3ff9cd
3ff345
00028f
3ff3f9
3ff239
3ff7b5
3ff194
3ffafa
3ff52a
3febe4
3fe9a3
3fe4e3
3fe980
3ff2a8
3fe96c
3fee78
3ff3c8
3ff883
3feeec
000110
3ff70e
3fff1b
3ff642
3ffce3
3ffb70
3ff298
3ffa24
3ffe50
3ff795
3ff2a0
3fff44
3ffef9
3ffa2d
3ff3de
3ff3d1
3ff8d7
3ff9ac
3ffc83
001375
000c90
002a61
002028
000e9e
000800
000c00
3ff553
3ff300
3ff93d
3fec64
3ff1f2
3fff8d
0000f0
3ff86b
3ffa2b
3ffa6c
3ffd5d
3ffe57
3fff7f
3ff473
3ff92d
3ff608
3fe517
3ff530
00099c
3fe9c4
001d9c
0037ad
002e52
003033
001700
0012fa
002c9b
00023a
3ffdf8
000fea
00083d
3fe4f9
3fe94f
3ff04c
000bf7
3ffb1e
00020d
3ff505
3ff41d
3ff18d
3ff1e4
3fefcf
3ff02b
3fe692
3fe67a
0001c8
000783
3ffe07
000e54
0016ae
00122d
00199f
002ff4
001736
001b4b
0005c3
001f26
000be3
000e9f
001231
0010f9
000e54
000605
3ffa25
3ffe89
00021d
3ff521
3ff33f
3ff60d
3fef1c
3ff9d9
3feea8
3ffefb
001125
000702
00089e
3ffa9a
3fea14
3fef92
3fe7cc
000e84
001238
3ffee0
000c69
3ff273
001295
001cf5
000536
003c08
0024c7
3ffe98
0000e2
3ffd7a
3ffd72
0000cf
3ffd09
3ff425
3ffcda
3ffa6c
0018e1
000f5e
00058b
002b27
000277
000173
001cd4
002558
3fe285
3fe6f5
00146b
3ff188
0006ca
00138b
000ce6
0027cc
001aae
002d5a
002941
3ffb16
3ffc7f
000413
00003f
0000d1
3ff98a
3ff805
3ffba5
001932
0012b1
002682
0033a9
002b8f
001b99
003081
000d28
000e08
3fc744
3fb117
3fe47c
000434
00088d
000f50
00143b
001173
0029ad
002acf
3ff908
3ffa20
000987
3ff2ec
3ff5a0
00006a
3ff4f4
00011a
0009b5
001ef6
001ec3
003863
0029db
0030e9
004778
002242
0023cf
001d32
3ff684
3fb4e3
3fc271
3fed3c
00156a
001550
0015db
0032d4
00383d
002de3
000096
3ffca8
3ffa09
3ff618
3ff4f5
000280
3fff01
3fee94
000ec2
00222a
004110
005472
004261
0053e0
00396e
001b25
0022fb
00537f
0065b0
3ff37f
3fc37c
3feb2f
3fec2f
000854
002dff
00371b
004932
004516
003013
0007ce
00043b
3ffc0f
3ff666
3ffcc1
3ff7e3
3ffc3a
3ffce7
0028dc
0021de
0033bb
0030d2
003d55
000a72
000ea4
00081d
0064d6
006556
0016b7
0003d9
3ff724
3ff8b4
001962
002b1e
004a1b
00564c
0047fe
002d30
001216
0008f6
3ff345
3ff1f7
3ffaec
0002db
3ff3f6
3ff6e2
3fffc8
3ff974
3ff9d4
00058f
3ff88c
3fe9e5
00086b
00250a
005e76
001c44
004578
001ba6
3fee70
0001a7
00024f
001ec4
001bec
000fd5
001682
000bf9
0002a8
0002bb
3ffdaf
3ff770
3ff1b9
3ffe0e
3ffa0d
3ff366
3fe48d
3fcf03
3fc130
3fb5d8
3fc49a
3ff7b3
0025f9
002489
004d36
003dc0
0029c1
3ffaeb
000532
3ff527
3fe6d3
3fd702
3fdb54
3fe075
3fdab9
3fef1b
3ffd8c
3ff0ea
00006f
000130
3ff6d8
3ff57b
3ffb9b
3ff235
3fe4be
3fc2f6
3fb531
3fbbcd
3fef5d
000291
0001ac
0034be
003e5a
00368d
001f75
3ff03b
3ff241
3ff65f
3fc8c4
3fbb35
3fcb3c
3fde8c
3fe025
3fe7f8
3ffbd7
3fef63
00015a
3ff89f
3ff260
3ff694
3ffb0b
3fe9f1
3fd88e
3fc09a
3fda92
001924
001bec
000b6c
001999
0032fe
002caf
001007
001aaa
00090a
3feb1e
3fd36d
3fc04c
3fc04c
3fbf46
3fcc16
3feec8
3fe94d
3ff83f
3ff7f2
3ff200
00031d
000228
3ff514
3ff2a0
3ff166
3fd72a
3fc805
0009e6
003409
004079
0014a2
0030c9
004f64
003028
000412
3ff31b
0005c5
3fe747
3fbe89
3fe0fe
3fe13a
3fd482
3fdfc9
3febb7
3ff472
3fef7f
3ffd45
3ff774
3ff617
0000a1
3ff1d7
3fedda
3fe71b
3fe67d
3ff039
000f60
002ac9
004d36
0035f5
00499c
002fee
001b9e
3fde88
3ff75c
3fed24
3fcdc2
3ff3e4
3ff689
0003b5
3fe457
3ffbcc
3fe882
3fe00f
3fef96
3ffd5d
000205
3ff64e
3ffb33
3ffc65
3fea5e
3fe466
3ff4e1
00075f
001467
00153c
00344a
001adc
3ffc4b
000cc5
3fdcfd
3fd702
3ff054
3ff323
3fef34
000ce4
0003b5
001096
000166
000ac3
3ff6d4
3fe7a2
3ff16f
3ff39b
00017b
3ff419
3ffd6b
3ff518
3ff01c
3fe01c
3ffa9f
000515
002d3e
000d7d
3ffa29
3fffbd
3fd9bf
00026b
3ffefe
3fdbb1
3ff965
3fd597
3ff294
00077f
0004a4
000d6c
0016ca
0016b9
3ffa63
3ff10c
3fec59
3ffa2e
3ff488
000109
3ff9a7
00023d
3fe6f5
3fdace
3ffc4b
001398
0029dd
0008c2
0011f0
3ffcb4
3fe45c
3ff088
000988
3fff26
3ffba0
3fdf86
3ff260
3ff6f4
3ffeb2
3fff3e
0007c9
0006bc
3ff63c
3ff43a
3fff44
3ffd90
3ff876
3ffc38
3ff1c7
3ff6ea
3ff014
3fe252
3fd3ba
000541
000bea
3ffd46
3ff1d9
0008f7
000331
0034de
003770
002730
001ea1
3ffd5e
3ffd1c
000d3d
3fef87
3fee31
000796
3ffcd0
3ff4a7
3ffd29
3ffd15
3ffcb6
3ff506
3ff4e2
3ffe99
3ffaf8
3ff1d5
3fe0f3
3fb5f5
3fc5f1
3fe2c2
000a1a
0009fa
001578
001c09
003e9a
005a02
004c9b
003d12
003174
00236c
001c20
0023f7
001a88
00065e
3ffca6
3ff7a0
3fefa4
3ffe76
3ff182
3ffd20
3ffe3a
3ffd24
0002c2
3ff346
3ff322
3fcf04
3fbc05
3fc6eb
3ffc7d
000d56
3ffaf1
00183e
0011de
000bc9
001dad
00407d
004478
002dfb
004064
003c70
0013ec
000125
3ff252
000163
3ffa63
3ff69a
000237
3ffc42
0002fb
3ffdd7
00016e
3ff326
3ff649
3fedcf
3fe65a
3fe01c
3fdc6e
3fdc53
3ff2a8
3fe6c6
3ff110
3ff0d5
3ffe7d
0016a6
001024
00147d
00175b
0003b2
3ffb08
3fff5d
3ff088
3ff123
3ffebc
3ffbe1
3ff66e
3ffb8f
3ffd9c
000056
3ff8e3
3ff59f
3ff0e0
3ff350
3fec8e
3ffa85
3fee66
3ff0ff
3fede2
3ff5a8
3ff498
3ff649
3ff1a1
3ff597
3ff36f
3fef51
3fed63
3ff44d
3ff7e5
3ffd78
3ff8af
00034f
000304
3ff204
3ffb92
3ffa1a
3ffcd5
3ff53d
3ff946
3ffbbe
3ffc53
3ff1a3
3fff7c
3ff654
00025e
3ff8e7
3ff39a
3ffeaf
3ff5ea
3ff3d2
3ff86c
3ffcc2
3ffb7a
000042
0001fc
0002d1
3ffd99
3ffbed
3ffd6c
3ff4ef
3ffae1
000214
3ff2ba
3ffafc
