3ff323
00004d
3ff999
3ff562
3ff96b
3ff61a
3ffbaa
3ffc59
3ff2c8
3ffaa0
3ff3bb
3ff7d9
000277
000228
3ff378
3ffb7b
3ff45d
3ff483
000355
0000f3
3ff673
3ffbe8
3ff787
3ff1ff
3ff323
3ffb26
3fff5e
3ffc79
3ffa8c
3ff9ad
00031c
3ffccd
3ff3cc
3ff365
3ff2e8
3ff613
3ff637
3ffb6e
000021
3ff442
3ff87c
3ff3d5
3ffbae
3ff201
3ffc4a
3ff448
3ff81d
3ff525
3ffb91
3ff495
3ff29f
3ff15b
0000b9
3ffcc2
0000f0
3ff72f
3ff9c0
3ff238
3ff382
3fffe4
3ff2b3
3ff3d2
3ff919
3ffb25
3ffeb4
3ff871
00073c
0005f8
00127c
000ebd
000d7a
00055a
001226
000631
000541
3ff6cd
3fffbe
3ffbba
3fed38
3ff963
3ffe02
000487
3ffa9b
3ff865
3ff6d8
3ff59a
3ffd07
3ff673
000299
3ff467
3ffbc5
000002
00034d
001d70
002e12
002dc3
002bcb
00406c
002326
000f98
001d9e
000d93
3ff330
3ffcd4
3ff171
3feef2
3feb26
3ff5a7
000187
0004e8
3ff479
3ffdad
3ff5e9
3ff8fe
000387
3ff0f2
3ff2b8
3ffbc5
0006d3
000696
0012f9
003869
0038fc
00479b
003c83
002fff
002b9c
001345
0019c7
0017d5
3ff8db
3ff3f8
3ff6b6
3fe3af
3fddb9
3fdf10
3ffbc7
3ffbc5
3ff238
3ffd66
00012f
3ffb87
3ff523
3ff17b
3ff414
3ff5c0
000650
001b92
002639
004170
00487d
004b9a
004540
004da6
0047df
0042af
004853
003a81
002a45
3fee25
3feec2
3fe3d7
3fe360
3fd39b
3fecd8
3ff51c
0001c4
3ff786
3ffa39
3ff5a7
000256
3ffa70
3ff8b6
00049e
001af5
003430
0027e3
002d49
003d4e
002657
0028be
00349d
002e79
001948
001bfb
00073b
000557
3fef92
3ff514
3fdc2c
3fdc72
3fce65
3fe275
3fef72
00021a
3ffe52
3ff859
000186
0001ab
3ff903
0000b4
000e7e
0022bd
003249
002924
002664
000eac
001155
0002f6
001af3
002134
0006f5
000475
3fd5f0
3ff1be
3ff422
3ff289
3ff03d
3ff440
3fd72f
3fe3bb
3ff75f
3ff51f
3ff2bd
3ffcf7
0001fd
3ffa5a
0001d5
000795
001783
001101
001802
001850
001b0d
001b2d
001f05
001270
001607
003a1e
0020ad
3ffbf9
3ff00c
3fff97
000ce6
00004d
3ff719
3fe850
3fd05e
3fdb74
3ff0c6
3ff8e0
3ff44d
3ff5f3
3ffd8b
3fff75
000618
000bd2
001a57
00093a
0001c8
3ff6e6
000e2c
000b01
000e37
0003b0
3ffe86
0025eb
002901
000e25
000114
3ffc31
3fffa8
3ffe48
3fff16
3ff0f4
3fd77f
3fdd6f
3ff4bf
0001ca
3ff2f1
00028b
3ffd0a
3ffa01
3ff77f
0001cd
3ff992
3ff2d5
3fc013
3fc6ce
3fd4ca
3fbdf3
3fb6bf
3faac6
3fa04b
3fd7d0
00074b
000a58
0001bc
000552
3ff839
3ffa57
3ff833
3febf0
3fd16a
3fe668
3ffeea
3ffed4
3ff53c
3ff2af
000348
3ffea5
3ff3c3
3fe808
3fcb9f
3fa61c
3f8142
3f863f
3f709b
3f7031
3f7cbd
3f74aa
3f5639
3f7d66
3fc188
3fea58
3fed60
3fee19
3ffc6c
3ff53f
3ff4c8
3fe253
3febb2
3ffc51
3ff8fc
3ff4e4
3ffcea
3ffb63
3ffc31
000155
3ffa69
3fe632
3fb201
3f6845
3f4659
3f52d7
3f5be4
3f6a09
3f73ac
3f7412
3f6e68
3f8869
3fb03f
3fc945
3fced8
3fe73a
00001b
3fff85
3ff21b
3fe06c
3fcff9
3ffa27
3ff80b
000391
3ffc30
3ff659
3ff9ac
000354
3ff604
3fd63b
3f9da6
3f63eb
3f70ba
3f7a47
3fa416
3fbedd
3fe180
3fcfc1
3fea0e
3fc8e6
3fc7c7
3fbd50
3fcfdc
3fe57b
3ffaeb
3ff838
3feee9
3fd84b
3fdbdb
3fedb7
000496
3ff9e5
3fff98
000215
3ffcae
000059
3ff798
3ff001
3fbd91
3fabf5
3fbb7c
3fe485
3ffb42
001122
0016ac
001ae7
0029dc
0002db
3fe532
3fec16
3fdd7e
3ffa32
3fe9cf
3ff8fc
3fe66f
3fd20b
3fde96
3ff977
001044
001276
3ff5be
3ff8d0
3ffa52
3ff897
000f2f
00075a
000351
0011f8
00150c
00271d
001ba3
002125
00137b
00113f
002872
000302
000fdf
000244
3fdfec
3fe17b
3fed47
3ff25a
3feb5c
3fd65c
3fea93
000ccd
0015d2
000bc9
3ff455
3ff717
3ff229
3ff050
001027
0021e1
00374f
003857
002187
000de7
001cec
001adc
001888
00328a
002c82
000957
3ffaae
3fffcc
3feb2b
3fedc8
3fe00b
3ff4a4
0001ba
000707
000ed9
002f32
003a74
0009c9
3ff6db
3ff872
0002ab
3ffa1d
001395
0039db
00509b
0049aa
003279
002320
002a97
00417e
0035ae
003d8f
001cce
000ed6
001403
001436
3ffce0
000d1c
3ff7a3
00182e
0019cc
00132b
001a92
004b9e
004196
000ef8
0001fd
3ffe4c
3fff13
3fec15
000545
003eb4
0069f4
0063a9
0047bd
002fdb
003532
00514d
004974
007502
005567
004a95
00244b
0018fa
002de2
001d9a
001428
003621
0037eb
003cf2
005087
0063ee
0039a0
3ffa79
3ff41f
3ff5e2
3ff68d
3ff218
3fffc4
002274
00405d
005148
00467a
00410f
0044de
0041ea
004600
004e58
003c43
002707
001281
001cbf
0031ec
00181e
001790
002837
00322f
004188
00464a
003c94
001fbb
0002af
0000bb
3ff372
3fff05
3ffca7
3feebf
001e93
0025c4
003aa0
005187
004d71
00334f
003155
005293
002de9
000f33
000a2f
000c82
00102f
0000bb
0023b3
0037c0
0025d4
0035ce
004aee
004101
002eca
00162f
3fffb8
3ffdf0
3ffb15
3ff405
3ffdda
3ff919
000664
00103d
0028aa
002db0
002846
003244
002c77
002ba9
001124
000829
3ffb92
0001e4
0015b8
0017cc
003421
0036d7
00180f
0035c7
00426e
004bac
00254a
000eca
00036a
3ffe56
3ff35b
3ffc9d
3ff51a
000396
000cca
00049e
001bae
001847
0016a3
001fcb
001f91
00256d
00040d
3fe26f
3fdac8
3feaed
3fec26
000f6c
003076
003dde
003841
0035d2
002ebb
00338a
001327
3ffde1
3ffcbb
3ff707
3ffcef
3ffd50
3ffa6b
3ff981
3ff8bf
3ff19a
3fee54
3ff0a7
3fe6d4
3ff13c
3ff621
000cb9
00012b
3fec31
3fe531
3fdd00
3fda01
3fec33
0007c2
00306e
002a64
0033e9
002541
000e3c
00089c
00057d
3ffec9
3ff956
3ffb3f
3ff62e
3fff85
3ffe53
3ff59a
3fe4e5
3fcba0
3fd8d8
3fd7b2
3fd4fd
3fd552
3fdf4f
3fdf0e
3fee1c
3fe8a6
3fdeb8
3fe067
3fe73a
3fe1b7
3fefa5
3ff188
3ff19f
3ff796
3ff958
3fff00
000567
3ff4b1
3ff503
3fff87
3ff1d9
3ff8cc
3ff758
3ff4d4
3fece7
3fe693
3fd94c
3fd509
3fd829
3fdbed
3fd20f
3fe13a
3fe324
3fd9b7
3fe074
3fe896
3fea0b
3ff79c
3febed
3ff8ca
3ff83f
3fffab
3ff52c
3ffbf0
3ff56a
3ff23f
3ff59a
3ff2bf
3ff79f
3ff9ea
0000a1
3ffdd5
3ff95c
3ffd56
3fff87
3ff914
0000cc
3fffc1
000074
000147
3ffbf0
3ff6d2
3ff0f9
3ff81a
3ffbd0
3ffaff
3ff54b
000163
3fffbd
3ff567
3ff7a4
3ff28d
00009b
00006e
3fff48
3ffedf
3ff63a
3ff3d2
3ffb2b
3ff260
0002d2
00028c
3ff813
3fff2a
3ff546
0001de
3ff208
3fff43
3ff93e
3ffcdc
3ff420
3ffb1a
3ff8b5
3ffbd3
3ffacb
3ffe73
3ff17d
3ff9c2
00007b
3ff17b
3ffa81
3ffdec
3ff83a
