3ffd
0006
3ff9
3fff
0000
3fff
0003
0009
3ffa
3ffc
3ffc
3ffa
0003
0008
0005
3ff8
3fff
0009
0002
3fff
3ff9
3ffb
0002
0008
0004
0005
3ff9
3ff9
0006
0005
0006
3ffe
3ff8
3ffb
0004
000d
0009
0003
000b
000c
000d
000c
0007
0008
3ff8
0008
000a
0006
3ffe
3ffb
000b
0008
3ffd
0009
3ffe
0007
3ffb
3ffa
3ff8
3fff
0005
0003
0005
000d
0009
0014
0019
001c
001c
001e
000f
000b
0019
000b
000b
000c
000b
0006
0008
0001
0004
3ffe
3ff8
0003
3ff9
0001
0007
0004
0009
3ff8
000a
000b
000d
0019
0016
001c
001b
001a
0027
0025
0017
001d
002e
002e
0031
002c
002c
001a
0017
0006
3ffc
0005
0001
3ffe
3fff
0008
0007
0002
0002
0010
3ffe
3ffd
000f
0006
0007
0003
0006
0009
001f
001f
0030
0031
003d
0044
003a
0027
0006
000a
0001
0000
0002
0005
0003
3ffc
3ffa
3fff
3ffb
3ff5
0008
3ff6
0004
3fdc
3fed
3ff3
3ffb
3fef
3fef
0003
0017
002b
0025
0021
001a
0012
3ffe
0001
3ff7
0009
3fff
0008
0007
3ff7
0003
3fff
0003
0000
3ff3
3ff0
3fd7
3fca
3fe1
3fc3
3fe5
3fec
3fe4
3fe7
3ff9
3fef
3fe5
3fe6
3fd8
3fe6
3fea
3fe9
3ffd
0007
0003
0004
0000
3fff
0001
3ff8
3ff0
3ffd
3fe9
3fe4
3fd7
3fdf
3fc6
3fbe
3fde
3fdf
3fcd
3fd0
3fc4
3faf
3fad
3fbb
3fb7
3fc7
3fea
3fec
3ff8
3ffa
3ffd
3ffe
0009
3ff5
3ff7
3ff4
3fe1
3ff9
3ff4
3fdf
3fda
3fd4
3fcb
3fc3
3fc5
3fc1
3fb5
3fa9
3f86
3f8e
3f9a
3f9b
3fb9
3fc2
3fd9
3fe8
3fee
0003
3fff
3ff9
3ffc
3ff8
0000
3ff9
3ff5
3ffa
0007
3fec
3fdb
3fe3
3fee
3fdd
3fe0
3fba
3faf
3f8b
3f83
3f9a
3fac
3fbd
3fb3
3fce
3fda
3fe4
3ff4
0006
3ffa
0008
0005
3ff7
3ff3
0003
000b
000a
0026
3fff
0008
0003
3fe9
3ff0
3fde
3fb8
3fb7
3faa
3fa7
3fb9
3fd0
3fdd
3fd2
3ffb
3fe2
3feb
3ffa
3ffd
3ffb
0003
3ffb
3fff
3ffb
0001
3ffd
0020
0017
000b
000e
000a
000a
0002
3fef
3fc7
3fca
3fd2
3fd2
3fdc
3fef
0006
0016
0022
0000
3fee
3ff8
3ffd
3ffb
3ffd
3ff8
3ffc
0005
000f
0017
001e
000e
0013
000e
0024
0023
0019
3feb
3fda
3ffe
3ffc
3fdb
3fdc
3ffc
0014
0031
0057
002f
3ff3
3ff1
3ffb
3ffb
0008
0006
3ff7
3ff4
0005
0026
0014
0011
0009
0025
001f
001c
0005
3ffb
3fff
0003
3ff8
3fdf
3ffc
3ff0
001a
0044
006b
003a
3ffb
0000
0005
3ffc
0001
0006
0000
3ff3
000e
0023
001e
0029
0026
002a
002d
000f
3fea
0001
0012
0009
3ff2
3ff2
3ffe
001d
001d
004d
0059
003b
3fff
3fef
3ff8
0006
3ffd
0001
3ff9
3fe8
3ffd
0024
0030
001f
0030
003d
004b
0013
3ffb
001d
001a
0004
3ff2
0003
000f
0022
002f
002b
0036
001d
3ff1
3ff7
3ff7
0002
3ff9
3ff9
3ff8
3fe0
3fef
0035
0037
0024
0038
005f
005e
001d
0011
0029
0016
3ff5
3fea
0008
0018
000b
0000
0016
000d
3ffa
3fef
3ff5
3fff
0002
0005
0007
3fff
3fd2
3fe8
0016
002a
0030
003d
0069
006b
0037
001f
001f
0014
0000
0006
002c
000f
0006
3ff5
000a
3ffe
3ff4
3fe8
3ffd
0004
3ffc
3ffb
0000
3ff3
3fd5
3fd6
3fec
001d
002f
002b
004a
005b
006b
0032
000d
001c
0030
001f
0027
0014
0003
0007
0007
3ffc
3ff1
3ff5
3ff7
3ff7
0002
3ffa
0004
3fef
3fe4
3fd3
3fdd
0002
001e
0030
0040
0065
0072
003b
0034
0037
0027
0020
0032
0022
0016
0005
3ff8
3ff6
3ff6
3ffe
3ffb
0007
3ffc
3ff9
3ffe
3ff8
3fdc
3fd6
3fdb
3ff1
000a
0020
0035
0023
0045
0053
0062
0054
002d
001d
0038
0028
001b
3ffa
3feb
0001
3ffb
3ffd
3ffa
0001
3fff
0001
0003
3ffd
3ff3
3fe3
3fce
3fea
3ff3
0018
002c
003e
0050
0051
0044
003b
0025
0032
002f
001e
0004
3ff0
3fea
3ff3
0001
3ff8
3ffe
3ffb
3ffb
3fff
0008
0002
3ffb
3fe7
3fe2
3fd7
3fe5
3ff4
3ff6
0005
0017
000a
0009
0019
0013
0000
3ffa
3fe4
3fe5
3fe9
3feb
3ffe
3ffc
3ff8
0009
0003
0007
3ffd
3ffc
0001
0002
3ff5
3ff0
3fdc
3fd2
3fbe
3fbf
3fb4
3fd1
3fdb
3fe3
3fd5
3fc8
3fc0
3fce
3fe9
3fe9
3fec
3ff9
0001
3ff7
3ff9
3ffd
3fff
0005
0004
0003
3ff8
3ffa
3ffd
3ff8
3ff3
3ff6
3ff0
3fe8
3fe2
3fdd
3fde
3fd8
3fd8
3fd6
3fe0
3ff5
3ff6
3ffc
3ffa
0004
3ffe
3ff8
3ffd
3ffa
3ffa
0008
3ff9
0002
3ffc
3ffa
3fff
0005
0000
3ff7
0003
3ff7
3fff
0000
3ff7
3ffb
3ffd
3fff
3ff8
3ffb
3ff7
3ff9
0001
3ffd
0006
0009
0008
0000
0006
0008
0000
0002
3ffe
3ffb
0007
0005
3ffb
3ffd
0004
3ffd
0002
3ffc
0005
0006
3ff9
3ffb
0007
0006
3ffd
0005
3ffe
3ffe
0003
0004
3ffe
3ffc
3ffe
0008
0000
0005
3ffb
0003
0000
0008
0001
3fff
3ff7
3ffa
0003
3ff8
3ff9
3ffb
3ff8
3ffa
3ffd
3ff9
3ffa
3ffb
3ffc
0008
3ff9
3ffb
3ff9
3ffb
0001
