0000
0002
000f
000f
0000
0000
000c
0003
0001
0002
0000
000b
000e
0008
000b
0001
000a
000e
0003
000b
0001
0006
000f
0001
000f
0002
0010
0007
0004
0007
0000
0001
0007
0012
0004
3ffd
000a
0000
0007
3ffb
0005
3ff9
0000
000a
000b
0003
0000
0003
000c
0000
0000
0001
000b
000b
0003
000b
000d
0009
000d
000d
000d
000b
000f
3ffb
3ffb
0003
3ffe
3ff7
3fde
3ff2
3fef
3fe9
3fef
3ffd
0004
000c
0010
0009
000f
0004
0006
000a
0001
0007
000d
000c
0005
0007
0008
0000
000a
3ff7
3ff3
3ff9
3fe3
3fdd
3fc9
3fcb
3fce
3fc3
3fd7
3fec
0003
0007
000c
0011
0005
0005
0011
0010
0005
000a
0010
000b
000c
000c
0007
000e
3ff6
3ffe
3feb
3fef
3fce
3fd1
3fbf
3fca
3fbe
3fc8
3fe5
3fe8
3ff1
000e
0013
0016
0015
001c
0008
0010
0004
0003
0011
0005
000c
0004
000b
0002
0008
3ff7
0003
3ff5
3fdc
3fe8
3fd7
3fcd
3fdc
3fe2
3ffb
0005
3ff9
000c
000f
0014
002e
0034
001c
3ffd
0005
0003
0010
0011
0005
000e
000f
000c
000c
3fff
3ffd
3ff2
3fe3
3fcd
3fb3
3fa5
3fa1
3fae
3fac
3fcf
3fcd
3fe9
3ff1
3fff
0042
0045
001b
0015
000f
0001
0007
0004
0005
0009
0005
000d
3ff8
3fff
3ff7
3fed
3fcf
3fb3
3f9c
3fb9
3fa8
3fa7
3fa5
3fc6
3fc4
3fd6
3fd0
3fea
0029
0037
001d
0011
0010
0009
000f
000d
0011
0003
0005
0007
0005
3ffc
3fdb
3fed
3fe7
3fce
3fb7
3fd2
3f97
3f94
3fac
3fcb
3fd1
3ff1
3fe3
3fe4
0013
001d
0016
0004
0006
000b
0012
000f
000e
0003
3ff7
0000
3fe9
3ff0
3ff5
3ffc
3ff3
3ff1
3ff0
3fd6
3f68
3f8e
3fe4
3fec
3ffa
0003
3ff0
3ff0
0008
0002
3fee
3fed
3ff8
000c
000a
0007
0007
0002
0007
3fec
3fde
3ff0
0005
002b
001a
0014
0017
3fc6
3f60
3fcf
0006
3ff9
3ffb
0006
3fe0
3feb
3ffc
3fdd
3fec
3ff3
000a
0010
000b
000c
000a
3ffa
3ffe
3ff5
3ff4
000a
0021
0037
004c
0030
0037
3fa7
3f87
0010
003e
000b
3ffc
3ff6
3fde
3fe3
3ff1
3fe5
3fe2
3ffe
3fff
0004
000c
000b
0005
0007
3fff
3ff5
0020
0035
0052
0048
0077
0087
0080
3ffe
3fc0
0032
0051
0009
0003
000b
3ffe
0002
3ffc
3fee
3ff0
3ffb
0012
000a
0002
000c
0002
0005
000e
0027
004f
005b
0069
0058
0067
00a7
007f
0002
3fee
003b
003c
0043
002e
0015
002e
0022
0010
3ff7
3ff8
0001
000e
000a
0002
000f
0001
0011
0022
0045
0060
0069
004e
004b
005a
006e
0050
0007
3ff4
0015
0043
006e
004b
0045
0026
001a
0008
0005
3ffd
0005
0009
0004
000c
0011
000b
000e
001f
0023
0037
0032
0051
0046
0030
0023
002a
0008
0021
002f
0061
0056
003d
0024
3ff6
000e
0018
0003
3ff1
0008
0002
0005
0005
0000
0001
3ffe
0008
0015
0022
003b
0056
003d
0010
3ffe
0011
0015
004f
006d
0070
005d
003f
0008
001a
0026
0009
3ffa
3ffe
0004
0007
0007
0006
0006
000d
0000
3ff7
3fed
000b
002f
005a
004e
001c
0016
0020
004d
0080
0065
0055
001a
0004
3fe4
0008
0003
3fef
3ff9
3ff5
3ffa
000b
000e
0007
000b
0009
0001
3ff5
3fe9
3fe5
3fff
0017
0005
3fed
3ff5
001e
0021
0038
0030
0019
3fd9
3fdb
3fca
3fe0
3fdf
3fd4
3fde
3ff7
3ffb
0004
0001
0007
000d
0005
0003
3fe7
3fe1
3fd7
3fc3
3fbb
3fb7
3fa9
3fad
3fb7
3fd5
3ff3
000b
3fdf
3fe3
3fdd
3fcf
3fc9
3fce
3fcd
3fdd
3ff7
0007
000c
000b
0012
0011
0005
0003
3fec
3fde
3fce
3faf
3f9f
3f9a
3f98
3fb4
3fc2
3fbb
3fd5
3fe9
3ff8
3ffc
3fee
3fd9
3fe6
3fe2
3fdc
3fee
3fee
0001
0004
000c
0003
0005
0001
0002
0000
3fec
3fcf
3fbb
3fc2
3fb9
3fc3
3fd2
3fda
3fdd
3fd8
3fed
3fe7
0004
3ff9
0001
3ffd
3fe8
3fec
3ffc
3fff
0007
000a
000a
0009
000a
0004
000b
3ffd
3ff6
3fec
3fde
3fd3
3fe5
3fe4
3fec
3feb
3fee
3fea
3ff2
3ff3
0005
0014
0021
0019
0010
3ff5
3ff5
0000
0007
0001
0006
0006
0000
0005
000a
0006
0007
3ff5
3ff4
3ff0
0008
3fef
0003
3fee
3ff2
3ff2
3fff
0005
000c
0026
0025
001f
000e
3ffb
0004
0008
000b
0004
000e
000b
000f
0007
000c
0003
0009
0004
3fef
3fee
3ffa
3fed
3ffd
3ff3
3ff4
3fe9
3fe6
3ff5
3ffa
0002
0014
000e
3ffa
3ffe
0008
000d
0002
0003
000b
0010
0010
000e
0003
000e
0001
3ff6
3fef
3fe7
3fe6
3fd5
3fcf
3fd2
3fd2
3fd9
3fd7
3fcb
3fc3
3fca
3fe2
3fe5
3ff6
0001
000a
0001
000f
0006
0005
0007
000b
0002
0007
3fff
3ffe
0004
0003
3ffd
3ff1
3fdc
3fe0
3fdc
3fcf
3fca
3fd6
3fd0
3fd7
3fdf
3fec
3ff9
000b
000b
0001
0007
0001
0011
0008
000a
0002
0002
0011
0006
000e
0006
0011
0000
0007
0004
3ffe
3ffe
0001
3ff9
000d
3ffd
3ffc
3fff
0007
0005
0005
0006
000a
0009
000c
0009
0006
