3ff8
0005
3ffd
3fff
0006
3fff
3ffb
3ffa
3fff
3ffd
0006
0000
0003
3ff8
0000
3ff5
3ff7
3ffe
3ff7
0006
3ff7
3ffd
3ff6
3fff
0003
3ffe
0000
0000
0004
0004
0001
3ff6
3ff6
0001
3ff8
3ffe
3ffa
3ff5
3ff9
0001
0007
3ff6
3ffb
0003
3ff8
3ff5
0002
0005
3ff8
0002
3ff9
3ff7
3ffe
0001
3ffd
0006
3ff6
3ffa
3ff9
0003
0001
3ff5
3ffd
0006
3ffd
3ff8
3ff9
3ff3
3ff3
3ffb
3ff2
3fee
3ff3
3ffd
3ff5
3ff2
3ffe
0004
0001
3ff8
0005
3ff5
3ffd
0003
3ff5
3ffd
0006
3ff6
3ff9
0005
0002
0000
0001
3ffd
3ffc
3ff2
3fed
3ff5
3ff1
3fef
0003
0001
3fed
3ff0
3fe9
3fef
3fec
3ff2
3ff6
0004
0004
3ffa
0001
3ff5
3ff8
3ff5
3ff4
3ffe
3ffd
3ff5
3ffc
3ffe
3fef
3fef
3fef
3ff0
3ffc
3ffe
3ff3
3ff4
3ff3
3fee
3ff9
3fe9
3ff7
3fff
3ff6
3ffb
3ffa
3fff
0003
3ffb
0000
3ff7
3ffd
3ffb
3ffd
3ff9
3ffd
3ff3
3ffa
0004
000f
0021
0027
0027
002c
002f
0032
0012
0003
0008
3ffc
3fff
3feb
3ff1
3fff
3ff8
3ffc
3ffe
0001
3ffc
0000
0001
0001
0000
3ff5
3fee
000a
3ffe
001b
0018
0017
0022
0029
003b
0037
002f
002d
0033
001d
000a
3fea
3fe9
3ff0
0002
0005
0001
3fff
3ff2
3feb
3ffe
3ff7
0000
3ff6
3ffd
0002
0013
0028
0025
000f
0018
0022
003f
002e
0029
0011
0020
0023
0012
3ff2
3fea
3fec
3fff
0006
0002
3ffd
0000
3ff0
3ff4
3ff6
3ff4
3ffa
3ff9
0013
0014
000a
0004
0007
001c
0053
0042
003d
0013
0010
000f
0024
003f
3ff9
3feb
3ffe
3ff5
3ffe
3fff
0002
0001
3fed
3ff2
3fec
3ff5
3ff5
3ffa
000e
3ff4
0007
0015
0012
0010
002d
003c
0045
0028
000c
3ffe
001e
0040
0013
3ff0
0000
3ffe
3ff6
0005
3ff7
3ff0
3ff2
3ff5
3ff6
0001
0007
3ffe
3ff5
0004
0004
3ffd
3fea
3fdb
3fea
0016
0037
0039
0033
0025
0036
004a
0023
3ff1
3ff1
3ff5
3ff8
3ff6
0004
3ffd
3fe4
3ffa
0004
0015
0010
3ffa
0006
0001
000b
3ff9
3fc5
3f93
3f99
3fd8
3ffb
001d
002e
002b
003b
0043
0030
3ff7
3fff
3ff4
3ff8
3ffd
3ffc
3ffd
3ff0
0003
0017
0018
000c
3ffd
0010
000c
0015
3fee
3f8c
3f70
3f71
3fb2
3ff2
3ffa
0007
0014
004c
0046
0030
0002
3ff8
3ff8
3ff5
0000
0004
3ff5
3ffc
000e
001c
0024
001b
0013
001a
0014
000f
3fb9
3f8c
3f6c
3f87
3fc4
3fe3
3fd9
3fe2
000d
0032
004e
002d
0007
0000
0004
3ffe
0003
3ff7
3ffa
3ff2
0025
0030
003a
001c
0021
0031
001c
0007
3fc3
3f77
3f6c
3f8a
3fc0
3fe4
3fde
0003
001c
0021
004f
0029
3ff8
3ffc
3ff7
0005
0003
3ff8
3ffe
3fff
0034
0026
0034
0024
002f
003c
0011
3fd3
3f8d
3f67
3f6e
3f9d
3fd0
3fee
3fef
000f
000d
0032
003b
001f
3ffd
0001
3ff8
0001
0006
3ff4
3ffa
0009
002f
003a
002d
001f
0020
0035
3ff9
3fa8
3f68
3f6c
3f8a
3fc1
3fe3
0000
000a
0016
0021
002d
002b
0010
0001
3ffb
3ff9
3ffc
0001
3ff6
3fed
0002
0021
002a
0029
000d
0021
0034
3ff8
3f97
3f6a
3f7c
3fb1
3ff6
0014
001d
001b
0022
001a
0015
0017
3fff
3ffd
0002
3ff8
3ffa
0002
3ffc
3ff9
3ffc
0015
002b
0019
000f
002b
0053
0003
3fbd
3f94
3fb5
3fe9
0018
001a
001b
000e
0007
000c
0017
000e
3ffe
3ff9
0001
3ffc
3ffd
3ffb
3ffc
3fed
0008
0017
0038
0033
0028
0035
0053
003a
000c
3fe5
3ff4
3ff8
000d
3ffa
3ff5
3ff9
000d
000c
0017
3ffd
0003
3ffb
3ff4
0004
0004
0005
3ffc
3ff7
3ffb
0018
002d
0021
0029
0032
004e
004e
0027
000c
3ff8
0006
0005
3ff5
3ff7
3ff4
0006
0008
000c
0004
3ff9
3ffe
3ff6
3ffb
3ff9
3ff5
3ffc
3ff9
3ffc
0006
001c
002d
0020
0022
0043
004c
0032
0013
0007
0001
3fff
3feb
3ff0
3ff7
0008
3fff
3ff7
3ff1
3ffc
3ffb
3ff9
3ffa
3ff7
0001
0001
3ffb
3ff7
0003
0014
0011
0033
0029
002d
0036
002e
003b
001a
001a
000e
3ff4
3ff6
3fff
3ff2
3ff2
3ff9
3ff9
3ffd
3ffb
3ffa
3ffd
3ff7
3ffe
0000
3ff5
3ff5
3ffd
3fff
000e
0014
002f
0038
0045
0044
0029
0021
0012
0008
3fff
3fe6
3fe0
3fe7
3ff4
3ff6
3fff
3ffc
0003
3ffb
3ff5
3ffb
3ffe
3ff5
0000
3ffd
3ffd
3ff3
3fee
3ff6
3ff7
000a
0008
0013
001c
000f
3ff5
3fef
3feb
3fee
3fe7
3fe8
3fea
3ffc
3ffa
3ff7
3ff9
0001
3ff8
3ff9
0006
3ffd
0005
0006
0000
3ff4
3ffb
3fe9
3fea
3fe4
3fdc
3fd7
3fdb
3fd5
3fd9
3fdb
3fea
3fee
3ff0
3fef
3ff0
3ffb
0006
0003
3ffc
3ffa
3ffe
0005
0005
3ffb
0000
3ffa
3ffb
3ff5
0002
3ffa
3fec
3fec
3fee
3ff9
3fee
3fef
3ffa
3fee
3ff1
3ff5
3ff2
3ff9
3ff0
3ff2
0005
3ff7
0002
0004
3fff
3ff7
0004
3ffe
3ffb
0005
0001
0002
3ff5
0006
0005
0002
0004
3ffd
3ff9
0004
3ff6
3ffc
3ff9
3ffe
3ffa
3ff4
3ff6
3ff1
3ffd
0002
3ff7
3ff4
0003
