0009
0008
3ffe
0006
0005
0008
3ffd
0002
000a
3ffc
3fff
0004
000c
0008
3ffb
3ffe
3ffd
0005
0009
0001
0001
3fff
3ffc
0001
000a
0003
3ffc
0005
0008
0007
0003
3ffe
3ffb
3ffc
3fff
000c
3ffb
000a
0004
0006
0005
0007
0000
3ffb
3ffd
0007
0000
0002
0009
3fff
0002
0001
0005
000a
0000
0002
000b
000b
0001
0007
0009
0000
3fff
0003
0009
3fff
3ffd
0007
0004
0009
3ffb
0009
3ffd
3ffc
0001
3ffc
000b
3ffd
3ffc
000a
0002
0002
0002
0005
000d
0000
3fff
0004
0004
3ffc
000b
0006
3ffe
000b
0003
0009
3fff
3ff6
3fff
3ff1
3ffe
3ff8
0003
0002
0003
3fff
0008
3fff
3fff
000c
0004
0007
0001
0002
0001
3ffd
3ffc
0008
0005
3fff
3ff9
0003
3ff5
3ff1
3fea
3fd9
3fce
3fbd
3fcf
3fce
3fdb
3ff0
3ff8
3ffb
0002
0009
0007
0007
0000
0000
0009
0006
0008
0005
0006
3ff9
3ffa
3ff9
3fe9
3fea
3fe8
3fe0
3fd8
3fd1
3fb8
3fb3
3f9e
3fc0
3fd7
3fec
3feb
3fe5
3fe7
3fee
3ff9
3ffd
0001
0006
0008
0008
3ffb
0008
0005
3fe8
3fe3
3fdd
3fd9
3fd0
3fdd
3ff5
0003
002b
0041
0033
0024
001e
0026
3ffa
3ff7
3fe3
3fcc
3fd0
3fe4
3ff3
3ffe
0004
000c
0000
3ffc
3ffc
3fe4
3fd6
3fcf
3fc5
3fc8
3fec
3ffe
000f
003b
0046
0060
0060
0064
002e
0022
0004
0009
000a
3fdd
3fc2
3fdb
3ff7
3ff7
0008
000c
000c
0006
3ffc
3fe3
3fd4
3fcd
3fb9
3fed
3ff7
3ff6
3fec
3ffe
001c
0052
002d
002e
0009
0004
0002
3ff1
0008
3fed
3fcf
3fd6
3fec
3ff7
000b
0004
0002
0001
3feb
3fd3
3fde
3ff6
3fec
3ff4
3ffb
0015
000d
0004
0022
0039
0033
3ffe
3ff1
0001
3fe2
3ff3
3fe0
3fde
3fdc
3fe7
3ff5
3ff8
000a
0002
0000
3ffb
3ff8
3fdd
3fee
0011
0016
002d
002c
0026
003a
001d
0007
0007
3fe3
3fef
3ffd
0014
0000
0010
3ff6
3fec
3fed
3fe8
3ff9
3ff7
0006
3ffe
0002
3ffb
3ffd
3ff7
0020
004a
0037
0056
0023
0024
003e
3fec
3fef
3ff7
0004
0018
0053
0027
0028
0041
002f
001c
0006
3ffb
3ff5
0000
0000
0005
000b
3ff9
3ff4
001b
0046
0051
0030
003c
0049
002f
0001
3fd1
0029
0058
0045
003b
005b
005b
005f
0062
0041
001f
0001
3ff1
0002
0005
0006
000c
0007
3ff6
0004
0029
003d
003a
0026
002f
001e
001c
3ff2
3fe7
0040
0058
003f
0049
0042
005a
005b
0047
002a
0002
3fe4
3fef
3ffb
0005
0005
0002
0001
0008
0005
0013
0012
0030
0021
0010
0000
0006
3ffd
3fee
0015
000c
0038
003b
003b
0028
001a
0020
0001
3fdf
3fd0
3fec
0003
0002
0002
0009
0008
0006
3ff9
0001
0015
0014
000d
000e
3fe7
3ff4
3ff4
3fee
3ff2
3ff0
003d
005a
0056
002b
0004
3fed
3fcf
3fc3
3fd4
3fec
0000
0005
3fff
000b
0001
3ff8
3ffe
0001
0006
3ff0
000d
0025
3ff7
0015
001e
3ffc
3fde
3ffa
0022
003d
003d
000f
3fdd
3fc7
3fb1
3fc8
3fd3
3fe2
0001
3ff9
0006
0003
3ffe
3ff8
3ff4
3fe9
3fe5
3fe9
000a
0014
0017
0022
0032
001f
000e
0013
0032
000f
3ff6
3fea
3fcd
3fce
3fca
3fcd
3fdb
3fe5
0003
0003
3ffe
000a
0000
3ffa
3ffe
3fec
3fd3
3fd2
3fd3
3fed
0008
0037
002c
3fe5
3fe5
0002
0021
3fec
3fe9
3fd5
3fe6
3fe8
3fda
3fd8
3fd6
3fe2
3ffb
0001
0009
0006
000d
0002
3ff5
3fee
3fe0
3fcd
3fcc
3fca
3fca
3fc4
3fcd
3fbe
3fd2
3fd9
3fd4
3fda
3ff4
3fe3
3ff8
3fed
3fe9
3fea
3fed
3ff4
0003
3ffc
0001
3ffe
0002
0005
0000
3fed
3fe1
3fd1
3fb6
3fac
3fa1
3f80
3f9e
3fa0
3fe1
3fd4
3feb
3fe7
3ff9
3fd6
3ff2
3fef
3fe5
3ff8
3ff3
0001
000b
0006
0002
0001
0000
000b
3ff5
3ff3
3fe1
3fd5
3fbd
3fb4
3fad
3fa9
3fb1
3fce
3fcf
3fce
3fe3
3fe1
3fd1
3fc7
3fe8
3ff3
3ff8
0004
3fff
0005
0007
0000
0001
0008
0002
0002
0008
3ffb
3fe7
3fd8
3fca
3fd8
3fd6
3fd2
3fe1
3fdd
3fd2
3fd9
3fca
3fc4
3fc5
3fcf
3fd4
3ff4
000f
0008
000a
0011
0003
0004
0006
000a
0008
0003
3ffc
3ff9
3feb
3fe7
3fdf
3ffe
3ff3
3ff5
3fd8
3fe0
3fd7
3fde
3fc5
3fc1
3fc8
3fdd
3ffd
000e
0020
002e
0026
0012
3fff
000d
3fff
0000
3ffb
3fff
000b
0008
000c
0009
000d
0012
000a
3ffa
3fec
3fff
3fe1
3fd9
3fd6
3fed
000e
0017
0018
0037
003b
0022
0015
0010
3ffd
0007
0000
0003
000b
000b
3fff
0001
0012
000e
0028
002c
002d
0027
000f
0029
0024
0023
0021
003d
0042
0049
004c
0055
003c
0018
000b
3fff
3fff
0003
0003
0000
000a
0003
3ffc
000a
000f
0015
001e
0022
0033
0035
003b
0046
0047
0057
0032
0022
001d
002b
002e
0021
0017
000a
0003
0002
0004
3ffc
0002
3ffe
0004
3ffc
000c
0007
0004
3ffe
000b
000a
0007
3ffe
3ffe
0002
3ffe
0002
0007
0001
0004
000d
000c
0007
0004
3ffd
000d
0007
3ffe
0001
3fff
