3ff3
0000
3ffa
3ff5
3ff9
3ff6
3ffc
3ffc
3ff3
3ffb
3ff4
3ff8
0002
0002
3ff3
3ffb
3ff4
3ff5
0003
0001
3ff6
3ffc
3ff8
3ff2
3ff3
3ffb
3fff
3ffc
3ffb
3ffa
0003
3ffd
3ff4
3ff3
3ff3
3ff6
3ff6
3ffb
0000
3ff4
3ff8
3ff4
3ffc
3ff2
3ffc
3ff4
3ff8
3ff5
3ffc
3ff5
3ff3
3ff1
0001
3ffd
0001
3ff7
3ffa
3ff2
3ff4
0000
3ff3
3ff4
3ff9
3ffb
3fff
3ff8
0007
0006
0012
000f
000d
0005
0012
0006
0005
3ff7
0000
3ffc
3fed
3ff9
3ffe
0005
3ffb
3ff8
3ff7
3ff6
3ffd
3ff6
0003
3ff4
3ffc
0000
0003
001d
002e
002e
002c
0040
0023
0010
001e
000e
3ff3
3ffd
3ff1
3fef
3feb
3ff6
0002
0005
3ff4
3ffe
3ff6
3ff9
0004
3ff1
3ff3
3ffc
0007
0007
0013
0038
0039
0048
003d
0030
002c
0013
001a
0018
3ff9
3ff4
3ff7
3fe4
3fde
3fdf
3ffc
3ffc
3ff2
3ffd
0001
3ffc
3ff5
3ff1
3ff4
3ff6
0006
001c
0026
0041
0048
004c
0045
004e
0048
0043
0048
003b
002a
3fee
3fef
3fe4
3fe3
3fd4
3fed
3ff5
0002
3ff8
3ffa
3ff6
0002
3ffa
3ff9
0005
001b
0034
0028
002d
003d
0026
0029
0035
002e
0019
001c
0007
0005
3ff0
3ff5
3fdc
3fdc
3fce
3fe2
3fef
0002
3ffe
3ff8
0002
0002
3ff9
0001
000e
0023
0032
0029
0026
000f
0011
0003
001b
0021
0007
0004
3fd6
3ff2
3ff4
3ff3
3ff0
3ff4
3fd7
3fe4
3ff7
3ff5
3ff3
3ffd
0002
3ffa
0002
0008
0018
0011
0018
0018
001b
001b
001f
0012
0016
003a
0021
3ffc
3ff0
0000
000d
0000
3ff7
3fe8
3fd0
3fdb
3ff1
3ff9
3ff4
3ff6
3ffe
3fff
0006
000c
001a
0009
0002
3ff7
000e
000b
000e
0004
3fff
0026
0029
000e
0001
3ffc
0000
3ffe
3fff
3ff1
3fd7
3fdd
3ff5
0002
3ff3
0003
3ffd
3ffa
3ff7
0002
3ffa
3ff3
3fc0
3fc7
3fd5
3fbe
3fb7
3fab
3fa0
3fd8
0007
000a
0002
0005
3ff8
3ffa
3ff8
3fec
3fd1
3fe6
3fff
3fff
3ff5
3ff3
0003
3fff
3ff4
3fe8
3fcc
3fa6
3f81
3f86
3f71
3f70
3f7d
3f75
3f56
3f7d
3fc2
3fea
3fed
3fee
3ffc
3ff5
3ff5
3fe2
3fec
3ffc
3ff9
3ff5
3ffd
3ffb
3ffc
0001
3ffa
3fe6
3fb2
3f68
3f46
3f53
3f5c
3f6a
3f74
3f74
3f6e
3f88
3fb0
3fc9
3fcf
3fe7
0000
0000
3ff2
3fe0
3fd0
3ffa
3ff8
0004
3ffc
3ff6
3ffa
0003
3ff6
3fd6
3f9e
3f64
3f71
3f7a
3fa4
3fbf
3fe1
3fd0
3fea
3fc9
3fc8
3fbd
3fd0
3fe5
3ffb
3ff8
3fef
3fd8
3fdc
3fee
0005
3ffa
0000
0002
3ffd
0000
3ff8
3ff0
3fbe
3fac
3fbb
3fe5
3ffb
0011
0017
001b
002a
0003
3fe5
3fec
3fdd
3ffa
3fea
3ff9
3fe6
3fd2
3fdf
3ff9
0010
0012
3ff6
3ff9
3ffa
3ff9
000f
0007
0003
0012
0015
0027
001c
0021
0013
0011
0028
0003
0010
0002
3fe0
3fe1
3fed
3ff2
3feb
3fd6
3feb
000d
0016
000c
3ff4
3ff7
3ff2
3ff0
0010
0022
0037
0038
0022
000e
001d
001b
0019
0033
002d
0009
3ffb
0000
3feb
3fee
3fe0
3ff5
0002
0007
000f
002f
003a
000a
3ff7
3ff8
0003
3ffa
0014
003a
0051
004a
0032
0023
002b
0041
0036
003e
001d
000f
0014
0014
3ffd
000d
3ff8
0018
001a
0013
001b
004c
0042
000f
0002
3ffe
3fff
3fec
0005
003f
006a
0064
0048
0030
0035
0051
0049
0075
0055
004b
0024
0019
002e
001e
0014
0036
0038
003d
0051
0064
003a
3ffa
3ff4
3ff6
3ff7
3ff2
0000
0022
0040
0051
0046
0041
0045
0042
0046
004e
003c
0027
0013
001d
0032
0018
0018
0028
0032
0042
0046
003d
0020
0003
0001
3ff3
3fff
3ffd
3fef
001f
0026
003b
0052
004d
0033
0031
0053
002e
000f
000a
000d
0010
0001
0024
0038
0026
0036
004b
0041
002f
0016
0000
3ffe
3ffb
3ff4
3ffe
3ff9
0006
0010
0029
002e
0028
0032
002c
002c
0011
0008
3ffc
0002
0016
0018
0034
0037
0018
0036
0042
004c
0025
000f
0003
3ffe
3ff3
3ffd
3ff5
0004
000d
0005
001c
0018
0017
0020
0020
0025
0004
3fe2
3fdb
3feb
3fec
000f
0030
003e
0038
0036
002f
0034
0013
3ffe
3ffd
3ff7
3ffd
3ffd
3ffa
3ffa
3ff9
3ff2
3fee
3ff1
3fe7
3ff1
3ff6
000d
0001
3fec
3fe5
3fdd
3fda
3fec
0008
0030
002a
0034
0025
000e
0009
0005
3fff
3ff9
3ffb
3ff6
0000
3ffe
3ff6
3fe5
3fcc
3fd9
3fd8
3fd5
3fd5
3fdf
3fdf
3fee
3fe9
3fdf
3fe0
3fe7
3fe2
3ff0
3ff2
3ff2
3ff8
3ff9
3fff
0005
3ff5
3ff5
0000
3ff2
3ff9
3ff7
3ff5
3fed
3fe7
3fd9
3fd5
3fd8
3fdc
3fd2
3fe1
3fe3
3fda
3fe0
3fe9
3fea
3ff8
3fec
3ff9
3ff8
0000
3ff5
3ffc
3ff5
3ff2
3ff6
3ff3
3ff8
3ffa
0001
3ffe
3ff9
3ffd
0000
3ff9
0001
0000
0000
0001
3ffc
3ff7
3ff1
3ff8
3ffc
3ffb
3ff5
0001
0000
3ff5
3ff8
3ff3
0001
0000
3fff
3fff
3ff6
3ff4
3ffb
3ff2
0003
0003
3ff8
3fff
3ff5
0002
3ff2
3fff
3ff9
3ffd
3ff4
3ffb
3ff9
3ffc
3ffb
3ffe
3ff1
3ffa
0000
3ff1
3ffb
3ffe
3ff8
