0001
0001
0008
0003
000c
3ffb
3ffc
0004
000a
0009
3ffb
0002
0003
3fff
000a
0003
0000
0000
0001
0003
0006
000c
3ffd
0009
3fff
0006
3fff
0000
000b
3ffe
0003
000b
0004
0000
000b
0004
0001
3ffe
3fff
3ffa
000a
3fff
000c
3ffd
0005
0009
000a
0008
0000
0008
0000
000c
0009
3ffd
3ffd
0005
000b
000b
0008
3ffe
000a
3ffb
3ffc
0008
0006
3ffc
3fff
0005
3fff
3ffe
0003
000a
0008
0001
0004
000b
0009
000b
3ffb
0008
0003
0007
0006
000a
3fff
0001
000a
3ffe
0001
3fff
3ffc
0006
0000
0006
3ffb
0001
0005
3ff9
0006
3ffb
3ff6
3ff7
3ff9
3ffb
3fff
3ffb
0004
3fff
0005
000c
3ffc
0005
000c
3ffc
0007
3ffb
0003
3ffe
0001
3ffb
0004
3ffe
3ff4
3fea
3fe9
3fea
3fe5
3fd4
3fe6
3fec
3fef
3ffb
3ff3
0006
0001
3ffa
000b
0000
000b
000b
000a
0000
000a
3ffd
3ff8
3fff
3ffa
3ffe
3ff9
3ff0
3fd9
3fd0
3fc3
3fb9
3fa7
3fa8
3fa4
3fae
3fbb
3fcb
3fdb
3ff3
3feb
3ffd
0009
0007
3ffe
0000
0008
000b
0001
0002
000c
000f
0011
001a
0027
001f
0021
0006
3fe6
3fc9
3fc6
3fe2
3fee
3fea
3fe6
3fe2
3fd2
3fef
3fe0
3fe9
3ff0
3ffb
3ffb
0001
0008
000c
000a
0017
001b
0019
0024
0036
004a
003b
0029
002d
0030
0009
0007
0011
0032
0038
0026
001e
0007
3ff8
0004
3ff7
3ff8
0000
0006
3ffe
3ffa
000c
0005
0013
0026
0023
002e
0053
0038
0027
0031
0042
003f
0020
0012
001a
002c
0044
002f
0028
0020
0001
0013
0010
3ff4
3ffa
0006
000a
0005
000a
000d
001b
0026
002b
0010
0015
0018
0010
0026
002f
003c
0031
0046
0056
004f
0058
003a
003b
0031
0029
0014
3ff9
3ff4
3ffa
0005
3ffd
0002
000b
000c
0022
0027
0020
0006
000a
3ff3
0000
0018
002a
001d
0044
0057
006b
007a
005b
0047
004a
0041
0037
0018
3ff6
3fef
3ff9
0001
3ffd
0009
0007
000c
0023
002a
0015
0008
0007
0002
0019
000d
0010
001b
001b
001c
0052
006b
0047
0048
0037
0036
0022
0018
3ff8
3fe7
3fff
0002
000b
0008
3fff
0006
0016
0019
0004
0006
0017
0010
3fff
3fed
3fcd
3f94
3f59
3f83
0003
0047
0040
0019
0009
0002
3ff7
3ff8
3ff1
3ff5
000a
0007
0000
0009
0005
000a
0014
0007
0003
3ff9
0004
3ffd
3ff0
3fca
3f8f
3f39
3f22
3f89
3ff0
0024
0017
0005
000b
3fea
3fe4
3ff9
0002
3ffb
3ffc
0006
3ffb
3ffe
0005
0012
0016
000e
0010
3ffb
3ff5
3fe7
3fc5
3fa9
3f7a
3f54
3f6f
3fcb
0001
000b
0017
0042
0047
002a
001b
001b
0018
0008
0002
3ffc
3ffd
0006
0008
0003
0008
0008
3fe8
3ff5
3ff1
3fc1
3fb3
3f9a
3f8b
3f81
3fa2
3fc9
0002
0006
0059
0069
0056
004d
0042
002b
0013
3fff
3ffb
0001
0009
0006
000b
3fff
000c
0009
3ff5
3ff1
3ffe
3fcd
3fc7
3fa3
3f92
3fbb
3fd9
3fc8
001d
0023
004c
0041
0044
0036
0029
0008
3fef
3ff6
3ffa
0006
000b
0000
0001
0007
0000
0002
3ff9
3fde
3fd3
3fc7
3fd1
3fc2
3fd2
3ff1
000b
0007
000b
3ff9
0012
0010
000c
0006
3ff7
3feb
3ff7
3ff8
3ffa
3ffd
3ffd
3ffd
3fff
0008
0002
3ff2
3fdf
3fc9
3fbc
3fc1
3fc5
3fb4
3fe6
3ff8
0001
0015
3fe9
3fe4
3ff1
3fdd
3feb
3fdc
3fc9
3fd8
3fe7
3fec
0002
3ffe
0000
000b
000c
000b
0005
3ff7
3fd5
3fbb
3fb6
3fb4
3fb4
3fcc
3fdb
3fea
000a
001e
3fe0
3fe1
3fd9
3fc2
3fc5
3fb8
3fbd
3fcd
3fdd
3fee
3ff9
000b
3ffb
3ffa
3ffd
0005
3ffe
3ff5
3fdf
3fbb
3fb8
3fbc
3fbd
3fd2
3fd0
0003
0005
0010
3fd6
3fcb
3fbb
3fa1
3fc3
3fac
3fc0
3fd2
3fec
3ff3
000a
0009
0006
0009
0009
0002
3ff4
3ffa
3fe2
3fdd
3fce
3fd3
3fe5
3fda
3fe1
3ff2
0002
3ff8
3fe3
3fdf
3fbc
3fbc
3fbc
3fb8
3fc3
3fdc
3fe5
3fff
0004
0009
3ffe
0003
0001
0002
3ff8
3ffd
0004
3ff5
0005
0009
3ff2
3fe6
3fd4
3fd6
3fef
0005
0005
3fe6
3fe0
3fc9
3fca
3fc3
3fca
3fe5
3ff7
0006
3ffa
0003
0000
0004
0008
3ff9
3ffa
000b
000f
0021
002c
0015
0004
3ff3
3fe2
3fe8
0002
0011
0010
3ff9
3ff6
3fdd
3fcf
3fce
3fd9
3fe0
3feb
3ff7
0001
0001
3ffd
0000
3fff
0003
0007
0010
0024
0036
003d
0034
001b
003a
0022
001e
002a
001a
0025
0016
0011
3fff
3ff0
3fef
3feb
3fe9
3feb
0003
3ffe
3ffa
0006
3ffa
0005
0009
0009
0005
0012
001b
0029
003f
003e
0049
0044
003d
0030
0031
0034
002c
0029
0021
000b
3ff2
0002
3ff9
3ffb
3ffe
0003
000c
0008
3ffc
0002
000c
3ffe
3ffc
000b
0001
000a
000a
0001
000e
0014
0006
0011
0025
002e
0024
002f
001b
000d
0000
0005
3fff
0003
0001
3ffd
3fff
3ffe
3ffa
0005
0003
0006
0008
0005
0002
0001
000d
0008
0002
0008
0004
000f
0009
0007
0015
0007
0006
000f
0002
3ffe
000c
0007
0003
3ffe
3ffb
0008
