3ffb
3ff4
3fff
0001
0001
3fff
3ffb
0001
3ff6
0001
0001
3ff7
3ff7
3ff7
3ff8
3ff9
0000
0001
3ff4
0001
3ffc
3ffd
3ff0
3fff
3fff
3ff1
3ff8
0000
3ff3
3ff8
3ff3
3ffc
3ff2
3ff9
0002
0001
3ff1
3ff0
3ff1
3ffb
3ffd
3ff9
3ff7
3ff4
0002
3ff4
3ffd
3ff7
3ff7
3ff1
3ffa
3fff
3ff2
3fff
3ffb
3ff3
3ff5
3ffa
3ff9
3ff4
3ffc
3ffd
3ff5
3ffd
3fff
3ff9
3ff2
3ff3
3ff1
3ff3
3ff8
3ff6
3ff5
3ff5
3ffd
0000
3ff8
3ff3
0001
3fff
0000
3ff6
3ff0
3ff9
0002
3ffd
3ff9
3ffe
3ffd
0000
3ffb
3fff
3ffe
3ffa
0006
0013
0027
0020
0021
0025
0019
001d
0016
0002
3ffe
3fe5
3ff0
3fff
0001
3ff4
3ffb
3ff5
3ffa
3fff
3ffc
0000
0006
0000
0017
0013
0035
002d
0038
0044
004f
0054
004c
0038
001f
0019
0029
0005
3fe4
3fd4
3fdb
3fdb
3ffc
3ff9
3ff6
3ffe
3ff2
3ff0
3ff4
3ff4
0003
0018
002c
0023
0028
0023
0020
002a
002a
0033
0009
0022
0027
3ffd
3ffe
3fee
3fe7
3fcc
3fbd
3fc8
3ff0
0000
3ff5
3ff9
3ff4
3ff6
3ff5
0005
001e
0037
002a
0020
0031
0028
0023
0022
002d
0041
002d
0010
002b
0027
0026
3fef
0010
3ff0
3fc7
3fc7
3fdd
3ff9
3ffe
3ffb
0001
3ffe
0003
0019
0041
0041
002e
000d
000e
001d
0009
000d
0026
0024
003c
0023
000b
001e
0019
001b
001b
0004
3fe4
3fc0
3fd2
3ff4
3ff0
3ff8
3ffa
3ff7
0003
0017
0036
0033
0026
0010
001a
000c
0021
000a
0009
0010
0041
0036
000c
001e
002b
001c
0029
0015
3ff5
3fc5
3fd4
3ff0
3ff2
3ff6
3ff8
3ff1
3ffb
000a
001c
0025
001e
0007
3ffc
3fe4
3fca
3f9d
3faf
3ff5
004d
0077
0045
0028
002c
0028
003c
0027
3ff4
3fc5
3fe2
3fef
3ff3
3ff5
3ffe
3ffd
0001
000f
000d
0006
3fef
3fd4
3fb0
3f8d
3f74
3f70
3f96
3fe5
003f
0049
003e
003a
0024
003e
003a
0017
3feb
3fda
3ff2
3ff0
3ff9
3ffe
0002
3ffe
3ff3
000f
3ff7
3fd3
3fbd
3f9d
3f84
3f95
3faf
3fda
3feb
001b
002a
002a
0013
002c
0036
0035
002e
0000
3fec
3fef
3ff1
3ff7
3ff4
3ff2
0001
3ff6
3ffd
3fff
3ff0
3fd3
3fb1
3f9d
3fa7
3fd0
0001
0008
000d
001d
0047
0025
0019
0023
001c
3ffe
3fdb
3fce
3fcb
3fdf
3ffa
3ff6
3ffb
3ffc
3ff9
3ff5
3ff9
3ffc
3feb
3fe1
3fc0
3fb6
3fce
3ff6
3ff0
3fd5
0003
003d
003d
000b
001c
001e
0010
3feb
3fc8
3fc8
3fd3
3fe1
3fee
0000
3ffd
3ff6
0001
3ff4
3ff8
3ffb
3ffc
3fe6
3fc6
3fcc
3fdc
3ffb
3fdb
3fd8
000b
001d
001f
3ffb
3ff3
3ff6
0004
3fe8
3fdf
3ff0
3fe9
3ff1
3fec
3fee
0000
0001
0001
3ff4
0002
0004
3ffb
3fe3
3fca
3fc6
3fd5
3fe7
3fe4
3ff7
000c
0030
001b
3ffd
3fd8
3ff4
3ffc
000b
0019
0018
0008
0003
3ff1
3ffd
3ffb
3ff4
3ffb
3ffd
000b
0002
0008
3ff3
3fea
3fda
3fad
3fa9
3fb3
3fec
0017
003c
3ffa
3fd4
3fd2
3ff1
0013
0033
0024
002d
002c
0013
3ffa
3ffc
3fff
3fff
3ffe
0002
0000
001c
000f
0005
3ff1
3fce
3fa7
3f72
3f50
3f5f
3f86
3fba
3fbf
3fc6
3ffe
0012
0021
0034
000b
003e
003e
0013
3ff7
3ff3
3ff4
3ff5
3ff9
3ffa
0005
0029
001e
0012
0009
3ff5
3fe0
3f98
3f67
3f6f
3f51
3f71
3fa6
3feb
0024
0031
0035
0034
0025
0049
0044
001a
3fe8
3ff0
3ff4
3ffe
3ffe
3ff4
3ff8
0034
0035
003e
0035
0014
0006
3fea
3ff0
3fcf
3fb8
3fb3
3fcc
0012
0031
003e
0045
003e
0037
0040
0018
0003
3fec
3ffc
3ffe
3ffc
3ffd
3ff0
0009
0038
0044
004a
004e
0027
002e
0035
0013
3ffb
3fee
3fe5
0008
000f
001c
0032
0034
0023
003d
0023
3ff9
3ff2
3ff0
3ffb
3ffb
3ffa
3ff5
3fff
3ffc
001c
0042
0042
0039
0020
0023
000b
3ffb
3ff0
0005
3ffd
3ffc
3ff8
0010
0006
0020
0033
001e
000b
3ff5
3fe2
3ff6
3ff4
3ff0
3ff1
3ff9
3ffb
3ffd
0011
0021
002d
0028
0017
0002
0011
0014
0018
0007
3ff7
3ff7
3ff3
000a
0008
0008
0023
0011
3ffa
3ff8
3ff6
3fe9
3fef
3ffd
0000
3ffb
3ff3
3ff5
000b
0024
0037
0029
002b
000a
001c
0011
0000
3ff2
0002
0006
000e
000a
0015
0022
3ffa
3fe9
3fea
3ff4
3ff1
3fff
3ffc
3ff2
3ff3
3ff6
0002
0002
0000
0017
0025
002c
0034
0035
002b
003f
0043
0044
0036
002f
0023
0022
3ffd
3fe5
3fda
3fde
3feb
3fed
3ffa
3ff6
0000
3ff6
0002
3ffe
3ff0
0001
0003
3ffc
000f
0016
000c
001e
001e
0038
0040
0045
0036
0026
000f
3ffa
3fe8
3fe8
3fec
3fec
3ff6
3ff6
3fff
3ff4
0002
3ff0
3ffe
3ff5
3ff0
3ff0
3ffc
3ffc
3ff5
3ff3
3ffc
3ffc
3ffb
3ff9
3ffa
3ff7
3ffb
3ff7
3fee
3ff5
3ffb
3ff9
3ffb
3ff1
3ff1
3ffe
3ff7
0000
3ff4
3fff
0002
3ff8
3ff4
3ffb
3ff1
0001
3ffc
3fff
3ffb
3ffd
3ff0
3ff3
3ffd
3ff3
3ffe
3ff6
3ffa
3ff7
0000
3ff1
3ff4
3fff
3ffb
3ff4
3ffc
3ff2
3ff0
3fff
3ff9
