3ff7
3fff
3fff
3ff4
3ffa
3ff9
0000
3ff8
3ffd
0003
3ffd
3ffd
3ff7
3fff
3ff4
3ff6
3ff2
3ff5
3ffe
3ffd
3ff2
3ffb
3ffc
3ff9
3ff3
3ffb
3ffc
3ff8
3fff
3ff1
0000
3ff3
3fff
3ff8
3ffc
3ff8
3ff6
3ffc
0001
3ff4
3ff8
3ff5
3ff2
3ffe
3ff7
3ff5
3ff7
3ff6
3ffd
3ff3
0000
3ff4
0000
3fff
3ff5
3ffa
3ffa
3ffd
3ff8
3ff2
3ff5
3ffb
0000
3ffc
3ff6
3ff8
0002
3ff1
3fff
3ff6
3ff2
3ff5
3ff7
3ffb
3ff8
3ff8
0003
0000
0001
3ff5
3ff2
3ff9
3fff
3ffc
3ffd
3ffc
3ff5
3fff
3ff4
3ff8
3ff1
3ff6
3ff2
3ff6
3fe8
3fe1
3fef
3ff0
3fec
3ff9
3ffd
3ff0
3ff7
3ffd
3ffe
3ff9
3ff0
3ff5
3fed
0002
0001
3ff3
3ff3
3ff8
0001
0001
0002
3ff6
3ff6
3fea
3fdc
3fd0
3fb9
3fd3
3fd2
3fc3
3fde
0000
3ffc
000b
3ffd
3fef
3fe9
3ff4
3ff6
3ff9
3ff7
0003
0002
3ffa
3ffb
0003
3ff5
3ff3
3ff7
3fea
3fdf
3fe0
3feb
3ffc
0007
0008
3ff5
3ff0
3ff6
3ffb
0010
0011
0020
0014
0013
0019
002d
0027
001b
000f
0009
0003
3ff4
3ff3
0002
3ff3
3ff0
3fd9
3fef
3ffe
3fff
0010
0021
001b
0005
000a
3ffb
3ff0
3ff7
3ff8
0000
001f
0012
0014
003e
004a
0054
002c
0016
0005
3ff9
3ffc
3ffb
3ff0
3fd3
3fcb
3fe0
0004
0015
002a
0028
0023
000a
3ffd
3ff5
0001
0011
0010
0014
002d
0027
002e
0041
0057
006a
004d
000c
3ffe
3ffd
0003
0000
3fea
3fbf
3fc8
3fd8
0002
001f
0009
0011
0021
0014
3fe9
3fcf
3fe2
3fee
0002
0005
0025
0027
0038
0059
0074
009b
0064
0012
3ffe
3ff3
3ff8
3ff2
3fe2
3fdd
3fe0
0004
3ffe
001b
0017
0019
0044
002c
3fee
3fc4
3fab
3fb0
3fd2
3ff5
0000
0024
004e
0070
009a
00c1
007f
0017
3ff7
3ffd
3ff7
3ff4
3ff6
3ff6
3ff9
0016
0028
003f
0046
0043
0051
0043
0034
3ff5
3fd6
3fba
3fbc
3fba
3fb0
3fc9
3fef
0009
0034
0067
004d
001a
3ff7
3ff4
0000
3ff6
3ffa
3ff6
3fff
0022
002a
003d
0038
0029
002d
004b
0046
0001
3fd4
3fca
3fc6
3fb2
3f94
3f63
3f70
3f8a
3faa
3fe1
0003
0009
3ffb
3ffb
3ffc
3ffa
3ff7
3ff9
0011
0027
0023
001a
000f
002c
005b
0055
0057
0009
3fd4
3fae
3fbe
3fd3
3fc0
3fb7
3f86
3f75
3f87
3faf
3fe9
0001
0000
3ffb
3ff5
3ff4
3ff8
3ffd
0009
001a
0013
0016
0013
003d
0044
0033
002f
3ff7
3fcc
3fab
3fd3
3ff0
3fee
3ff7
3fdd
3fc2
3fa5
3fbb
3ff4
3ff3
3ffe
3ffb
3ff4
3ffa
3ff1
3ffb
3ffa
0000
3ffd
001c
002c
0035
000a
0012
3ffd
3fda
3fd4
3fc3
3fca
3fce
3fe8
3feb
3fed
3ff4
3fce
3fde
3fef
3ffa
3ff1
3ff3
0002
3ff2
3ffa
3feb
3fe0
3fd3
3fe2
000b
0032
0018
0016
0013
3fef
3fc8
3fbf
3fc5
3fc4
3fd6
3ffe
3ff2
3ff4
3ff1
3fef
3ff4
0000
0002
3ff7
3ff8
3ffb
3ffd
3ff2
3ff8
3fdb
3fb7
3fa9
3fc5
3fe0
3ff3
3fed
3ff4
3fd8
3fb3
3fc1
3fd3
3ff0
3ff1
0002
000d
0002
000e
0003
0002
0002
3ff7
3ff8
3ff6
3fff
0000
0001
3ff7
0003
0005
3fc7
3f98
3f9f
3fba
3fd6
3fbf
3fac
3fae
3fdb
3ff0
0019
0026
0019
0019
0007
0001
000e
000e
3ff4
0000
0000
0001
3ff6
3ffa
3ff8
0015
001b
0040
000b
3fc2
3fa6
3f89
3f96
3fb4
3fd5
3fea
3ff7
3ffe
001d
000f
001a
0011
0019
0015
001d
000f
0001
3ff5
3ffc
0000
3ff6
3ffb
0002
001f
0035
0048
0030
001f
000a
3fe9
3fe8
0002
001d
000b
0010
0010
3ffb
000b
000b
0002
0013
0020
0018
0002
0000
0000
3ff3
3fff
3ff1
3ff9
3ff5
0004
0023
0029
0032
0045
003b
0033
004b
002f
0023
3ff6
3ff7
001a
000d
0016
001d
0019
0014
002f
0023
3ffb
3ff1
3ffb
3ff7
3ff5
0000
3ff1
3ffa
000e
3ffc
0011
002d
0041
002b
0024
0014
0019
0010
0010
0014
0005
0010
0008
001a
0019
002b
0034
000b
0000
3ff4
3ff7
3ff7
3ffd
3ff2
3ff9
3ff7
0005
3ff9
3ff1
3ffd
0019
0025
0006
0021
0035
0042
0021
0005
0004
0008
0011
0011
001d
001b
001c
000a
3fff
0002
3ffb
3ffc
3ff4
3ffa
3ffd
3ffb
3ff5
3ff9
3fea
3ff6
0014
0014
0014
0023
0022
0017
001a
0018
0018
000b
3ff3
3ffe
000c
0005
0010
3ff6
0003
3ff8
3ff8
0002
3fff
3ff8
3ff7
0003
3ff1
3ff0
3ffa
3ffd
3fff
001a
0022
001a
0011
0018
002b
0024
0015
000a
0014
000d
3fff
3ffe
3ffb
0001
3ff6
3ffc
0002
3ff3
3ffa
0001
0002
3ff3
0000
3ffc
3ff0
3ffa
3ff2
0008
0006
0012
0012
001f
0002
0009
0008
000f
3ff6
0000
3fef
0001
3ffa
3ff5
3fff
0001
3ff2
3ff8
3ffc
3ffb
3ff5
3ff8
3ff7
3ff9
3ffd
3ff6
3ff2
3ff9
3ff7
3ffe
0000
3ffc
3ff6
3ffb
3ffe
3ff6
3fec
3ff0
3ffd
3ffc
3ff7
3ffd
3ff9
3ffb
3ff7
3ff2
3ffd
3ffe
3fff
3ffc
3ff4
3fff
3ff8
3ff7
0003
3ff7
3ff6
3fff
3ffb
3ff1
0000
3ffb
3ff2
3ff1
3ff5
3ff1
0000
3ff8
0003
3ff3
3ffc
3ff9
3ff4
3ffe
