3ff9
3ffa
3ff9
3ffd
3ffc
0001
3ff1
3ffd
3ff6
3ff8
3ff4
0001
3ffb
3fff
3ff4
3fff
3ffc
3ff3
0001
3ffa
3ff9
3ff9
3ffa
0003
0000
3ff8
3ff6
3ff9
3ff9
3ff1
0002
0000
3ff3
3ff3
3ff2
3ff3
0002
3ffb
3ffa
3ff1
0002
3ffe
3ff6
3ff8
3ffe
3ffb
3ff5
3ffc
0001
3ff2
3ffe
3ff5
3fff
0003
3ff6
3ff5
3ff4
0000
3ffb
3ffa
3ff4
3ff2
3ffb
3ff1
0003
3ff1
3ff2
3ffd
3ffb
3ff1
3ffd
3ffc
3ff0
3ff7
3ff7
3ffe
0000
3fff
3ffc
3ff9
0001
3ff6
3ffe
0002
3ff5
3ffa
3ffa
3ff3
0003
3ff4
3ff2
3ff8
3ff2
3ffb
3ff5
3fec
3fea
3fe5
3fe9
3ff3
3fe9
3fee
3ff4
3ff9
3fef
0001
3ff7
3fff
3ff6
3ffd
3ffb
3ff3
3ffa
3ffe
3ff8
3ff3
3fff
3fff
3ffa
3ff4
3ff4
3ff9
3ffa
3ffd
0013
000d
002a
0020
000f
0008
000c
3ff5
3ff3
3ff9
3fec
3ff2
0000
0001
3ff8
3ffa
3ffa
3ffd
3ffe
3fff
3ff4
3ff9
3ff6
3fe5
3ff5
000a
3fea
001e
0038
002e
0030
0017
0013
002d
0002
3ffe
0010
0008
3fe5
3fe9
3ff0
000c
3ffb
0002
3ff5
3ff4
3ff2
3ff2
3ff0
3ff0
3fe7
3fe6
0002
0008
3ffe
000e
0017
0012
001a
0030
0017
001b
0006
001f
000c
000f
0012
0011
000e
0006
3ffa
3fff
0002
3ff5
3ff3
3ff6
3fef
3ffa
3fef
3fff
0011
0007
0009
3ffb
3fea
3ff0
3fe8
000f
0012
3fff
000c
3ff2
0013
001d
0005
003c
0025
3fff
0001
3ffd
3ffd
0001
3ffd
3ff4
3ffd
3ffa
0019
000f
0006
002b
0002
0001
001d
0025
3fe3
3fe7
0014
3ff2
0007
0014
000d
0028
001b
002d
0029
3ffb
3ffc
0004
0000
0001
3ffa
3ff8
3ffc
0019
0013
0027
0034
002c
001c
0031
000d
000e
3fc7
3fb1
3fe4
0004
0009
000f
0014
0011
002a
002b
3ff9
3ffa
000a
3ff3
3ff6
0000
3ff5
0001
000a
001f
001f
0038
002a
0031
0047
0022
0024
001d
3ff7
3fb5
3fc2
3fed
0015
0015
0016
0033
0038
002e
0001
3ffd
3ffa
3ff6
3ff5
0003
3fff
3fef
000f
0022
0041
0054
0042
0054
0039
001b
0023
0053
0066
3ff3
3fc3
3feb
3fec
0008
002e
0037
0049
0045
0030
0008
0004
3ffc
3ff6
3ffd
3ff8
3ffc
3ffd
0029
0022
0034
0031
003d
000a
000f
0008
0065
0065
0017
0004
3ff7
3ff9
0019
002b
004a
0056
0048
002d
0012
0009
3ff3
3ff2
3ffb
0003
3ff4
3ff7
0000
3ff9
3ffa
0006
3ff9
3fea
0008
0025
005e
001c
0045
001c
3fee
0002
0002
001f
001c
0010
0017
000c
0003
0003
3ffe
3ff7
3ff2
3ffe
3ffa
3ff3
3fe5
3fcf
3fc1
3fb6
3fc5
3ff8
0026
0025
004d
003e
002a
3ffb
0005
3ff5
3fe7
3fd7
3fdb
3fe0
3fdb
3fef
3ffe
3ff1
0000
0001
3ff7
3ff5
3ffc
3ff2
3fe5
3fc3
3fb5
3fbc
3fef
0003
0002
0035
003e
0037
001f
3ff0
3ff2
3ff6
3fc9
3fbb
3fcb
3fdf
3fe0
3fe8
3ffc
3fef
0001
3ff9
3ff2
3ff7
3ffb
3fea
3fd9
3fc1
3fdb
0019
001c
000b
001a
0033
002d
0010
001b
0009
3feb
3fd3
3fc0
3fc0
3fbf
3fcc
3fef
3fe9
3ff8
3ff8
3ff2
0003
0002
3ff5
3ff3
3ff1
3fd7
3fc8
000a
0034
0040
0015
0031
004f
0030
0004
3ff3
0006
3fe7
3fbf
3fe1
3fe1
3fd5
3fe0
3fec
3ff4
3fef
3ffd
3ff7
3ff6
0001
3ff2
3fee
3fe7
3fe6
3ff0
000f
002b
004d
0036
004a
0030
001c
3fdf
3ff7
3fed
3fce
3ff4
3ff7
0004
3fe4
3ffc
3fe9
3fe0
3ff0
3ffd
0002
3ff6
3ffb
3ffc
3fea
3fe4
3ff5
0007
0014
0015
0034
001b
3ffc
000d
3fdd
3fd7
3ff0
3ff3
3fef
000d
0004
0011
0001
000b
3ff7
3fe8
3ff1
3ff4
0001
3ff4
3ffd
3ff5
3ff0
3fe0
3ffb
0005
002d
000d
3ffa
0000
3fda
0002
3fff
3fdc
3ff9
3fd6
3ff3
0007
0005
000d
0017
0017
3ffa
3ff1
3fec
3ffa
3ff5
0001
3ffa
0002
3fe7
3fdb
3ffc
0014
002a
0009
0012
3ffd
3fe4
3ff1
000a
3fff
3ffc
3fe0
3ff2
3ff7
3fff
3fff
0008
0007
3ff6
3ff4
3fff
3ffe
3ff8
3ffc
3ff2
3ff7
3ff0
3fe2
3fd4
0005
000c
3ffd
3ff2
0009
0003
0035
0037
0027
001f
3ffd
3ffd
000d
3ff0
3fee
0008
3ffd
3ff5
3ffd
3ffd
3ffd
3ff5
3ff5
3fff
3ffb
3ff2
3fe1
3fb6
3fc6
3fe3
000a
000a
0015
001c
003f
005a
004d
003d
0031
0023
001c
0024
001b
0006
3ffd
3ff8
3ff0
3ffe
3ff2
3ffd
3ffe
3ffd
0003
3ff3
3ff3
3fcf
3fbc
3fc7
3ffc
000d
3ffb
0018
0012
000c
001e
0040
0044
002e
0040
003c
0014
0001
3ff2
0001
3ffa
3ff7
0002
3ffc
0003
3ffe
0001
3ff3
3ff6
3fee
3fe6
3fe0
3fdc
3fdc
3ff3
3fe7
3ff1
3ff1
3ffe
0017
0010
0014
0017
0004
3ffb
3fff
3ff1
3ff1
3fff
3ffc
3ff6
3ffc
3ffe
0000
3ff9
3ff6
3ff1
3ff3
3fed
3ffb
3fee
3ff1
3fee
3ff6
3ff5
3ff6
3ff2
3ff6
3ff3
3fef
3fed
3ff4
3ff8
3ffd
3ff9
0003
0003
3ff2
3ffc
3ffa
3ffd
3ff5
3ff9
3ffc
3ffc
3ff2
3fff
3ff6
0002
3ff9
3ff4
3fff
3ff6
3ff4
3ff8
3ffd
3ffb
0000
0002
0003
3ffe
3ffc
3ffd
3ff5
3ffb
0002
3ff3
3ffb
