0010
0008
0008
0003
000e
000d
000f
0004
000d
0004
000c
000a
000e
0012
0010
000b
000b
0004
0013
0012
000b
000e
000a
0010
0006
0011
000a
000f
0002
0010
0005
000b
000a
0004
0006
000f
000e
000c
000c
0009
000e
0010
0014
000a
0008
0010
000b
0007
0012
0011
0007
0012
0013
000a
0011
000d
0010
000c
0014
0004
0004
000d
000a
0009
0006
000b
0000
0005
0001
0005
000a
0010
000c
0000
000c
0007
0010
0007
0011
000d
000e
0002
000f
000f
0006
0007
000b
0009
0012
000a
0002
0012
3ffe
3ffc
3ffd
3ff6
3ffc
0001
0007
000f
3ff9
3ffd
0000
3ff4
3fff
0005
000c
000c
3ffe
0011
0006
0012
000d
0008
0013
0012
0002
0004
0010
000a
0004
3fef
0002
0006
0009
0011
0013
0028
000b
3ff8
3ff7
0006
0016
0019
0018
001d
000f
0007
0006
0007
0002
0010
0003
000b
0003
000b
0003
3ffc
3fdc
3fdc
3ff0
0000
000d
000f
001a
0015
000c
3fec
3ffe
0004
0014
001f
0034
0021
001b
3ff9
0007
0004
0003
000c
0002
0009
0002
3ffb
3fec
3fed
3fd3
3fca
3fde
3ff8
3ff8
3fef
3ff8
3fd9
3fd6
3fd6
3fee
3ff3
0014
0020
001e
0019
0007
3ffb
0000
0009
0008
0004
0005
0001
000d
3ffd
3fed
3fda
3fc4
3fb3
3fcc
3fe9
3feb
3fe2
3fdb
3fc6
3fce
3fd1
3fd6
3fff
0009
0006
0005
3ff0
3fea
3ff7
0007
0008
0009
0008
0008
0010
0005
3fff
3fea
3fde
3fba
3fb4
3fb8
3fd9
3fee
3fea
3fee
0008
3fe0
3ff5
3ffe
0004
3fe8
3fe9
3fdb
3fcf
3fd9
3ff6
000e
0013
0013
0004
0008
0007
3fff
3ffe
3fe4
3fe5
3fd0
3fb6
3fbd
3fe5
3fec
000f
0030
0044
0019
3ffe
3ff5
3fd2
3fc7
3fc8
3fb9
3fc3
3fdf
0004
0010
000b
0011
0013
0010
0002
000d
3ff1
3fe5
3ff4
3fdb
3fda
3fe4
3fed
3ff4
0026
007b
0082
003e
3fff
3fdb
3fd4
3fca
3fcf
3fd2
3fe4
3ff6
3ffe
0010
0007
0003
0003
000d
000e
0000
3ffc
3ffe
3fe9
3ff1
3fe9
3fde
3fcc
3ffa
0041
0094
009d
003a
3ff3
3ff4
3fe1
3fdf
3fe2
3fe4
3ff3
3ffa
000d
0012
000d
0002
0012
0008
0006
0012
3ffd
3ffb
3ff8
3fea
3fe3
3fc2
3fa9
3ffd
0042
00af
0079
0018
000d
3ff9
3fdd
3fea
3ff5
3ffa
3ff8
0001
0012
0003
000d
0002
000c
000b
000c
0014
0000
0002
3ff7
3ff4
3fcf
3f99
3f97
0000
0037
0090
0051
0015
000a
3fdf
3fd0
3fef
3ffa
3ffa
3ffe
0008
000c
0011
000b
0009
0013
000b
000f
000f
0000
0003
3ffa
3fe0
3fc9
3f99
3fb2
3ffe
0038
007b
004f
0018
3fd4
3fc5
3fd3
3fe5
3ff8
3ff8
3ffa
000d
0002
0004
000b
0014
0003
000d
0008
0005
000c
3ff5
3ff3
3fec
3fc3
3fbc
3fef
0019
004f
0083
002e
0008
3fad
3fb7
3fd3
3fe5
3fed
3ffb
0001
0007
0009
0012
0003
0013
0009
0012
000b
0006
3ff8
3fee
3fed
3fd1
3fe4
3fea
3ff4
3ffd
0067
007c
0007
3fda
3fa7
3fb6
3fd0
3fdc
3ff1
3ff0
0000
3ff9
0001
0005
000a
0008
0013
0004
0013
000e
3ff5
3fd9
3fd5
3fe2
3fed
000e
0000
0022
0076
0065
3feb
3fba
3fa6
3fb7
3fd2
3fef
3ff7
3ffa
3ff8
3ff2
0004
000b
000d
000c
000b
0007
0010
0009
3ff1
3fd6
3fd6
3ff0
0010
000d
0015
0037
0058
003d
3fd8
3fbe
3fc7
3fd0
3fe0
3ff0
3fe5
3ff4
3fee
3ff5
000a
0012
0012
0012
000d
000e
000f
0002
3fe9
3fcc
3fdd
3ff2
0008
0004
0003
0007
0029
0009
3fdf
3fe4
3fe8
3fe2
3fe9
3fde
3fe3
3fef
3ff1
0001
0006
0006
0003
0003
0013
000a
0007
3ffb
3fef
3ffd
3ff5
0000
0005
3ff3
3ffb
3feb
3ff9
3ffb
0001
0014
0007
3ff9
3fe4
3fde
3fe0
3fe7
3ffa
0003
0010
0006
0014
000e
0007
000b
000e
000b
001d
0018
000b
0002
3ff8
0000
3fef
3fda
3fd4
3ffc
000d
0015
0018
0010
3fe4
3fe5
3fe1
3feb
3ff4
0003
0008
0002
0002
000b
000b
000c
0003
0019
0038
003a
0023
0005
3ffc
3ff3
3fc8
3fa6
3fbb
0000
000e
0034
0055
0025
0008
3fed
3ff1
3fff
0003
0001
0008
0013
0009
0011
000b
000e
0008
0017
0030
0034
0018
0007
3ff4
3ff8
3fe1
3fea
3fec
3fe6
000a
003c
0049
0021
3ffa
3ff2
3feb
3ff9
3ff9
0004
0002
0004
0002
0004
0003
0007
0002
000b
0015
0016
3ff9
3fe0
3fe0
3fc7
3fca
3fcf
3fd6
3fd6
3fd6
3ff4
0005
0009
000d
000b
0003
0006
000f
0005
0008
000f
0005
0013
0006
0007
000a
000f
000d
0000
3ff8
3ffd
3ff8
3fe0
3fd9
3fe3
3fd8
3fe8
3fe1
3fee
3ffd
0006
000d
0001
000c
0007
0011
0004
0005
0007
0006
0007
000d
000c
0004
000d
0011
000c
000b
000f
000d
0002
000b
000a
0006
0000
0005
000b
0011
000d
0002
000c
000b
000b
0005
0004
000d
0012
000e
000e
0012
0003
000a
0013
000f
0011
0010
0011
0008
000f
0010
0002
0003
0013
000c
000b
0002
0008
0004
0003
0006
000b
0010
0012
0011
0011
0006
