1ffb9
1fff6
1fff6
1ffa1
1ffd3
1ffc7
00000
1ffc3
1ffe7
00015
1ffe7
1ffe4
1ffb7
1fffc
1ff9f
1ffb0
1ff92
1ffa7
1fff3
1ffe7
1ff91
1ffd6
1ffe1
1ffc9
1ff97
1ffd8
1ffe1
1ffbc
1fff9
1ff8b
1ffff
1ff9c
1fffc
1ffc0
1ffdf
1ffbd
1ffac
1ffe1
0000a
1ff9f
1ffbc
1ffa9
1ff90
1ffed
1ffb4
1ffa7
1ffb6
1ffb1
1ffe7
1ff9a
1fffe
1ffa1
00001
1fff8
1ffa5
1ffce
1ffcf
1ffea
1ffbd
1ff91
1ffa4
1ffd9
1fffc
1ffe2
1ffaf
1ffc2
0000f
1ff8a
1fffa
1ffad
1ff93
1ffa8
1ffb9
1ffd7
1ffc2
1ffc3
0001b
00003
0000b
1ffaa
1ff90
1ffc8
1fff9
1ffe2
1ffeb
1ffe0
1ffa6
1fffa
1ff9c
1ffbe
1ff8a
1ffb3
1ff92
1ffb1
1ff41
1ff0c
1ff74
1ff7d
1ff5f
1ffcb
1ffe9
1ff82
1ffb4
1ffe8
1ffef
1ffcb
1ff80
1ffaa
1ff65
00012
0000b
1ff9b
1ff94
1ffbd
0000b
00006
0000f
1ffb3
1ffad
1ff53
1fedc
1fe7d
1fdcb
1fe97
1fe94
1fe18
1fef3
1ffff
1ffe0
0005b
1ffe4
1ff75
1ff4b
1ffa0
1ffb1
1ffc9
1ffbc
00019
0000e
1ffce
1ffd7
00019
1ffa9
1ff9c
1ffb6
1ff4f
1fef5
1fefe
1ff57
1ffe0
00039
0003d
1ffa5
1ff7d
1ffb1
1ffdb
00083
00086
000fd
0009e
00099
000c4
0016a
00134
000d8
00078
0004a
0001c
1ffa0
1ff97
0000d
1ff9b
1ff7e
1fec9
1ff74
1fff0
1fff5
0007e
00106
000da
00025
00050
1ffdc
1ff84
1ffb5
1ffc1
00003
000f9
0008e
000a2
001ef
00253
0029d
00162
000af
0002b
1ffc9
1ffe2
1ffd5
1ff80
1fe96
1fe57
1fefd
00021
000a9
0014c
00144
0011b
00052
1ffe5
1ffa6
00006
0008c
0007f
000a0
00166
00136
00173
00206
002b7
00350
00265
0005e
1fff1
1ffe8
00016
1fffe
1ff51
1fdf7
1fe42
1febe
00014
000fc
0004a
00087
00107
000a0
1ff4c
1fe74
1ff10
1ff6d
0000e
00028
0012b
0013b
001c1
002c6
003a1
004d7
00321
00092
1fff1
1ff99
1ffc4
1ff90
1ff0d
1fee8
1fefe
0001f
1ffee
000d7
000bb
000cb
0021e
0015e
1ff6f
1fe23
1fd55
1fd82
1fe8c
1ffab
1fffe
00122
0026d
00382
004cc
00608
003f6
000b6
1ffb8
1ffea
1ffb9
1ffa0
1ffb3
1ffaf
1ffcc
000ad
00143
001f8
0022d
00215
00285
00218
0019c
1ffa8
1feaf
1fdce
1fde0
1fdcd
1fd7e
1fe48
1ff77
0004b
0019c
00337
0026a
000d2
1ffb9
1ffa0
00001
1ffb2
1ffcd
1ffb0
1fff5
00113
00150
001e6
001c1
00148
0016a
00257
0022f
00009
1fea4
1fe50
1fe2f
1fd93
1fc9e
1fb17
1fb7e
1fc4e
1fd4e
1ff0b
0001b
00045
1ffd6
1ffd5
1ffdc
1ffcc
1ffb8
1ffc9
0008b
0013c
0011a
000cf
00077
0015e
002d4
002a5
002b6
00048
1fea0
1fd72
1fdee
1fe99
1fdfc
1fdb4
1fc30
1fba7
1fc39
1fd79
1ff48
0000a
1ffff
1ffda
1ffa4
1ff9f
1ffbc
1ffeb
00049
000d4
0009b
000b3
00094
001e7
00220
00195
0017a
1ffb4
1fe5d
1fd56
1fe98
1ff80
1ff6c
1ffba
1feec
1fe0c
1fd26
1fdda
1ffa1
1ff98
1fff1
1ffdb
1ff9d
1ffcf
1ff85
1ffd7
1ffd3
1fffe
1ffe9
000e0
00162
001a9
00051
00090
1ffe5
1fed0
1fea2
1fe1a
1fe52
1fe6d
1ff3e
1ff58
1ff67
1ffa3
1fe6f
1fef2
1ff79
1ffd0
1ff88
1ff95
00010
1ff8c
1ffd1
1ff54
1fefe
1fe97
1ff11
00057
0018f
000be
000af
00097
1ff78
1fe3d
1fdf9
1fe2b
1fe20
1feae
1ffef
1ff8d
1ff9f
1ff8c
1ff7b
1ffa2
1fffd
00013
1ffb8
1ffbf
1ffd6
1ffe4
1ff8d
1ffbd
1fedb
1fdb5
1fd4a
1fe2a
1fefc
1ff99
1ff6c
1ff9f
1fec0
1fd98
1fe0b
1fe94
1ff7d
1ff85
00014
00065
00010
0006e
00019
00011
00010
1ffbb
1ffc0
1ffb3
1fffb
00000
00008
1ffb6
00015
0002b
1fe35
1fcc2
1fcf8
1fdd4
1feb1
1fdf5
1fd5d
1fd70
1fed5
1ff7d
000c6
0012f
000c6
000c8
0003a
00007
0006e
00070
1ffa1
1fffc
00003
0000b
1ffaf
1ffcd
1ffbf
000a4
000d9
00203
0005b
1fe10
1fd2e
1fc4a
1fcaf
1fd9f
1fea4
1ff52
1ffb7
1fff3
000e9
00075
000d0
0008c
000cb
000a7
000e7
00078
00009
1ffa8
1ffe4
00001
1ffaf
1ffd4
00011
000f9
001aa
0023d
00182
000f4
0004f
1ff4a
1ff3d
00010
000ea
00057
0007c
0007e
1ffd8
0005a
00058
00013
00097
00104
000be
00010
1fffd
1ffff
1ff9a
1fffb
1ff89
1ffc7
1ffa7
00021
00118
00145
0018c
0022b
001d5
0019c
00258
00176
00118
1ffb1
1ffb8
000ce
0006a
000ad
000e4
000c8
0009d
00177
00119
1ffdb
1ff8b
1ffd7
1ffb6
1ffab
00003
1ff84
1ffd1
0006e
1ffdd
00086
0016a
0020b
00156
00122
0009c
000ca
0007e
00083
000a0
0002a
00081
00042
000cf
000cc
00155
001a4
0005b
00004
1ff9c
1ffb7
1ffb8
1ffe7
1ff8f
1ffc5
1ffb7
00028
1ffc8
1ff85
1ffea
000cb
00129
00034
00107
001aa
0020e
0010c
00028
0001e
00042
0008a
00089
000eb
000d4
000dd
0004e
1fff5
0000c
1ffd5
1ffe3
1ffa2
1ffd2
1ffe6
1ffdc
1ffa7
1ffc5
1ff4e
1ffaf
000a1
0009e
0009d
00118
0010d
000b8
000d4
000c2
000be
00057
1ff9c
1fff2
0005d
00026
0007d
1ffb2
00015
1ffc0
1ffbf
00013
1fff7
1ffc3
1ffb9
00016
1ff86
1ff7f
1ffd2
1ffe8
1fff9
000d0
0010e
000d0
00087
000bc
0015b
0011f
000ab
00053
0009f
00067
1fffa
1fff1
1ffda
00007
1ffac
1ffe2
0000d
1ff99
1ffd2
00004
0000c
1ff94
1ffff
1ffdf
1ff80
1ffd1
1ff8d
00044
00032
0008d
0008c
000f6
0000d
00049
0003e
00078
1ffaf
1fffc
1ff7a
0000c
1ffce
1ffa6
1fff5
00006
1ff8e
1ffc4
1ffdc
1ffd9
1ffac
1ffc0
1ffb9
1ffc6
1ffeb
1ffad
1ff92
1ffc7
1ffb5
1fff2
00002
1ffe3
1ffb0
1ffd7
1ffee
1ffac
1ff5e
1ff7d
1ffe4
1ffe4
1ffb6
1ffea
1ffc9
1ffda
1ffbc
1ff8e
1ffe7
1fff0
1fff5
1ffe0
1ff9e
1fffa
1ffbe
1ffb8
00018
1ffbb
1ffb2
1fff7
1ffd6
1ff88
00003
1ffdb
1ff93
1ff87
1ffa6
1ff86
1fffe
1ffbd
00016
1ff98
1ffe1
1ffcc
1ffa0
1fff1
