00006
00008
0003d
00017
00063
1ffd4
1ffe3
00020
0004c
0004b
1ffd6
00014
00015
1fff5
00050
00015
00002
1fffd
00008
0001c
00033
00061
1ffe6
00047
1fff6
00033
1fffc
00000
0005b
1ffec
00015
0005a
00023
00003
00059
0001c
00009
1fff1
1fff4
1ffd1
0004d
1fffa
0005c
1ffe8
00028
00045
0004e
0003e
00002
0003d
1fffe
00061
0004b
1ffe5
1ffe6
00028
00056
00055
00043
1fff4
0004e
1ffdb
1ffe2
0003d
00033
1ffe2
1fff9
00026
1fff5
1ffec
00018
0004e
0003f
0000c
0001f
00058
0004b
00057
1ffd4
00044
0001a
0003c
00033
0004c
1fff9
00005
0004f
1fff4
00009
1fffb
1ffe3
00033
00000
00034
1ffd6
0000a
00029
1ffc7
0002f
1ffd9
1ffac
1ffbb
1ffc5
1ffd8
1fff6
1ffdc
00020
1fffc
00026
00062
1ffe0
00028
0005f
1ffde
00035
1ffd8
00016
1ffee
00004
1ffd9
0001d
1fff2
1ffa3
1ff4d
1ff44
1ff4d
1ff2b
1fea1
1ff31
1ff64
1ff78
1ffdb
1ff9b
0002f
00007
1ffcf
0005a
1fffd
00058
00055
00051
00003
0004e
1ffeb
1ffc3
1fff6
1ffd1
1ffef
1ffc9
1ff80
1fec5
1fe7e
1fe1a
1fdc6
1fd39
1fd3e
1fd1c
1fd73
1fdd7
1fe5b
1fed5
1ff95
1ff5b
1ffeb
00048
0003a
1fff1
00003
00043
0005c
00006
0000f
00063
00076
0008a
000d0
00135
000f8
00107
0002f
1ff2d
1fe45
1fe31
1ff10
1ff6e
1ff53
1ff2e
1ff0d
1fe90
1ff76
1fefe
1ff44
1ff82
1ffd6
1ffd4
0000a
0003d
0005d
0004c
000b4
000da
000c4
0011c
001b3
00253
001d8
00145
00166
0017e
00049
00036
00089
00193
001c0
00130
000f3
0003b
1ffbd
00020
1ffb7
1ffbc
1fffc
00030
1ffee
1ffd1
00061
00025
00098
00134
00116
00174
0029b
001c1
00135
0018a
0020f
001f5
000fc
00093
000cd
00163
00222
00176
00141
00100
00006
0009b
00084
1ffa2
1ffd3
00034
00050
00029
0004d
00068
000db
0012e
00157
0007e
000a7
000be
0007d
00133
00178
001e0
00186
0022f
002b0
0027a
002c4
001ce
001d7
0018c
0014a
0009c
1ffc7
1ffa0
1ffd1
0002a
1ffeb
00010
00054
0005d
00111
00138
00104
00030
0004e
1ff97
1fffc
000bf
0014f
000e9
0021f
002bb
0035a
003d1
002d4
0023a
00251
00209
001bb
000c4
1ffb0
1ff7c
1ffca
0000a
1ffec
0004a
00034
0005e
00117
00150
000a7
0003d
00036
00010
000ca
00068
00083
000d9
000d7
000e0
00291
00355
00238
0023e
001b9
001ad
0010e
000c3
1ffbc
1ff3b
1fffa
00013
00056
00042
1fffb
0002f
000b0
000c5
00020
0002c
000bc
00081
1fff9
1ff66
1fe67
1fc9f
1fac6
1fc16
00016
00236
00201
000ca
00049
0000e
1ffb6
1ffbd
1ff87
1ffa9
00052
00039
00001
00047
0002a
0004d
000a0
0003b
00019
1ffcc
00022
1ffe8
1ff7d
1fe53
1fc77
1f9cc
1f912
1fc4b
1ff84
00121
000ba
00028
00055
1ff52
1ff21
1ffcc
00010
1ffd6
1ffde
0002d
1ffd4
1ffed
00026
0008f
000b2
00071
00083
1ffd5
1ffa5
1ff37
1fe28
1fd4b
1fbd0
1faa1
1fb78
1fe57
0000a
00058
000b7
0020d
00235
00154
000d9
000da
000bd
00040
00013
1ffe2
1ffe5
0002e
00044
00019
00043
00043
1ff42
1ffab
1ff8a
1fe06
1fd9a
1fccf
1fc58
1fc05
1fd11
1fe49
0000d
00030
002cb
00345
002b2
00264
0020f
00154
0009a
1fffa
1ffd6
0000b
00049
0002e
0005b
1fff9
0005f
0004b
1ffab
1ff88
1ffef
1fe69
1fe34
1fd1b
1fc90
1fdd8
1fecb
1fe40
000e6
00117
0025d
00206
0021f
001b0
00149
00041
1ff79
1ffac
1ffd0
00033
00059
00003
0000c
00037
1fffc
00012
1ffca
1feed
1fe96
1fe3a
1fe89
1fe0f
1fe8f
1ff8a
0005c
00034
0005c
1ffca
00091
00082
0005c
00031
1ffb5
1ff59
1ffb5
1ffbf
1ffcd
1ffe4
1ffe7
1ffe7
1fff8
0003e
00013
1ff91
1fef7
1fe4b
1fde0
1fe07
1fe27
1fda0
1ff2f
1ffc1
00007
000ab
1ff4c
1ff22
1ff86
1fee9
1ff55
1fee1
1fe46
1febd
1ff34
1ff60
00011
1ffee
00004
00057
0005d
00055
0002a
1ffb5
1fea8
1fdd9
1fdb1
1fda1
1fd9e
1fe63
1fed6
1ff4e
0004d
000f2
1ff04
1ff0a
1fec9
1fe12
1fe2c
1fdbf
1fdec
1fe6b
1fee9
1ff72
1ffcb
00059
1ffd8
1ffd2
1ffeb
00024
1fff1
1ffa9
1fef7
1fdd5
1fdbd
1fdde
1fdeb
1fe8c
1fe81
0001c
00026
00080
1feae
1fe59
1fdd8
1fd06
1fe1b
1fd64
1fe02
1fe8f
1ff63
1ff97
0004f
0004b
00033
00047
0004b
00011
1ff9e
1ffcf
1ff13
1feeb
1fe70
1fe98
1ff2a
1fecf
1ff08
1ff91
0000f
1ffbd
1ff1c
1fefa
1fddf
1fde1
1fde0
1fdc3
1fe1b
1fee3
1ff29
1fff7
00021
00048
1fff0
00018
00006
00013
1ffc4
1ffe5
00023
1ffa9
0002b
00045
1ff93
1ff30
1fe9c
1feb4
1ff7a
00028
00027
1ff31
1ff00
1fe4c
1fe4c
1fe15
1fe52
1ff26
1ffb6
00030
1ffd2
00017
00001
00022
00044
1ffcc
1ffd0
0005a
00079
00106
0015e
000a7
00021
1ff99
1ff12
1ff3e
0000d
00088
0007e
1ffcc
1ffb2
1fee9
1fe7b
1fe72
1fec9
1feff
1ff59
1ffb6
00006
00005
1ffe4
1ffff
1fff7
00019
0003a
0007d
00120
001b4
001eb
001a1
000d7
001cf
00112
000ed
0014e
000ce
00129
000b0
00089
1fff7
1ff80
1ff78
1ff5b
1ff46
1ff56
0001a
1fff3
1ffd4
00033
1ffd3
00029
0004b
00046
00029
00090
000d4
00148
001fc
001f0
0024b
00222
001e6
00181
0018a
001a1
0015e
00147
00107
0005a
1ff91
0000f
1ffc9
1ffd8
1fff3
00019
00063
00041
1ffdd
00013
0005e
1fff0
1ffe0
00058
00006
00050
0004d
0000b
0006e
000a3
0002f
0008c
0012b
00172
00124
00176
000d5
00065
00003
00027
1fff6
00016
00004
1ffe7
1fffa
1fff3
1ffd2
00026
0001a
0002f
00040
00026
00011
00007
00069
00040
00013
00041
00020
0007a
00048
00037
000a9
00039
00033
00075
0000e
1ffec
00060
00034
00018
1ffef
1ffd9
00040
