1ffe9
0002e
1ffcc
1fffc
1fffe
1fff9
00018
0004a
1ffd0
1ffe0
1ffe2
1ffd2
00018
00043
00026
1ffc2
1fff8
0004a
0000c
1fff9
1ffc7
1ffda
00011
00041
00023
0002a
1ffc6
1ffc9
0002f
00026
00030
1fff4
1ffbf
1ffd9
00021
0006b
00049
00016
00058
0005e
00064
0005e
0003b
00040
1ffbc
0003d
00052
0002f
1fff3
1ffd6
00057
00042
1ffe5
00049
1fff3
00036
1ffd5
1ffcd
1ffbf
1fffa
00024
00016
00025
00069
0004b
0009f
000c8
000e2
000e3
000ee
00079
00056
000c7
00058
00055
0005d
0005b
0002e
0003d
0000b
00021
1ffed
1ffbd
00015
1ffc7
00007
00036
0001f
00047
1ffc2
0004d
00054
00064
000cb
000b4
000e1
000dc
000d3
00137
00125
000b6
000e6
00172
00171
00189
0015c
00161
000cd
000b6
0002c
1ffe1
00028
0000b
1fff3
1fffb
0003e
00036
00014
00014
0007e
1fff2
1ffe6
0007a
0002e
00038
00014
00030
00048
000f6
000f4
0017e
00185
001ea
00220
001d4
0013a
0002d
00053
0000c
00000
0000d
00026
00016
1ffe3
1ffcc
1fffa
1ffd5
1ffaa
00041
1ffad
0001e
1fee3
1ff69
1ff98
1ffda
1ff79
1ff79
0001a
000b7
00158
0012a
0010b
000d2
00090
1ffef
00007
1ffb7
00044
1fff7
0003e
00039
1ffb6
0001a
1fff4
00018
00002
1ff96
1ff7f
1feb7
1fe52
1ff06
1fe16
1ff28
1ff61
1ff1e
1ff38
1ffc9
1ff7a
1ff27
1ff31
1febe
1ff2e
1ff52
1ff48
1ffe5
0003c
00018
00024
00002
1fff4
00004
1ffc0
1ff7f
1ffeb
1ff49
1ff1c
1feb5
1fefc
1fe2c
1fdf4
1feed
1fefb
1fe67
1fe7d
1fe20
1fd75
1fd68
1fdd4
1fdbb
1fe35
1ff51
1ff61
1ffc1
1ffd0
1ffe9
1ffec
00046
1ffa6
1ffb5
1ff9d
1ff07
1ffc9
1ffa4
1fefb
1fecf
1fea3
1fe5c
1fe18
1fe25
1fe04
1fda6
1fd4b
1fc2c
1fc70
1fcd1
1fcd9
1fdcc
1fe0f
1feca
1ff3d
1ff74
00015
1fff6
1ffc9
1ffe1
1ffc2
00002
1ffc7
1ffa9
1ffce
0003c
1ff63
1fed6
1ff1c
1ff6d
1feeb
1ff02
1fdd4
1fd78
1fc56
1fc17
1fccf
1fd61
1fdeb
1fd96
1fe73
1fed1
1ff1f
1ffa4
00031
1ffd1
0003d
0002a
1ffb8
1ff97
0001b
00056
00053
00130
1fffa
0003c
00019
1ff48
1ff83
1feee
1fdc1
1fdb7
1fd52
1fd36
1fdc6
1fe7d
1feeb
1fe93
1ffda
1ff13
1ff5b
1ffcf
1ffe8
1ffda
00019
1ffd6
1fffa
1ffd6
0000b
1ffe9
000fe
000b6
00058
0006e
0004e
0004e
0000c
1ff7b
1fe38
1fe54
1fe94
1fe92
1fee3
1ff7b
00033
000af
00110
1ffff
1ff70
1ffc4
1ffea
1ffda
1ffeb
1ffc2
1ffe2
00024
00077
000b6
000ef
0006f
0009b
0006d
0011f
00115
000c6
1ff56
1fece
1fff3
1ffe4
1fed4
1fee1
1ffdc
000a2
00188
002b8
00176
1ff95
1ff85
1ffdb
1ffdc
00041
00031
1ffba
1ffa0
00027
0012e
000a2
0008c
00045
00125
000f5
000e0
00028
1ffd7
1fff9
00017
1ffbe
1fefb
1ffde
1ff82
000d1
0021f
0035c
001d1
1ffdb
00001
0002a
1ffe1
00007
00031
00003
1ff9a
0006c
00115
000ef
00148
00134
0014d
00168
00079
1ff50
0000c
00093
00046
1ff8e
1ff91
1fff0
000eb
000e9
00267
002cb
001d5
1fff9
1ff7a
1ffbe
00032
1ffe7
0000a
1ffc9
1ff3e
1ffe8
00121
00180
000f7
00184
001e9
00254
0009c
1ffd5
000e6
000d4
00021
1ff94
00016
00077
00113
0017a
0015b
001af
000e6
1ff8a
1ffb7
1ffb5
0000d
1ffc9
1ffc7
1ffc1
1ff00
1ff75
001ac
001b5
00121
001be
002f4
002ee
000e5
00088
00146
000ac
1ffa6
1ff4e
0003e
000bf
00059
00003
000b2
0006b
1ffcc
1ff75
1ffab
1fff4
0000d
0002a
0003a
1fff6
1fe92
1ff41
000b3
00154
00183
001e8
00349
00357
001ba
000f9
000fc
0009f
00000
0002e
0015e
00079
00032
1ffa7
00050
1ffef
1ff9c
1ff3e
1ffe4
00020
1ffe3
1ffd8
1ffff
1ff95
1fea9
1feb1
1ff5e
000ea
00176
00154
0024d
002d7
00358
0018e
0006c
000dd
0017e
000f8
00135
000a2
00015
00036
0003c
1ffde
1ff86
1ffa6
1ffba
1ffb6
00012
1ffcc
00021
1ff79
1ff22
1fe9b
1feeb
00014
000f3
0017e
001fc
0032a
00390
001d6
001a4
001b7
00138
00101
00191
00111
000b1
00026
1ffc0
1ffb1
1ffad
1fff3
1ffd8
0003a
1ffdc
1ffcc
1ffee
1ffc3
1fee4
1feac
1feda
1ff88
00050
00100
001a5
00119
00228
00296
00312
0029d
0016b
000e8
001c2
0013e
000d7
1ffd4
1ff59
0000b
1ffd8
1ffec
1ffcd
0000b
1fff9
00007
00015
1ffea
1ff94
1ff16
1fe72
1ff4c
1ff94
000c0
0015d
001f1
0027f
00289
00221
001d6
00125
00191
00176
000ef
00020
1ff81
1ff4f
1ff99
00006
1ffbd
1fff2
1ffdb
1ffdb
1fffa
00040
00011
1ffda
1ff34
1ff0e
1febb
1ff27
1ff9e
1ffaf
00027
000bb
00051
00044
000ca
00096
00001
1ffce
1ff1f
1ff27
1ff4c
1ff57
1fff0
1ffe2
1ffc1
00045
0001a
00037
1ffea
1ffe1
00006
00013
1ffac
1ff7c
1fedf
1fe92
1fdf2
1fdf4
1fd9e
1fe88
1fed8
1ff19
1fea8
1fe3c
1fe00
1fe6c
1ff48
1ff45
1ff5c
1ffc6
00008
1ffbc
1ffc8
1ffe8
1fff9
00028
00020
00016
1ffbf
1ffcc
1ffe8
1ffc2
1ff9b
1ffb0
1ff80
1ff41
1ff0e
1fee7
1feed
1febf
1febf
1feb0
1ff00
1ffa7
1ffad
1ffe3
1ffd2
00022
1fff1
1ffbd
1ffeb
1ffce
1ffcf
0003f
1ffc6
00011
1ffe2
1ffd2
1fff7
0002a
1fffd
1ffb9
0001a
1ffbb
1fff5
00003
1ffb7
1ffd8
1ffe7
1fff9
1ffc0
1ffdb
1ffb9
1ffc8
00009
1ffe5
00033
00048
0003f
00003
00030
00043
1fffd
0000c
1fff3
1ffda
00039
0002b
1ffdb
1ffea
00020
1ffe5
0000e
1ffe4
0002a
0002c
1ffc7
1ffd5
0003a
0002d
1ffea
00029
1fff1
1fff0
00019
0001d
1fff2
1ffde
1ffed
00041
1fffd
00025
1ffdb
00017
1fffe
0003d
00009
1fff8
1ffb8
1ffcf
00016
1ffbf
1ffca
1ffd7
1ffbe
1ffd3
1ffea
1ffc4
1ffd3
1ffd9
1ffe0
0003c
1ffc5
1ffda
1ffc7
1ffd8
0000b
