1ffc7
1ffd2
1ffc8
1ffe6
1ffde
0000b
1ff8b
1ffe7
1ffb1
1ffbd
1ffa2
0000a
1ffdb
1fffa
1ff9e
1fffb
1ffe2
1ff97
0000b
1ffd2
1ffc9
1ffc5
1ffcd
00016
00001
1ffbd
1ffac
1ffcb
1ffc8
1ff8b
00014
00000
1ff95
1ff99
1ff8f
1ff99
0000f
1ffd5
1ffd0
1ff8c
0000d
1ffed
1ffb1
1ffc4
1ffee
1ffda
1ffa6
1ffde
0000b
1ff93
1ffec
1ffa7
1fff8
00018
1ffb1
1ffa6
1ff9e
1fffe
1ffd9
1ffcf
1ffa3
1ff8d
1ffd9
1ff8a
00015
1ff8a
1ff8f
1ffe9
1ffd8
1ff87
1ffe8
1ffdf
1ff80
1ffb4
1ffb5
1fff0
1fffc
1fffa
1ffe4
1ffcc
0000b
1ffb0
1ffee
0000f
1ffa8
1ffcd
1ffce
1ff9a
00014
1ffa0
1ff92
1ffbe
1ff8d
1ffd8
1ffa9
1ff5f
1ff4d
1ff27
1ff4c
1ff95
1ff4b
1ff74
1ff9e
1ffc4
1ff77
00008
1ffb8
1fff9
1ffb2
1ffe7
1ffdb
1ff95
1ffd1
1fff2
1ffbd
1ff95
1fffa
1fff8
1ffd1
1ff9f
1ff9f
1ffc7
1ffcd
1ffe4
0009c
00064
00153
00101
00075
00040
00060
1ffab
1ff98
1ffca
1ff63
1ff90
1fffc
00007
1ffc3
1ffd1
1ffd3
1ffeb
1fff3
1fffc
1ffa4
1ffc9
1ffb0
1ff29
1ffa9
0004d
1ff4e
000ed
001bd
00173
00182
000b8
00098
00165
00012
1fff0
0007f
00042
1ff28
1ff4a
1ff82
00060
1ffd9
00010
1ffa8
1ffa1
1ff8c
1ff8f
1ff7e
1ff81
1ff35
1ff34
0000e
0003c
1fff0
00073
000b5
00091
000cd
00180
000ba
000da
0002e
000f9
0005f
00075
00092
00088
00073
00030
1ffd1
1fff4
00011
1ffa9
1ff9a
1ffb0
1ff79
1ffcf
1ff75
1fff8
00089
00038
00045
1ffd5
1ff51
1ff7d
1ff3e
00074
00092
1fff7
00063
1ff94
00095
000e8
0002a
001e0
00126
1fff5
00007
1ffec
1ffec
00006
1ffe8
1ffa1
1ffe7
1ffd3
000c7
0007b
0002c
00159
00014
0000c
000e7
0012b
1ff14
1ff38
000a3
1ff8c
00036
0009c
00067
0013e
000d5
0016b
0014a
1ffd9
1ffe4
00021
00002
00007
1ffcc
1ffc0
1ffdd
000ca
00096
00134
0019d
0015c
000dd
00184
00069
00070
1fe3a
1fd89
1ff24
00022
00044
0007b
000a2
0008c
0014d
00156
1ffc8
1ffd1
0004c
1ff97
1ffad
00003
1ffa8
00009
0004e
000f8
000f6
001c3
0014f
00187
0023c
00112
0011e
000ea
1ffb4
1fda7
1fe14
1ff6a
000ab
000aa
000af
00197
001c2
0016f
00005
1ffe5
1ffd0
1ffb1
1ffa8
00014
1fff8
1ff75
00076
00111
00208
002a4
00213
0029f
001cb
000d9
00118
0029c
0032d
1ff9c
1fe1c
1ff59
1ff61
00043
00170
001b9
0024a
00229
00181
0003e
00022
1ffe0
1ffb3
1ffe6
1ffbf
1ffe2
1ffe7
00147
0010f
0019e
00187
001eb
00054
00075
00041
00327
0032b
000b6
0001f
1ffb9
1ffc6
000cb
00159
00251
002b2
00240
00169
00091
00048
1ff9a
1ff90
1ffd7
00017
1ffa0
1ffb7
1fffe
1ffcc
1ffcf
0002c
1ffc4
1ff4f
00043
00128
002f4
000e2
0022c
000dd
1ff73
0000d
00012
000f6
000df
0007f
000b4
00060
00015
00016
1ffed
1ffbc
1ff8e
1fff0
1ffd0
1ff9b
1ff24
1fe78
1fe0a
1fdaf
1fe25
1ffbe
00130
00124
0026a
001ee
0014e
1ffd7
0002a
1ffa9
1ff37
1feb8
1fedb
1ff04
1fed6
1ff79
1ffec
1ff87
00003
0000a
1ffb7
1ffac
1ffdd
1ff92
1ff26
1fe18
1fdaa
1fdde
1ff7b
00015
0000d
001a6
001f3
001b4
000fc
1ff82
1ff92
1ffb3
1fe46
1fdda
1fe5a
1fef4
1ff01
1ff40
1ffdf
1ff7b
0000b
1ffc5
1ff93
1ffb5
1ffd8
1ff50
1fec4
1fe05
1fed5
000c9
000df
0005b
000cd
00198
00165
00080
000d5
00048
1ff59
1fe9b
1fe02
1fe02
1fdfa
1fe61
1ff76
1ff4a
1ffc2
1ffc0
1ff90
00019
00011
1ffa9
1ff95
1ff8b
1feb9
1fe40
0004f
001a0
00204
000a5
00186
0027b
00181
00021
1ff99
0002e
1ff3a
1fdf4
1ff08
1ff0a
1fea4
1fefe
1ff5e
1ffa4
1ff7c
1ffea
1ffbc
1ffb1
00005
1ff8f
1ff6f
1ff39
1ff34
1ff82
0007b
00156
0026a
001b0
0024d
0017f
000dd
1fef4
1ffbb
1ff69
1fe6e
1ff9f
1ffb4
0001e
1ff23
1ffde
1ff44
1ff00
1ff7d
1ffeb
00010
1ffb2
1ffda
1ffe3
1ff53
1ff23
1ffa7
0003b
000a3
000aa
001a2
000d7
1ffe2
00066
1fee8
1feb8
1ff83
1ff99
1ff7a
00067
0001e
00085
0000b
00056
1ffb7
1ff3d
1ff8b
1ff9d
0000c
1ffa1
1ffeb
1ffa9
1ff81
1ff01
1ffd5
00029
0016a
0006c
1ffd1
1fffe
1fece
00013
1fff8
1fede
1ffcb
1fead
1ff95
0003c
00025
0006b
000b6
000b6
1ffd3
1ff88
1ff63
1ffd1
1ffa4
00008
1ffcd
00012
1ff38
1fed6
1ffe2
0009d
0014f
00046
0008f
1ffe6
1ff23
1ff84
0004c
1fff9
1ffdd
1fefc
1ff93
1ffb8
1fff6
1fffa
0003e
00036
1ffb2
1ffa2
1fffa
1ffec
1ffc4
1ffe2
1ff8e
1ffb7
1ff81
1ff13
1fe9e
0002a
0005f
1ffea
1ff8f
00048
0001a
001a7
001bc
00139
000f5
1ffeb
1ffe9
0006a
1ff7c
1ff72
0003d
1ffe7
1ffa5
1ffe9
1ffe9
1ffe6
1ffa8
1ffa7
1fff5
1ffd8
1ff8f
1ff08
1fdb0
1fe30
1ff16
00051
00050
000ac
000e0
001f5
002d0
00265
001e9
0018c
0011b
000e1
00120
000d4
00033
1ffe5
1ffbd
1ff7d
1fff4
1ff8c
1ffe9
1fff2
1ffe9
00016
1ff9a
1ff99
1fe78
1fde0
1fe37
1ffe4
0006b
1ffd8
000c2
0008f
0005e
000ed
00204
00224
00170
00203
001e4
0009f
00009
1ff93
0000b
1ffd3
1ffb5
00012
1ffe2
00018
1ffef
0000b
1ff99
1ffb2
1ff6e
1ff33
1ff01
1fee3
1fee3
1ff95
1ff36
1ff89
1ff87
1fff4
000b5
00081
000a4
000bb
0001e
1ffd8
1fffb
1ff84
1ff89
1fff6
1ffdf
1ffb3
1ffdc
1ffed
00003
1ffc7
1ffad
1ff87
1ff9a
1ff64
1ffd4
1ff73
1ff88
1ff6f
1ffad
1ffa5
1ffb2
1ff8d
1ffad
1ff9b
1ff7b
1ff6b
1ffa2
1ffbf
1ffec
1ffc5
0001a
00018
1ff90
1ffdd
1ffd1
1ffe7
1ffaa
1ffca
1ffde
1ffe3
1ff8d
1fffc
1ffb3
00013
1ffc7
1ff9d
1fff5
1ffaf
1ff9f
1ffc3
1ffe6
1ffdc
00002
00010
00017
1ffed
1ffdf
1ffeb
1ffa7
1ffd7
00011
1ff96
1ffd8
