00000
00012
00079
00079
00002
00002
0005f
0001a
00008
00012
00003
00057
00072
00041
00054
00009
0004f
0006c
00017
00057
00007
00034
00074
0000c
00074
00012
0007f
00034
00021
0003c
1ffff
0000a
0003a
0008c
0001d
1ffe9
0004e
00003
00034
1ffd7
00024
1ffc8
00003
0004d
0005b
0001b
00001
00017
00062
1fffe
1fffd
00008
00057
0005c
00016
0005b
00069
00044
00068
0006a
00065
0005a
00077
1ffda
1ffd7
00016
1fff2
1ffb9
1feef
1ff92
1ff7c
1ff45
1ff78
1ffe5
00022
00060
0007d
00048
00076
00020
0002d
00050
00005
00037
0006a
0005f
00025
0003c
0003e
00001
0004f
1ffba
1ff99
1ffc8
1ff15
1feea
1fe44
1fe59
1fe6d
1fe17
1feba
1ff5d
00018
00034
0005f
0008c
00025
00025
00088
00082
00028
0004d
00084
00058
00063
00060
00039
0006c
1ffaf
1ffee
1ff5b
1ff74
1fe72
1fe86
1fdfb
1fe52
1fdf0
1fe3c
1ff25
1ff3d
1ff8b
00070
0009b
000b1
000a8
000df
0003e
0007d
00020
00015
00086
00026
0005f
0001f
00057
00012
0003d
1ffb5
00014
1ffaa
1fedd
1ff3f
1feb5
1fe66
1fee1
1ff13
1ffd8
00024
1ffc7
00060
00075
0009e
00171
001a0
000e2
1ffea
00025
00016
0007d
0008a
00029
0006c
00076
00061
00060
1fff8
1ffea
1ff8e
1ff19
1fe6a
1fd99
1fd29
1fd09
1fd6d
1fd5d
1fe74
1fe67
1ff48
1ff87
1fff7
00210
0022b
000d5
000a7
00078
00005
0003b
0001f
0002a
0004b
0002b
00064
1ffc2
1fff5
1ffbb
1ff64
1fe76
1fd9a
1fce2
1fdcc
1fd3f
1fd39
1fd25
1fe2e
1fe23
1feb4
1fe80
1ff51
00146
001b9
000eb
00085
0007c
0004a
00078
00065
00084
0001a
00028
00037
00025
1ffe0
1fed7
1ff69
1ff3b
1fe73
1fdbb
1fe8c
1fcb5
1fc9f
1fd5f
1fe5b
1fe86
1ff89
1ff19
1ff1d
00096
000e7
000b0
00023
00030
00056
0008e
00078
00070
00017
1ffb6
00002
1ff49
1ff7d
1ffab
1ffe4
1ff9a
1ff86
1ff82
1feb1
1fb42
1fc73
1ff24
1ff5d
1ffce
0001b
1ff80
1ff83
0003f
0000e
1ff6f
1ff6a
1ffbf
00060
0004c
00036
00036
0000f
00039
1ff5c
1fef2
1ff7d
00027
0015a
000d1
0009d
000bb
1fe30
1fafe
1fe79
0002d
1ffc6
1ffd4
0002d
1ff00
1ff57
1ffe0
1fee9
1ff62
1ff9c
00050
00084
00059
0005d
0004e
1ffcf
1ffee
1ffa5
1ff9f
00052
00106
001b9
00260
00183
001b5
1fd39
1fc3a
0007d
001f3
00054
1ffe3
1ffb0
1feef
1ff16
1ff89
1ff28
1ff10
1fff2
1fff8
00021
00063
00057
00029
0003c
1fffa
1ffa7
00101
001a7
00290
0023f
003bc
0043b
00400
1ffef
1fe03
00191
0028b
0004a
0001b
00059
1fff0
00013
1ffe3
1ff71
1ff80
1ffdc
0008d
00052
0000f
0005d
0000d
00027
0006e
00136
00277
002dc
00349
002bf
00334
00538
003f5
0000f
1ff70
001d5
001e2
00218
00171
000a6
00172
00110
00082
1ffb4
1ffbe
00007
00071
00051
0000e
00074
00009
00088
00112
00228
00300
00348
00274
00258
002d3
0036c
0027e
00035
1ffa3
000aa
00219
00372
00257
00227
00134
000cf
00043
00026
1ffea
00025
00045
00021
00060
00089
00058
00072
000f8
00119
001b5
00193
00288
0022c
00183
00119
0014c
00042
0010b
00175
00306
002b0
001ec
00123
1ffb2
0006c
000c3
00015
1ff8a
0003e
00010
00027
0002b
00001
00005
1ffef
00043
000a6
0010e
001d8
002b0
001ea
00083
1ffee
00087
000a8
00277
00369
00383
002eb
001f9
0003f
000d4
0012d
00046
1ffce
1fff2
0001d
00036
00039
00033
00034
00067
1fffe
1ffb8
1ff6c
00058
00177
002d2
00272
000e3
000b2
00102
0026c
00400
0032a
002a6
000d1
00020
1ff1d
00044
00019
1ff75
1ffc4
1ffa6
1ffcc
0005b
0006f
00038
00055
0004b
0000b
1ffa9
1ff48
1ff2b
1fffc
000b9
0002a
1ff6a
1ffa7
000ec
0010a
001c2
00181
000c9
1fec9
1fed9
1fe50
1feff
1fef6
1fe9e
1feed
1ffb8
1ffda
00021
00005
00036
00064
00026
00017
1ff3a
1ff0a
1febb
1fe18
1fdd9
1fdb5
1fd4c
1fd6a
1fdb5
1fea8
1ff9a
00059
1fef5
1ff1a
1fee5
1fe7a
1fe4c
1fe6e
1fe68
1feec
1ffb7
00037
00061
00058
00090
00085
00027
00017
1ff5f
1feed
1fe71
1fd76
1fcfc
1fcce
1fcbf
1fd9e
1fe13
1fdd8
1fea5
1ff4b
1ffc2
1ffdd
1ff71
1fec9
1ff2f
1ff14
1fee3
1ff6e
1ff74
0000a
00022
00060
0001b
0002a
0000b
00013
1fffe
1ff63
1fe77
1fdd9
1fe10
1fdcc
1fe15
1fe93
1fed1
1fee7
1febe
1ff6b
1ff39
00024
1ffc5
0000b
1ffe6
1ff3f
1ff5c
1ffe2
1fffb
0003c
00050
0004d
00045
00051
00020
00058
1ffeb
1ffad
1ff5e
1fef4
1fe96
1ff24
1ff1d
1ff63
1ff5a
1ff72
1ff4e
1ff93
1ff97
00026
000a1
00106
000c9
00084
1ffa9
1ffaa
1fffd
0003a
00009
0002c
0002d
00003
00028
0004f
0002c
00037
1ffaa
1ffa0
1ff7e
0003d
1ff74
00017
1ff6f
1ff8e
1ff91
1fff8
00025
00062
0012e
00126
000fb
00070
1ffd7
00022
00042
0005b
0001e
00071
00056
0007a
0003a
00061
00017
0004a
0001c
1ff76
1ff73
1ffd3
1ff6b
1ffe8
1ff95
1ff9d
1ff4a
1ff34
1ffa8
1ffd2
00010
0009f
00074
1ffd1
1fff2
0003d
00065
00010
0001a
00057
00080
0007c
00072
00019
00072
00005
1ffae
1ff7b
1ff38
1ff2e
1fea7
1fe7a
1fe90
1fe92
1fec9
1feb7
1fe56
1fe1b
1fe4c
1ff11
1ff26
1ffb1
00005
00054
00006
00074
0002e
0002a
0003c
00056
00014
0003a
1fffa
1ffec
00023
00019
1ffe6
1ff87
1fedc
1ff02
1fedd
1fe75
1fe50
1feb0
1fe81
1febb
1fef5
1ff61
1ffc6
00056
00055
0000b
00038
00009
00089
0003c
00053
0000c
00013
00084
00032
0006e
00033
00087
00000
0003a
0001e
1ffed
1fff2
00005
1ffc8
0006b
1ffe5
1ffe1
1fff5
00038
0002b
0002b
0002e
0004e
0004b
00063
00047
0002f
