1ffd8
1ff9c
1fffb
00005
0000a
1fff7
1ffda
0000a
1ffb0
00006
00007
1ffbb
1ffba
1ffb8
1ffbd
1ffc6
00001
00004
1ff9d
0000a
1ffe0
1ffe4
1ff7d
1fff9
1fffb
1ff85
1ffc4
00004
1ff99
1ffc0
1ff9b
1ffdd
1ff8c
1ffc9
0000d
00007
1ff84
1ff7f
1ff8c
1ffda
1ffe4
1ffc5
1ffbb
1ffa3
0000d
1ff9d
1ffea
1ffb4
1ffb6
1ff88
1ffce
1fff4
1ff94
1fffa
1ffd5
1ff95
1ffa6
1ffcd
1ffca
1ff9d
1ffe0
1ffeb
1ffab
1ffe9
1fff5
1ffc5
1ff92
1ff95
1ff87
1ff97
1ffbe
1ffb4
1ffaa
1ffa7
1ffe9
1fffd
1ffc2
1ff9a
0000b
1fff8
00000
1ffb1
1ff83
1ffc6
0000e
1ffe8
1ffc7
1fff1
1ffe7
00001
1ffda
1fff9
1fff1
1ffd0
0002c
00094
00139
00104
00109
00124
000cb
000e5
000b3
0000d
1ffee
1ff26
1ff82
1fff5
00006
1ffa0
1ffd4
1ffac
1ffd3
1fff9
1ffde
00004
00030
00000
000b8
0009b
001a7
0016b
001c3
0021e
00275
002a2
0025e
001bc
000fb
000c8
00148
00028
1ff20
1fea2
1fed5
1fedb
1ffdc
1ffcb
1ffb4
1ffec
1ff92
1ff82
1ffa2
1ffa2
00018
000bf
0015d
00117
00140
0011a
000ff
0014c
00151
00195
00045
0010e
00137
1ffe8
1ffef
1ff73
1ff3c
1fe60
1fdeb
1fe3d
1ff7d
00001
1ffa6
1ffc9
1ff9d
1ffb2
1ffaa
00028
000ed
001b8
00150
00102
00186
0013f
0011b
0010f
0016a
00208
00169
00082
00158
0013b
0012c
1ff7a
00080
1ff81
1fe37
1fe37
1fee8
1ffc8
1fff4
1ffd4
00005
1fff1
0001b
000c6
00207
00205
0016c
00066
0006e
000e7
00047
0006a
00131
00121
001de
00119
00056
000f0
000c7
000d8
000db
0001f
1ff23
1fdff
1fe90
1ff9f
1ff82
1ffbd
1ffcf
1ffb5
00016
000b8
001ac
00197
00132
0007d
000cf
00063
00106
00054
00047
00080
00208
001af
00064
000f0
00159
000e1
00149
000a9
1ffa8
1fe25
1fe9c
1ff7e
1ff92
1ffb1
1ffc2
1ff86
1ffd9
00050
000dd
00126
000f3
0003b
1ffe1
1ff1d
1fe50
1fce6
1fd7c
1ffaa
0026b
003b8
00226
00142
0015e
00143
001e4
00135
1ffa2
1fe28
1ff12
1ff7a
1ff9b
1ffac
1fff3
1ffec
00007
00077
0006b
0002e
1ff76
1fea1
1fd7f
1fc6b
1fb9d
1fb80
1fcaf
1ff2a
001fc
0024b
001f4
001d2
00120
001f3
001cf
000ba
1ff5a
1fece
1ff8e
1ff7e
1ffc9
1fff2
0000f
1fff2
1ff96
00074
1ffbb
1fe99
1fde5
1fce7
1fc21
1fca8
1fd74
1fecd
1ff5a
000d7
00152
00154
0009b
00160
001b3
001a9
00173
00002
1ff5d
1ff77
1ff88
1ffb9
1ff9d
1ff92
00004
1ffad
1ffeb
1fffa
1ff7d
1fe97
1fd88
1fcea
1fd35
1fe83
00007
0003f
00065
000e4
00236
00124
000c8
0011a
000e2
1ffec
1fedb
1fe6e
1fe5b
1fef4
1ffd1
1ffaf
1ffd4
1ffe1
1ffc7
1ffa9
1ffcb
1ffdc
1ff59
1ff09
1fdfe
1fdaf
1fe6e
1ffb1
1ff7d
1feab
0001b
001e7
001ec
0005a
000df
000ee
0007e
1ff58
1fe3f
1fe3d
1fe9c
1ff06
1ff70
1fffd
1ffe6
1ffb4
0000c
1ff9e
1ffc1
1ffd7
1ffe1
1ff32
1fe30
1fe5d
1fee3
1ffd8
1fed6
1fec2
0005a
000ec
000fc
1ffdb
1ff9a
1ffb4
00022
1ff3d
1fef8
1ff80
1ff4a
1ff85
1ff5e
1ff6f
00004
00007
0000b
1ffa0
0000e
00024
1ffd7
1ff18
1fe52
1fe34
1fea8
1ff36
1ff20
1ffb4
0005d
0017f
000dc
1ffea
1fec0
1ffa3
1ffe1
00054
000c6
000c2
00043
00019
1ff87
1ffe5
1ffda
1ff9f
1ffdc
1ffeb
00058
00010
00041
1ff95
1ff50
1fed0
1fd6a
1fd46
1fd96
1ff63
000b8
001de
1ffcc
1fea3
1fe8f
1ff88
0009b
00197
0011f
00169
0015e
0009b
1ffd2
1ffe1
1fffc
1fff4
1fff2
0000f
00002
000df
0007b
00027
1ff8a
1fe6e
1fd35
1fb92
1fa7c
1faf8
1fc2e
1fdd3
1fdfb
1fe32
1ffee
0008e
00105
0019d
00056
001f4
001f3
00096
1ffb6
1ff96
1ff9f
1ffa7
1ffc9
1ffcd
0002b
0014a
000ee
0008f
0004b
1ffa9
1ff02
1fcc2
1fb39
1fb7b
1fa8b
1fb8c
1fd2f
1ff5c
00123
00189
001a7
001a2
00125
00248
00221
000d0
1ff40
1ff7e
1ffa2
1fff1
1fff1
1ffa1
1ffc3
0019e
001a6
001f0
001ab
0009d
0002f
1ff52
1ff82
1fe76
1fdc0
1fd9b
1fe5f
00093
0018a
001ed
00228
001ee
001b5
001fe
000c3
00017
1ff5e
1ffe2
1fff0
1ffdd
1ffeb
1ff82
0004b
001bc
00222
0024f
00272
0013c
00174
001a5
0009b
1ffd6
1ff73
1ff28
00041
00074
000de
0018c
0019f
0011a
001ec
00117
1ffcc
1ff90
1ff7e
1ffda
1ffd8
1ffd3
1ffab
1fffa
1ffe1
000dd
0020f
0020f
001cc
00103
00115
0005c
1ffdc
1ff84
00028
1ffea
1ffdf
1ffc3
00081
0002f
000fd
00197
000ed
0005b
1ffa4
1ff13
1ffb3
1ff9e
1ff7f
1ff88
1ffcb
1ffdb
1ffe7
00089
00109
00168
00142
000b7
0000e
00084
000a0
000c2
00036
1ffb9
1ffb5
1ff95
00054
00040
0003f
00119
00089
1ffd0
1ffc1
1ffae
1ff4b
1ff78
1ffe7
1fffc
1ffda
1ff9a
1ffac
0005a
00121
001b5
00145
00158
00053
000dc
0008c
1fffe
1ff92
00012
0002d
0006e
00052
000aa
0010f
1ffd2
1ff4b
1ff4d
1ffa2
1ff8a
1fff6
1ffe1
1ff90
1ff99
1ffaf
0000d
0000e
00002
000ba
0012b
00161
001a0
001a7
0015b
001f9
00216
00223
001af
0017c
00119
0010c
1ffe9
1ff26
1fed3
1fef1
1ff5b
1ff66
1ffd2
1ffb3
1fffe
1ffb1
0000e
1fff4
1ff7e
0000a
00015
1ffe0
00075
000b0
00062
000ed
000f0
001c0
00200
00226
001ae
00132
0007b
1ffcf
1ff3e
1ff3d
1ff60
1ff62
1ffb0
1ffb0
1fff7
1ff9f
0000c
1ff81
1ffee
1ffa4
1ff7d
1ff83
1ffe0
1ffe2
1ffaa
1ff9c
1ffdd
1ffe0
1ffd6
1ffc5
1ffcf
1ffb7
1ffd9
1ffb7
1ff72
1ffa9
1ffd7
1ffc7
1ffdb
1ff86
1ff88
1ffee
1ffba
00003
1ffa2
1fff6
0000f
1ffc2
1ff9e
1ffd5
1ff85
00006
1ffdf
1fffa
1ffd9
1ffec
1ff84
1ff9a
1ffe5
1ff9a
1ffed
1ffb4
1ffd3
1ffb7
1fffe
1ff8b
1ff9f
1fff8
1ffd5
1ff9e
1ffe2
1ff8c
1ff82
1fff9
1ffc6
