1ff99
00002
1ffcd
1ffab
1ffcb
1ffb1
1ffdd
1ffe3
1ff96
1ffd5
1ff9e
1ffbf
00014
00011
1ff9c
1ffdc
1ffa3
1ffa4
0001b
00008
1ffb4
1ffdf
1ffbc
1ff90
1ff99
1ffd9
1fffb
1ffe4
1ffd4
1ffcd
00019
1ffe6
1ff9e
1ff9b
1ff97
1ffb1
1ffb2
1ffdb
00001
1ffa2
1ffc4
1ff9f
1ffdd
1ff90
1ffe2
1ffa2
1ffc1
1ffa9
1ffdd
1ffa5
1ff95
1ff8b
00006
1ffe6
00008
1ffb9
1ffce
1ff92
1ff9c
1ffff
1ff96
1ff9f
1ffc9
1ffd9
1fff6
1ffc4
0003a
00030
00094
00076
0006c
0002b
00091
00032
0002a
1ffb6
1fffe
1ffde
1ff6a
1ffcb
1fff0
00024
1ffd5
1ffc3
1ffb7
1ffad
1ffe8
1ffb4
00015
1ffa3
1ffde
00000
0001a
000ec
00171
0016e
0015e
00203
00119
0007d
000ed
0006d
1ff99
1ffe7
1ff8c
1ff78
1ff59
1ffad
0000c
00027
1ffa4
1ffed
1ffaf
1ffc8
0001c
1ff88
1ff96
1ffde
00037
00035
00098
001c3
001c8
0023d
001e4
00180
0015d
0009a
000ce
000bf
1ffc7
1ffa0
1ffb6
1ff1d
1feee
1fef8
1ffde
1ffde
1ff92
1ffeb
00009
1ffdc
1ffa9
1ff8c
1ffa1
1ffae
00033
000dd
00132
0020b
00244
0025d
0022a
0026d
0023f
00215
00243
001d4
00152
1ff71
1ff76
1ff1f
1ff1b
1fe9d
1ff67
1ffa9
0000e
1ffbc
1ffd2
1ffad
00013
1ffd3
1ffc6
00025
000d8
001a1
0013f
0016a
001ea
00133
00146
001a5
00174
000ca
000e0
0003a
0002b
1ff7d
1ffa9
1fee1
1fee4
1fe73
1ff14
1ff7c
00011
1fff3
1ffc3
0000c
0000d
1ffc8
00006
00074
00116
00192
00149
00133
00075
0008b
00018
000d8
0010a
00038
00024
1feaf
1ff8e
1ffa1
1ff94
1ff82
1ffa2
1feb9
1ff1e
1ffbb
1ffa9
1ff96
1ffe8
00010
1ffd3
0000f
0003d
000bc
00088
000c0
000c3
000d8
000d9
000f8
00094
000b0
001d1
00105
1ffe0
1ff80
1fffd
00067
00002
1ffb9
1ff43
1fe83
1fedc
1ff86
1ffc7
1ffa2
1ffb0
1ffec
1fffc
00031
0005f
000d3
0004a
0000e
1ffb7
00071
00058
00072
0001e
1fff4
0012f
00148
00071
00009
1ffe2
1fffd
1fff2
1fff9
1ff88
1febc
1feeb
1ffa6
0000e
1ff98
00014
1ffe8
1ffd0
1ffbc
0000e
1ffcd
1ff97
1fe01
1fe36
1fea6
1fdf0
1fdb6
1fd56
1fd02
1febf
0003a
00053
0000e
0002b
1ffc2
1ffd3
1ffc2
1ff60
1fe8b
1ff33
1fff7
1fff7
1ffaa
1ff95
0001a
1fff5
1ff9e
1ff40
1fe5d
1fd31
1fc0a
1fc32
1fb85
1fb82
1fbe6
1fba5
1fab2
1fbeb
1fe0c
1ff53
1ff6b
1ff71
1ffe3
1ffaa
1ffa6
1ff13
1ff5e
1ffe3
1ffc8
1ffa7
1ffe7
1ffdb
1ffe2
0000b
1ffd3
1ff32
1fd90
1fb42
1fa33
1fa97
1fadf
1fb50
1fb9d
1fba1
1fb73
1fc43
1fd82
1fe4a
1fe77
1ff3a
00001
1fffc
1ff91
1ff03
1fe80
1ffd1
1ffc0
0001d
1ffe1
1ffb3
1ffcd
0001b
1ffb0
1feb2
1fced
1fb1f
1fb86
1fbd2
1fd21
1fdf7
1ff0c
1fe7e
1ff50
1fe47
1fe3e
1fdeb
1fe7f
1ff2c
1ffd7
1ffc2
1ff77
1fec2
1fedf
1ff6e
00025
1ffcf
1fffd
00011
1ffe5
00003
1ffbd
1ff80
1fded
1fd60
1fddc
1ff24
1ffda
00089
000b5
000d7
0014f
00017
1ff2a
1ff61
1feec
1ffd2
1ff4e
1ffc8
1ff33
1fe90
1fef5
1ffcc
00082
00094
1ffae
1ffc7
1ffd3
1ffc5
00079
0003b
0001b
00090
000a8
00139
000dd
00109
0009c
0008a
00144
00018
0007f
00012
1feff
1ff0c
1ff6a
1ff93
1ff5b
1feb3
1ff55
00066
000af
0005e
1ffa3
1ffb9
1ff91
1ff82
00081
0010f
001ba
001c3
0010c
0006f
000e7
000d7
000c4
00194
00164
0004b
1ffd5
1fffe
1ff59
1ff6e
1ff00
1ffa5
0000e
00038
00077
0017a
001d4
0004e
1ffb7
1ffc4
00015
1ffd1
0009d
001cf
00285
0024d
00194
00119
00155
0020c
001ad
001ec
000e6
00077
000a0
000a2
1ffe7
00069
1ffbd
000c1
000ce
00099
000d5
0025d
0020d
00078
00010
1fff2
1fff9
1ff61
0002a
001f6
00350
0031d
0023e
0017f
001aa
0028a
0024c
003a8
002ab
00255
00122
000c8
0016f
000ed
000a1
001b1
001bf
001e8
00284
0031f
001cd
1ffd4
1ffa1
1ffaf
1ffb4
1ff91
1fffe
00114
00203
0028a
00234
00208
00227
0020f
00230
00273
001e2
00138
00094
000e6
0018f
000c1
000bc
00142
00191
0020c
00232
001e5
000fe
00015
00006
1ff9c
1fff8
1ffe5
1ff76
000f5
0012e
001d5
0028c
0026c
0019a
0018b
00295
0016f
0007a
00051
00064
00081
00006
0011e
001be
0012f
001ae
00257
00208
00176
000b1
1fffe
1ffef
1ffd9
1ffa0
1ffef
1ffc9
00033
00082
00145
0016e
00142
00192
00164
0015d
00089
00041
1ffdd
0000f
000ae
000be
001a1
001b7
000c0
001ae
00213
0025d
0012a
00076
0001b
1fff3
1ff9b
1ffe5
1ffa9
0001d
00066
00025
000dd
000c2
000b5
000fe
000fd
0012b
00020
1ff13
1fed6
1ff57
1ff61
0007b
00184
001ef
001c2
001af
00176
0019c
00099
1ffef
1ffe6
1ffb8
1ffe7
1ffea
1ffd3
1ffcc
1ffc6
1ff8d
1ff73
1ff85
1ff37
1ff8a
1ffb1
00066
00009
1ff62
1ff2a
1fee8
1fed0
1ff62
0003e
00183
00153
0019f
0012a
00072
00045
0002c
1fff6
1ffcb
1ffda
1ffb1
1fffc
1fff3
1ffad
1ff27
1fe5d
1fec7
1febe
1fea8
1feab
1fefa
1fef8
1ff71
1ff45
1fef6
1ff03
1ff3a
1ff0e
1ff7d
1ff8c
1ff8d
1ffbd
1ffcb
1fff8
0002b
1ffa6
1ffa8
1fffc
1ff8f
1ffc6
1ffbb
1ffa7
1ff67
1ff35
1feca
1fea8
1fec1
1fedf
1fe90
1ff0a
1ff19
1fece
1ff04
1ff45
1ff50
1ffbd
1ff5f
1ffc6
1ffc2
1fffd
1ffa9
1ffe0
1ffab
1ff92
1ffad
1ff96
1ffbd
1ffcf
00005
1ffef
1ffcb
1ffeb
1fffc
1ffc9
00006
1fffe
00004
0000a
1ffe0
1ffb7
1ff88
1ffc1
1ffdf
1ffd8
1ffaa
0000b
1fffe
1ffab
1ffbd
1ff94
00005
00003
1fffa
1fff7
1ffb2
1ff9f
1ffd9
1ff93
00017
00014
1ffc1
1fff9
1ffaa
0000f
1ff90
1fffa
1ffca
1ffe7
1ffa1
1ffd9
1ffc6
1ffdf
1ffd6
1fff4
1ff8c
1ffce
00004
1ff8c
1ffd4
1ffef
1ffc2
