00048
0003f
1ffec
0002c
00029
00042
1ffe7
0000c
0004c
1ffe1
1fff7
00021
00060
0003f
1ffd9
1ffee
1ffec
00026
00046
00005
00007
1fffb
1ffe1
0000b
0004e
00018
1ffdc
00027
00041
00036
0001a
1fff1
1ffda
1ffe1
1fffa
00061
1ffdb
0004f
0001e
00031
00026
00037
00001
1ffd5
1ffea
0003c
1fffd
00011
0004c
1fffa
0000d
00007
0002a
00051
1ffff
00011
00056
00058
00007
0003c
00049
1fffd
1fff7
0001a
00049
1fff6
1ffea
00038
00021
00046
1ffd7
0004a
1ffe6
1ffe4
00007
1ffdd
00054
1ffea
1ffe2
00054
0000f
0000f
00013
00025
00069
00004
1fff6
0001f
00021
1ffdd
00056
0002f
1ffef
00056
0001b
00044
1fff9
1ffb2
1fff9
1ff8a
1fff1
1ffc2
00014
0000c
0001a
1fff9
00044
1fff7
1fff6
0005e
00023
0003b
0000b
00013
00005
1ffec
1ffdf
0003c
0002a
1fff8
1ffcb
00014
1ffa8
1ff85
1ff52
1fec5
1fe6f
1fde8
1fe74
1fe73
1fed9
1ff7e
1ffc3
1ffd4
0000f
0004b
0003a
00036
00000
00003
00048
00033
0003c
00026
0002e
1ffc7
1ffcd
1ffc8
1ff4a
1ff4e
1ff3f
1ff03
1fec2
1fe88
1fdc3
1fd95
1fcf1
1fdfc
1febb
1ff62
1ff5a
1ff28
1ff37
1ff70
1ffc7
1ffe5
00009
00033
00041
00043
1ffd6
00043
0002b
1ff3f
1ff15
1feeb
1fec7
1fe80
1fee6
1ffa6
00017
0015a
00205
0019b
00120
000ef
0012f
1ffcd
1ffb7
1ff19
1fe62
1fe7f
1ff23
1ff95
1fff0
00023
00064
1fffc
1ffe0
1ffdc
1ff23
1feb0
1fe74
1fe29
1fe42
1ff63
1fff3
0007a
001d5
00230
00300
00304
00323
0016c
00112
0001e
00047
00051
1feeb
1fe10
1fedc
1ffb7
1ffb5
00042
00061
00061
00031
1ffe2
1ff1a
1fea4
1fe6a
1fdc9
1ff6a
1ffbb
1ffb0
1ff5f
1fff4
000e1
00292
0016b
00172
0004c
0001d
00014
1ff86
0003f
1ff64
1fe75
1feb2
1ff60
1ffba
0005a
0001d
00012
00007
1ff5b
1fe99
1feed
1ffb2
1ff62
1ffa2
1ffd5
000a9
00066
0001e
00110
001c7
00196
1fff0
1ff8c
00004
1ff0e
1ff99
1ff02
1fef0
1fede
1ff3a
1ffaa
1ffc1
00050
00011
1fffd
1ffd9
1ffc1
1feeb
1ff6f
00087
000b1
00166
00164
00132
001cd
000e8
00037
0003b
1ff16
1ff75
1ffe4
000a3
1fffd
00083
1ffb2
1ff5f
1ff68
1ff40
1ffc9
1ffb7
0002e
1fff1
00012
1ffd6
1ffe6
1ffb4
000fe
0024d
001b7
002b2
00115
0011f
001ed
1ff63
1ff7b
1ffb8
00023
000be
0029b
0013b
0013f
0020c
0017b
000dd
0002e
1ffdc
1ffa6
1fffc
00000
0002a
00056
1ffc5
1ffa1
000d7
0022e
00286
0017f
001df
00249
00176
00004
1fe89
00145
002be
0022b
001db
002d6
002db
002f7
0030c
00209
000fb
00007
1ff8c
00013
0002a
0002e
00060
0003b
1ffaf
0001e
00145
001e8
001cc
0012e
0017b
000f3
000dc
1ff8e
1ff3b
001ff
002bc
001fc
00249
0020c
002cf
002dc
0023c
0014e
00013
1ff1c
1ff7b
1ffd7
0002b
0002c
00013
0000a
00042
0002a
00095
0008c
0017d
0010b
00082
1ffff
0002f
1ffe8
1ff70
000a6
0005e
001c0
001db
001dc
00144
000d0
00104
00005
1fefa
1fe83
1ff62
0001a
0000f
00012
00049
00043
0002c
1ffcb
0000b
000aa
000a2
0006b
0006d
1ff37
1ffa3
1ffa2
1ff74
1ff93
1ff7c
001e9
002cc
002af
00158
00021
1ff6b
1fe76
1fe15
1fea1
1ff64
00003
00028
1fffa
00054
00007
1ffc4
1fff1
00005
00033
1ff7d
00068
00126
1ffbb
000a7
000ed
1ffe0
1fef3
1ffd3
00110
001e9
001e6
00079
1feec
1fe36
1fd86
1fe43
1fe97
1ff11
00008
1ffcc
0002d
0001c
1ffed
1ffbe
1ffa0
1ff4c
1ff25
1ff4b
00051
0009f
000b5
00113
00191
000f4
00072
0009b
0018f
00076
1ffaf
1ff50
1fe6b
1fe70
1fe52
1fe6b
1fed6
1ff27
00016
00016
1ffed
0004e
00000
1ffd3
1ffee
1ff62
1fe94
1fe8d
1fe94
1ff67
0003d
001b7
00163
1ff27
1ff24
0000e
00108
1ff5e
1ff47
1fea7
1ff30
1ff3d
1fed0
1fec0
1feb1
1ff13
1ffda
00005
00047
00032
00065
00012
1ffa9
1ff6f
1feff
1fe69
1fe5f
1fe50
1fe53
1fe20
1fe6b
1fdf3
1fe91
1fecb
1fea0
1fed1
1ff9d
1ff19
1ffc0
1ff66
1ff49
1ff53
1ff66
1ff9f
0001c
1ffe2
0000b
1ffed
0000e
0002b
00003
1ff6a
1ff08
1fe87
1fdb2
1fd5c
1fd0a
1fbfe
1fcee
1fd03
1ff06
1fea1
1ff5b
1ff3a
1ffcb
1feb0
1ff91
1ff7a
1ff2a
1ffc4
1ff99
0000a
00056
00034
00010
00007
00000
00056
1ffa5
1ff9b
1ff0b
1fea6
1fdea
1fda2
1fd65
1fd45
1fd8b
1fe6f
1fe75
1fe6e
1ff19
1ff06
1fe88
1fe3a
1ff40
1ff95
1ffc2
0001e
1fff7
00026
00035
00003
00006
00042
00010
00013
0003f
1ffd8
1ff3a
1fec3
1fe51
1febf
1feb1
1fe92
1ff09
1feea
1fe8f
1feca
1fe4d
1fe1f
1fe28
1fe78
1fea3
1ffa0
00075
00041
00051
00084
0001c
0001f
00030
0004d
0003c
00017
1ffe2
1ffc8
1ff56
1ff3a
1fefa
1ffec
1ff96
1ffab
1fec3
1fefe
1feba
1feec
1fe2a
1fe04
1fe41
1fee9
1ffe5
0006d
000fd
0016d
00132
0008f
1fff6
00067
1fff4
00000
1ffd8
1fff5
00056
0003e
00061
00047
00067
00091
0004e
1ffcc
1ff5d
1fff4
1ff06
1fec5
1feb3
1ff69
0006e
000bb
000c1
001b9
001db
00111
000a7
00084
1ffe6
0003b
1fffc
00015
00056
00056
1fff7
00008
00093
0006f
00141
0015f
00166
00136
0007b
00146
00122
00116
00105
001e8
00213
00248
00261
002a8
001e2
000bc
00059
1fff4
1fff9
00019
00015
00004
0004e
00015
1ffe4
0004e
0007a
000ab
000ed
0010e
00199
001a6
001da
00231
00236
002b6
00190
00112
000e7
00155
00170
0010b
000ba
0004d
0001c
00011
0001f
1ffe3
00011
1ffed
00024
1ffe0
0005f
00036
0001e
1fff3
0005c
0004e
00035
1ffef
1ffed
00012
1ffef
00014
0003b
00005
00020
00069
0005d
00035
00020
1ffe6
00068
00038
1ffed
00007
1fff6
