1ffbe
00026
1ffeb
1fff6
0002d
1fffb
1ffd6
1ffd3
1fff6
1ffea
00032
1fffc
00017
1ffbf
1fffc
1ffa7
1ffb6
1ffec
1ffb4
00031
1ffb6
1ffe8
1ffb0
1fff8
00019
1ffee
1fffc
1fffd
0001c
00023
0000b
1ffb2
1ffae
00004
1ffbf
1ffee
1ffce
1ffa5
1ffc6
00005
00038
1ffb4
1ffd7
00018
1ffc1
1ffaa
00010
00027
1ffbe
00012
1ffc8
1ffb9
1fff2
00005
1ffe9
00030
1ffad
1ffcd
1ffc8
00018
00006
1ffaa
1ffec
0002e
1ffe4
1ffc3
1ffc5
1ff9b
1ff94
1ffdb
1ff90
1ff71
1ff98
1ffe5
1ffa7
1ff8e
1ffec
00022
00006
1ffc1
0002b
1ffa5
1ffea
00015
1ffab
1ffec
00030
1ffad
1ffc5
00027
00010
00002
00006
1ffea
1ffe3
1ff8f
1ff66
1ffa9
1ff87
1ff77
00017
0000b
1ff68
1ff7e
1ff45
1ff7b
1ff60
1ff91
1ffb3
0001d
0001c
1ffd4
0000b
1ffaa
1ffc3
1ffac
1ffa1
1fff4
1ffe6
1ffaa
1ffe3
1ffed
1ff75
1ff77
1ff79
1ff7f
1ffdd
1fff2
1ff96
1ff9c
1ff99
1ff71
1ffc6
1ff48
1ffb8
1fff6
1ffb0
1ffdc
1ffd1
1fff8
00017
1ffd7
1fffe
1ffb4
1ffeb
1ffdb
1ffe5
1ffc7
1ffe6
1ff99
1ffd1
0001e
00079
00105
0013c
00138
0015f
0017a
00190
0008d
00019
00041
1ffe0
1fffb
1ff55
1ff84
1fff7
1ffbe
1ffde
1fff0
00009
1ffe4
00001
00004
0000a
1fffc
1ffaa
1ff6e
00050
1fff3
000d9
000c0
000b7
00110
0014b
001d5
001b4
00174
00167
0019a
000e8
00053
1ff4e
1ff47
1ff83
00013
0002b
00007
1fff7
1ff93
1ff57
1fff1
1ffbc
00001
1ffb1
1ffe9
0000f
0009b
00142
00128
00079
000bd
0010e
001f8
00173
00144
00085
000ff
00118
0008f
1ff93
1ff4e
1ff60
1fff6
00030
00012
1ffeb
1ffff
1ff84
1ffa0
1ffb1
1ff9f
1ffcd
1ffca
00099
000a1
00052
00023
00039
000e3
00295
0020e
001e8
0009a
00081
00076
00122
001f9
1ffc8
1ff58
1ffef
1ffa8
1fff2
1fff8
0000f
0000b
1ff64
1ff91
1ff61
1ffa5
1ffa6
1ffd2
0006e
1ffa2
00037
000a5
00093
0007d
0016a
001e2
0022a
00141
00062
1ffee
000ee
00201
00096
1ff82
00002
1fff0
1ffaf
00028
1ffbc
1ff84
1ff8e
1ffa6
1ffb4
0000a
00034
1fff4
1ffa9
0001c
00024
1ffeb
1ff52
1fed5
1ff4c
000ae
001b9
001c9
00194
00125
001b2
00252
0011b
1ff8b
1ff8b
1ffa7
1ffc3
1ffaf
00022
1ffe7
1ff21
1ffd0
00023
000a8
0007e
1ffd0
0002c
00004
00057
1ffc5
1fe27
1fc95
1fcc8
1febe
1ffd5
000e8
00174
00158
001d6
00215
0017f
1ffb6
1fffb
1ffa1
1ffc0
1ffec
1ffe3
1ffe8
1ff82
00014
000b7
000c0
0005d
1ffe6
00083
0005d
000ac
1ff73
1fc61
1fb83
1fb88
1fd8f
1ff91
1ffd2
00038
000a0
00261
0022d
00183
0000e
1ffc3
1ffc2
1ffa5
1fffe
00020
1ffa9
1ffdf
00072
000de
0011f
000d9
00098
000cf
000a1
00074
1fdcb
1fc5f
1fb64
1fc37
1fe1f
1ff15
1fec4
1ff0f
0006a
00190
00273
00164
00039
00000
00023
1fff3
0001b
1ffba
1ffce
1ff94
00125
0017d
001cf
000de
0010b
00188
000e1
00037
1fe15
1fbb9
1fb60
1fc52
1fdfd
1ff1d
1feee
00019
000df
0010a
0027a
0014a
1ffbd
1ffdf
1ffb9
00025
00014
1ffc4
1fff2
1fffb
0019e
0012d
0019e
0011e
0017b
001df
00084
1fe97
1fc69
1fb35
1fb6f
1fceb
1fe7f
1ff70
1ff75
00078
00069
00193
001d9
000f5
1ffe8
00007
1ffbf
0000b
0002e
1ffa2
1ffcd
00046
00178
001d3
00169
000fb
000fd
001ab
1ffc8
1fd44
1fb3e
1fb5e
1fc53
1fe08
1ff15
1fffd
0004d
000b1
00108
0016b
0015a
00084
00006
1ffd5
1ffc6
1ffde
0000b
1ffb1
1ff66
0000d
0010b
0014f
00146
00066
00105
0019d
1ffc1
1fcb9
1fb4e
1fbde
1fd89
1ffad
000a1
000e8
000d6
00110
000d0
000a4
000ba
1fff6
1ffe4
0000e
1ffbf
1ffd3
0000f
1ffe1
1ffc5
1ffe0
000aa
0015b
000c9
0007b
00159
00296
0001a
1fde9
1fca1
1fda7
1ff49
000c2
000cf
000d9
00071
00038
0005e
000b5
00071
1fff2
1ffc9
00007
1ffe1
1ffe4
1ffd9
1ffdd
1ff6a
00040
000bb
001be
00195
0013d
001a5
00298
001d3
00063
1ff29
1ffa2
1ffc4
00065
1ffd1
1ffaa
1ffcc
00068
0005f
000ba
1ffe7
0001b
1ffd7
1ffa0
00021
00021
0002b
1ffe1
1ffb9
1ffd6
000bf
00167
00108
00147
00192
00273
00272
0013a
00060
1ffbf
0002d
0002b
1ffa5
1ffbb
1ff9f
00034
00040
00063
00022
1ffc9
1fff3
1ffb2
1ffd8
1ffc6
1ffab
1ffe2
1ffc8
1ffdc
00032
000de
00168
000fd
00112
00219
0025f
00192
00098
00039
0000c
1fff6
1ff5a
1ff81
1ffb7
0003f
1fffb
1ffb5
1ff88
1ffe2
1ffd8
1ffc6
1ffce
1ffb8
00004
00007
1ffd6
1ffb4
0001c
000a1
0008c
00194
00149
0016a
001af
00170
001d9
000cd
000d1
00073
1ff9f
1ffb3
1fffa
1ff93
1ff8d
1ffc9
1ffc4
1ffeb
1ffdb
1ffd0
1ffe7
1ffb8
1ffed
1fffe
1ffa9
1ffa7
1ffe6
1fff5
00070
0009e
00177
001c1
00225
0021f
00146
00109
00093
0003e
1fffa
1ff31
1fefd
1ff37
1ff9d
1ffaf
1fff6
1ffe1
00019
1ffd5
1ffa6
1ffd8
1ffee
1ffa7
1fffc
1ffe8
1ffe9
1ff95
1ff71
1ffb1
1ffb9
00053
0003f
00098
000de
00075
1ffa7
1ff76
1ff5b
1ff73
1ff3a
1ff44
1ff4e
1ffdd
1ffd1
1ffb5
1ffc9
00004
1ffbf
1ffca
00033
1ffe5
0002a
00030
1fffe
1ffa0
1ffd6
1ff45
1ff4f
1ff23
1fee2
1feb9
1fed6
1fea5
1fec7
1fed8
1ff4e
1ff6c
1ff83
1ff76
1ff80
1ffd5
00030
00017
1ffde
1ffd2
1ffef
00028
00024
1ffdb
00002
1ffce
1ffd8
1ffa9
00011
1ffd2
1ff63
1ff62
1ff71
1ffc7
1ff72
1ff79
1ffce
1ff70
1ff8b
1ffa9
1ff92
1ffc9
1ff7c
1ff91
0002b
1ffbc
0000d
00024
1fff8
1ffb6
0001e
1fff3
1ffd8
00026
00007
0000d
1ffa5
0002d
0002b
0000f
0001f
1ffea
1ffca
0001e
1ffb2
1ffe3
1ffc9
1fff3
1ffcf
1ffa3
1ffad
1ff8a
1ffe5
00013
1ffb5
1ffa1
00019
