00080
0003d
00044
0001c
0006c
00069
00074
0001d
00065
0001f
00060
0004e
0006d
00091
0007f
00057
00059
0001f
00095
00094
00054
0006c
00054
00082
00031
00089
00054
00079
00010
00080
00026
0005b
00052
00020
0002e
00079
00074
0005e
0005d
00045
0006f
0007d
000a2
00050
00041
00082
00057
0003b
0008d
00087
00037
00091
0009b
00052
00084
0006a
00083
00062
0009d
0001e
0001d
00067
0004c
00049
00031
00056
00002
0002b
00006
00026
0004f
00080
00061
00000
0005f
00039
0007d
00036
0008a
00064
0006c
00012
00075
00078
0002f
00034
00058
00048
00093
0004d
00011
00090
1fff0
1ffe3
1ffe4
1ffb0
1ffe4
0000b
0003c
00078
1ffc5
1ffea
1fffd
1ffa4
1fff6
00026
00060
0005e
1ffef
00085
00032
0008c
0006c
00041
00095
00093
00010
0001d
00082
00053
0001f
1ff78
0000c
00030
0004a
00084
0009b
0013d
00057
1ffbd
1ffb7
00031
000af
000c4
000c3
000e5
00078
00039
00032
00037
00014
00080
00019
0005a
00017
00056
0001a
1ffdf
1fee3
1fee0
1ff7c
00002
0006c
0007a
000d3
000a4
00061
1ff60
1fff0
00021
0009c
000fb
001a2
00105
000d6
1ffc9
0003b
00021
0001b
0005d
00011
00048
00011
1ffd5
1ff63
1ff65
1fe9b
1fe51
1fef2
1ffc1
1ffbe
1ff79
1ffc2
1fecb
1feb3
1feb1
1ff74
1ff98
0009d
00102
000ef
000ca
00034
1ffd5
00004
0004c
0003d
00022
0002b
0000a
00065
1ffea
1ff6a
1fecc
1fe1f
1fd9b
1fe60
1ff4a
1ff5a
1ff11
1fed8
1fe34
1fe6e
1fe87
1feac
1fff4
00047
0002c
0002a
1ff7f
1ff4f
1ffb9
00039
00043
0004a
0003f
0003e
00083
0002a
1fffc
1ff4d
1fef1
1fdcf
1fd9f
1fdbc
1fec8
1ff71
1ff50
1ff70
0003f
1ff01
1ffaa
1fff2
00021
1ff40
1ff47
1fed7
1fe7a
1feca
1ffb4
00073
00098
0009a
00023
0003f
00036
1fff6
1ffef
1ff1c
1ff28
1fe7e
1fdb4
1fde5
1ff2b
1ff61
00079
0017d
00221
000ca
1fff2
1ffa5
1fe8e
1fe39
1fe3f
1fdcb
1fe16
1fef9
0001f
0007f
0005c
0008c
0009b
00080
00011
00069
1ff87
1ff29
1ff9c
1fed5
1fed0
1ff22
1ff6c
1ff9c
00130
003d8
0040f
001ed
1fff5
1fed9
1fe9c
1fe51
1fe7b
1fe92
1ff1d
1ffb4
1fff3
00084
00036
0001a
00018
0006b
00072
00000
1ffde
1ffee
1ff45
1ff87
1ff45
1feed
1fe61
1ffd0
00208
004a2
004e9
001d2
1ff9a
1ffa2
1ff08
1fefa
1ff0d
1ff1f
1ff97
1ffd3
00068
00092
00067
00010
0008c
00043
0002d
0008f
1ffe5
1ffd4
1ffc2
1ff4e
1ff16
1fe11
1fd49
1ffea
00210
00574
003c8
000c0
00065
1ffc4
1fee5
1ff4d
1ffa9
1ffcf
1ffc4
00009
0008e
00015
00064
0000e
0005f
00059
0005f
0009e
00001
0000d
1ffb9
1ffa1
1fe7a
1fcc6
1fcba
00001
001b8
0047f
0028a
000ac
00053
1fef9
1fe82
1ff75
1ffcf
1ffcd
1ffee
00040
00060
0008b
0005a
00046
00096
00054
00078
00078
00000
00015
1ffd2
1fefe
1fe46
1fcc9
1fd8f
1fff2
001bf
003d5
00278
000bd
1fea1
1fe25
1fe97
1ff2b
1ffc2
1ffbd
1ffd2
0006b
00010
0001e
00055
0009f
0001a
00066
00041
00024
0005c
1ffa6
1ff99
1ff5e
1fe1c
1fde1
1ff77
000c7
00274
0041a
00173
00044
1fd6b
1fdb6
1fe99
1ff28
1ff65
1ffd9
0000c
00038
00048
00094
00019
0009a
0004b
0008c
00056
0002d
1ffc2
1ff71
1ff67
1fe89
1ff20
1ff4d
1ff9d
1ffe7
0033a
003df
00039
1fecd
1fd35
1fdb0
1fe83
1fedf
1ff85
1ff83
00002
1ffc9
00009
00026
00050
00040
00098
00022
00096
0006f
1ffa9
1fec6
1feac
1ff0d
1ff64
00070
00001
0010e
003b2
0032c
1ff5b
1fdcc
1fd32
1fdb4
1fe8c
1ff74
1ffba
1ffce
1ffbd
1ff8c
00021
00058
00067
0005e
00056
00035
0007d
00045
1ff84
1feb1
1feb4
1ff83
0007f
00069
000a8
001b7
002c3
001e9
1febf
1fdf0
1fe3c
1fe7e
1fefd
1ff81
1ff29
1ffa1
1ff6d
1ffa6
00051
0008d
00090
00094
00068
0006c
00078
0000e
1ff46
1fe60
1fee8
1ff8e
00042
00021
00017
0003a
00146
00048
1fef6
1ff23
1ff3f
1ff0e
1ff44
1feed
1ff1b
1ff76
1ff86
00007
0002f
00033
00014
00018
0009b
00054
00036
1ffd6
1ff7c
1ffe7
1ffa5
1fffe
00027
1ff9a
1ffdb
1ff59
1ffc7
1ffd6
0000b
0009e
00039
1ffc4
1ff22
1feef
1ff03
1ff39
1ffd3
00015
0007f
00033
0009c
0006f
0003a
0005b
0006d
00056
000e9
000bf
0005a
0000f
1ffbe
00003
1ff7a
1fecf
1fea4
1ffe1
00069
000a7
000be
00083
1ff23
1ff26
1ff08
1ff55
1ff9d
00016
00043
0000d
00013
00056
00058
00063
00014
000ca
001c2
001d3
0011a
00026
1ffe1
1ff95
1fe43
1fd2e
1fdd8
00002
0006c
0019e
002a6
00129
0003e
1ff67
1ff89
1fff5
00014
0000a
00042
00096
00048
0008c
00057
00070
0003e
000b4
00183
0019d
000bd
00034
1ffa0
1ffbf
1ff05
1ff50
1ff63
1ff2e
00052
001e1
00244
00105
1ffd2
1ff91
1ff54
1ffc5
1ffca
00022
00011
00020
00010
00022
00016
00039
00012
00058
000ab
000b1
1ffc7
1feff
1fefe
1fe3b
1fe4e
1fe7b
1feb2
1feb4
1feb3
1ffa0
00028
00049
0006a
00059
00016
0002e
0007c
00025
0003d
00075
00027
00098
00030
0003a
00052
00075
0006b
00002
1ffbe
1ffe6
1ffc3
1ff03
1fecb
1ff1c
1fec0
1ff3c
1ff08
1ff71
1ffe6
00031
00066
0000a
0005d
00037
00085
00021
00028
00039
00031
00038
0006b
00060
0001d
00067
00089
0005d
00056
0007b
00068
0000e
00055
0004d
0002d
1fffd
00028
0005a
0008b
00067
00010
00060
0005a
00056
00029
00024
00068
0008e
00073
00074
00092
00017
00051
0009a
0007a
0008a
00080
0008a
00041
00079
0007e
0000d
0001a
00097
00062
0005b
0000d
00042
0001d
0001b
00031
00059
00080
0008e
0008a
00088
0002e
