001ff
000f4
00110
00070
001b1
001a5
001d1
00074
00196
0007c
00182
00137
001b2
00243
001fd
0015d
00162
0007d
00252
0024f
00152
001b1
0014f
00207
000c5
00224
0014f
001e3
0003f
00201
00097
0016d
00146
00081
000b6
001e2
001cf
00178
00174
00112
001bb
001f4
00286
00142
00104
00207
0015d
000ed
00233
0021d
000de
00245
0026e
00149
00212
001aa
0020b
00189
00272
00079
00075
0019c
00131
00125
000c5
00159
00009
000ad
00016
00098
0013e
001fe
00182
00000
0017d
000e5
001f5
000da
00228
00192
001b0
0004a
001d6
001e1
000ba
000d1
00160
00121
0024c
00136
00044
00240
7ffc1
7ff8c
7ff90
7fec0
7ff8f
0002b
000f0
001e0
7ff12
7ffa9
7fff4
7fe8e
7ffda
00098
0017f
00176
7ffbb
00213
000c8
00231
001b0
00106
00253
0024e
00042
00075
00207
0014b
0007d
7fde1
00032
000be
00128
00210
0026c
004f3
0015a
7fef6
7fede
000c5
002bd
00312
0030e
00394
001df
000e3
000c6
000da
0004e
001ff
00064
00168
0005a
00159
00068
7ff7a
7fb8b
7fb82
7fdf1
00007
001b0
001e6
0034d
00291
00184
7fd81
7ffc0
00086
00270
003ed
00689
00414
00357
7ff24
000ec
00083
0006d
00173
00044
00121
00044
7ff56
7fd8c
7fd94
7fa6e
7f945
7fbc9
7ff03
7fef8
7fde2
7ff07
7fb2b
7face
7fac3
7fdcf
7fe61
00273
00409
003be
00326
000d2
7ff55
0000e
0012e
000f4
0008a
000ab
00026
00195
7ffa9
7fda6
7fb31
7f87c
7f66d
7f980
7fd29
7fd66
7fc42
7fb60
7f8cf
7f9b8
7fa1b
7fab0
7ffd2
0011d
000b1
000a9
7fdfa
7fd3e
7fee6
000e6
0010c
00129
000fb
000f7
0020c
000a7
7ffef
7fd34
7fbc3
7f73d
7f67d
7f6f2
7fb21
7fdc3
7fd40
7fdc1
000fc
7fc04
7fea6
7ffc6
00084
7fd01
7fd1a
7fb5c
7f9e9
7fb28
7fed0
001ce
00260
00266
0008e
000fc
000d7
7ffd9
7ffbc
7fc71
7fca1
7f9f8
7f6cf
7f794
7fcac
7fd84
001e4
005f3
00885
00328
7ffc8
7fe94
7fa39
7f8e5
7f8fd
7f72b
7f859
7fbe5
0007a
001fb
00170
00230
0026c
00201
00043
001a3
7fe1b
7fca2
7fe70
7fb53
7fb42
7fc89
7fdaf
7fe71
004c0
00f60
0103b
007b5
7ffd5
7fb63
7fa70
7f945
7f9ee
7fa48
7fc73
7fecf
7ffcb
0020f
000d8
0006a
0005f
001aa
001c6
00002
7ff77
7ffb8
7fd13
7fe1c
7fd15
7fbb5
7f984
7ff42
00820
01289
013a3
00746
7fe69
7fe89
7fc21
7fbe8
7fc32
7fc7b
7fe5a
7ff4d
001a1
00249
0019c
00041
00230
0010d
000b6
0023d
7ff92
7ff51
7ff08
7fd37
7fc59
7f843
7f525
7ffa7
0083f
015d1
00f22
002ff
00196
7ff11
7fb94
7fd36
7fea5
7ff3d
7ff10
00024
00239
00055
00190
00039
0017c
00163
0017b
00277
00004
00035
7fee5
7fe83
7f9ea
7f316
7f2e7
00005
006e1
011fa
00a29
002b0
0014e
7fbe6
7fa0a
7fdd6
7ff3d
7ff35
7ffb7
00101
00181
0022b
00167
00118
00257
00151
001e0
001e2
7fffe
00052
7ff48
7fbf9
7f916
7f322
7f63c
7ffc8
006fb
00f55
009e0
002f4
7fa85
7f894
7fa5d
7fcaa
7ff09
7fef4
7ff49
001ac
00042
00076
00155
0027b
00068
00197
00102
00092
00172
7fe98
7fe66
7fd76
7f870
7f785
7fddd
0031c
009d1
01069
005ce
00110
7f5ac
7f6d9
7fa66
7fca1
7fd94
7ff64
0002f
000e0
0011f
0024f
00063
00267
0012d
00232
00156
000b6
7ff06
7fdc5
7fd9b
7fa24
7fc7e
7fd35
7fe73
7ff9b
00ce9
00f7d
000e3
7fb34
7f4d3
7f6c1
7fa0c
7fb7b
7fe12
7fe0b
00006
7ff23
00022
00097
0013f
000ff
0025f
00087
00257
001bb
7fea4
7fb18
7fab0
7fc32
7fd91
001bf
00005
00438
00ec9
00cae
7fd6d
7f730
7f4c9
7f6d0
7fa31
7fdd1
7fee7
7ff36
7fef2
7fe31
00085
00162
0019e
00177
0015a
000d5
001f4
00115
7fe10
7fac4
7facf
7fe0e
001fd
001a4
002a1
006dc
00b0c
007a3
7fafb
7f7c0
7f8ef
7f9f7
7fbf5
7fe03
7fca3
7fe82
7fdb6
7fe9a
00144
00233
0023f
0024f
001a0
001b1
001e0
00038
7fd18
7f982
7fb9e
7fe36
00108
00084
0005c
000e9
00516
0011f
7fbd9
7fc8b
7fcfd
7fc38
7fd11
7fbb5
7fc6d
7fdd8
7fe19
0001b
000ba
000cd
00052
0005e
0026d
0014f
000d7
7ff59
7fdee
7ff9d
7fe94
7fff7
0009c
7fe67
7ff6d
7fd65
7ff1c
7ff5a
0002a
00279
000e4
7ff11
7fc87
7fbbb
7fc0c
7fce5
7ff4d
00054
001fb
000cb
00271
001bc
000ea
0016b
001b3
00159
003a4
002fe
00168
0003c
7fef7
0000b
7fde7
7fb3b
7fa8f
7ff83
001a3
0029d
002f9
0020d
7fc8b
7fc9a
7fc1f
7fd55
7fe76
00058
0010e
00035
0004d
00159
00160
0018d
00051
00327
0070a
0074a
00466
00099
7ff83
7fe54
7f90d
7f4b9
7f760
00007
001b1
00677
00a99
004a3
000f7
7fd9d
7fe24
7ffd6
00050
00026
00107
00258
00121
0022f
0015d
001bf
000f9
002d1
0060d
00673
002f6
000d1
7fe80
7fefa
7fc12
7fd42
7fd8d
7fcba
00148
00785
00911
00413
7ff47
7fe45
7fd52
7ff14
7ff26
00088
00045
00080
0003f
00088
00056
000e2
00047
00160
002ad
002c3
7ff1c
7fbfd
7fbf8
7f8ea
7f938
7f9ea
7fac9
7facf
7facc
7fe7f
000a1
00126
001aa
00165
00056
000b9
001ee
00096
000f3
001d5
0009b
0025f
000c1
000e7
00147
001d4
001ab
00007
7fef7
7ff97
7ff0c
7fc0a
7fb2e
7fc70
7fb00
7fcf2
7fc22
7fdc6
7ff99
000c5
00199
00027
00174
000dd
00213
00085
0009e
000e3
000c4
000df
001ae
0017e
00075
0019e
00226
00175
00158
001eb
001a0
0003a
00152
00134
000b2
7fff5
000a0
00168
0022e
0019b
00042
0017f
00167
00156
000a3
00090
0019f
00237
001cc
001cf
0024a
0005c
00144
00266
001e8
00229
001ff
0022a
00106
001e5
001f8
00032
00069
0025b
00189
0016a
00035
00107
00074
0006c
000c5
00163
00200
00238
0022a
00222
000b6
