7fe64
0000a
7ff33
7feac
7ff2d
7fec3
7ff75
7ff8b
7fe59
7ff54
7fe77
7fefb
0004f
00045
7fe6f
7ff6f
7fe8c
7fe90
0006b
0001e
7fece
7ff7d
7fef1
7fe40
7fe64
7ff65
7ffec
7ff8f
7ff52
7ff36
00064
7ff9a
7fe79
7fe6d
7fe5d
7fec2
7fec7
7ff6e
00004
7fe88
7ff0f
7fe7b
7ff76
7fe40
7ff89
7fe89
7ff04
7fea5
7ff72
7fe93
7fe54
7fe2b
00017
7ff98
0001e
7fee6
7ff38
7fe47
7fe70
7fffc
7fe56
7fe7a
7ff23
7ff65
7ffd6
7ff0e
000e7
000bf
0024f
001d8
001af
000ab
00245
000c6
000a8
7feda
7fff8
7ff77
7fda7
7ff2c
7ffc0
00091
7ff53
7ff0d
7fedb
7feb3
7ffa1
7fece
00053
7fe8d
7ff79
00000
0006a
003ae
005c2
005b8
00579
0080d
00465
001f3
003b4
001b2
7fe66
7ff9b
7fe2e
7fdde
7fd65
7feb5
00031
0009d
7fe8f
7ffb6
7febd
7ff20
00071
7fe1e
7fe57
7ff79
000da
000d3
0025f
0070d
00720
008f3
00790
00600
00574
00269
00339
002fb
7ff1b
7fe7f
7fed7
7fc76
7fbb7
7fbe2
7ff79
7ff79
7fe47
7ffad
00026
7ff71
7fea4
7fe2f
7fe82
7feb8
000ca
00372
004c7
0082e
00910
00973
008a8
009b5
008fc
00856
0090a
00750
00549
7fdc5
7fdd8
7fc7b
7fc6c
7fa73
7fd9b
7fea3
00038
7fef1
7ff47
7feb5
0004b
7ff4e
7ff17
00094
0035f
00686
004fc
005a9
007aa
004cb
00518
00694
005cf
00329
0037f
000e7
000ab
7fdf2
7fea2
7fb86
7fb8e
7f9cd
7fc4f
7fdee
00043
7ffca
7ff0b
00031
00035
7ff20
00016
001d0
00458
00649
00525
004cd
001d5
0022b
0005f
0035e
00426
000df
0008f
7fabe
7fe38
7fe84
7fe51
7fe08
7fe88
7fae6
7fc77
7feec
7fea4
7fe58
7ff9f
00040
7ff4b
0003b
000f3
002f0
00220
00300
0030a
00362
00366
003e1
0024e
002c1
00744
00416
7ff7f
7fe02
7fff3
0019d
0000a
7fee3
7fd0a
7fa0c
7fb6f
7fe19
7ff1c
7fe8a
7febe
7ffb1
7ffef
000c3
0017a
0034b
00127
00039
7fedd
001c5
00160
001c7
00076
7ffd1
004bd
00520
001c5
00022
7ff86
7fff5
7ffc9
7ffe3
7fe1e
7faf0
7fbae
7fe98
00039
7fe5e
00051
7ffa1
7ff40
7fef0
0003a
7ff32
7fe5b
7f802
7f8da
7fa99
7f7be
7f6d8
7f559
7f409
7fafa
000e9
0014b
00038
000aa
7ff07
7ff4b
7ff06
7fd7e
7fa2d
7fccd
7ffdd
7ffda
7fea8
7fe56
00069
7ffd5
7fe78
7fd01
7f974
7f4c3
7f028
7f0c8
7ee13
7ee06
7ef98
7ee95
7eac7
7efad
7f831
7fd4b
7fdac
7fdc3
7ff8d
7fea8
7fe99
7fc4a
7fd76
7ff8a
7ff1f
7fe9d
7ff9d
7ff6c
7ff86
0002b
7ff4d
7fcc6
7f640
7ed09
7e8cb
7ea5b
7eb7d
7ed41
7ee75
7ee82
7edcd
7f10d
7f608
7f929
7f9db
7fce7
00003
7fff1
7fe43
7fc0d
7f9ff
7ff45
7ff01
00072
7ff86
7fecb
7ff36
0006a
7fec1
7fac7
7f3b5
7ec7d
7ee17
7ef49
7f483
7f7dc
7fc30
7f9f8
7fd42
7f91d
7f8f9
7f7aa
7f9fb
7fcaf
7ff5d
7ff07
7fddd
7fb09
7fb7b
7fdb7
00093
7ff3d
7fff3
00043
7ff96
0000b
7fef3
7fe00
7f7b2
7f57f
7f76f
7fc91
7ff68
00224
002d6
0035d
0053b
0005b
7fca6
7fd83
7fbb0
7ff46
7fd3a
7ff1f
7fcce
7fa41
7fbd3
7ff2f
00209
0024f
7feb8
7ff1a
7ff4a
7ff13
001e6
000eb
0006a
0023f
002a2
004e4
00374
00425
0026f
00228
0050e
00060
001fc
00049
7fbfe
7fc2f
7fda9
7fe4b
7fd6c
7facc
7fd52
0019a
002ba
00179
7fe8b
7fee3
7fe45
7fe0a
00205
0043c
006ea
0070b
00431
001bd
0039d
0035c
00311
00651
00590
0012b
7ff56
7fffa
7fd65
7fdb9
7fc01
7fe94
00037
000e1
001db
005e6
0074f
00139
7fedb
7ff0e
00055
7ff44
00273
0073b
00a13
00935
0064f
00464
00553
00830
006b6
007b2
0039a
001db
00280
00287
7ff9c
001a3
7fef4
00306
00339
00265
00352
00974
00833
001df
00040
7ffc9
7ffe2
7fd83
000a9
007d6
00d3f
00c75
008f8
005fb
006a6
00a2a
0092f
00ea0
00aad
00953
00489
0031f
005bc
003b3
00285
006c4
006fd
0079e
00a11
00c7e
00734
7ff4f
7fe84
7febc
7fed2
7fe43
7fff9
0044e
0080c
00a29
008cf
00822
0089c
0083d
008c0
009cb
00788
004e1
00250
00398
0063d
00304
002f2
00507
00646
00831
008c9
00793
003f7
00056
00017
7fe6e
7ffe1
7ff95
7fdd8
003d2
004b8
00754
00a31
009ae
0066a
0062b
00a52
005bd
001e6
00146
00190
00206
00017
00476
006f8
004ba
006ba
0095e
00820
005d9
002c6
7fff7
7ffbe
7ff63
7fe81
7ffbb
7ff23
000cd
00208
00515
005b6
00509
00648
0058f
00575
00225
00105
7ff72
0003d
002b7
002f9
00684
006db
00302
006b9
0084e
00976
004a9
001d9
0006d
7ffcb
7fe6b
7ff94
7fea3
00073
00199
00094
00376
00309
002d4
003f9
003f2
004ae
00082
7fc4e
7fb59
7fd5e
7fd85
001ee
0060f
007bc
00708
006ba
005d7
00671
00265
7ffbc
7ff97
7fee1
7ff9e
7ffaa
7ff4d
7ff30
7ff18
7fe33
7fdca
7fe15
7fcda
7fe28
7fec4
00197
00025
7fd86
7fca6
7fba0
7fb40
7fd86
000f8
0060e
0054c
0067d
004a8
001c7
00113
000b0
7ffd9
7ff2b
7ff68
7fec6
7fff1
7ffca
7feb3
7fc9d
7f974
7fb1b
7faf6
7faa0
7faaa
7fbea
7fbe2
7fdc3
7fd15
7fbd7
7fc0d
7fce7
7fc37
7fdf5
7fe31
7fe34
7fef3
7ff2b
7ffe0
000ad
7fe96
7fea0
7fff1
7fe3b
7ff1a
7feeb
7fe9a
7fd9d
7fcd2
7fb2a
7faa1
7fb05
7fb7e
7fa42
7fc27
7fc65
7fb37
7fc0e
7fd13
7fd41
7fef3
7fd7e
7ff19
7ff08
7fff5
7fea6
7ff7e
7fead
7fe48
7feb3
7fe58
7fef4
7ff3d
00014
7ffbb
7ff2c
7ffab
7fff1
7ff23
0001a
7fff8
0000f
00029
7ff7e
7feda
7fe1f
7ff03
7ff7a
7ff60
7fea9
0002c
7fff8
7fead
7fef4
7fe52
00013
0000e
7ffe9
7ffdc
7fec7
7fe7a
7ff65
7fe4c
0005a
00052
7ff02
7ffe5
7fea9
0003c
7fe41
7ffe8
7ff28
7ff9b
7fe84
7ff63
7ff17
7ff7a
7ff59
7ffce
7fe30
7ff38
0000f
7fe2f
7ff50
7ffbe
7ff07
