7ff1a
7ff49
7ff21
7ff96
7ff7a
0002e
7fe2a
7ff9b
7fec4
7fef4
7fe87
00027
7ff6a
7ffe7
7fe79
7ffeb
7ff87
7fe5b
0002a
7ff47
7ff22
7ff15
7ff36
00057
00002
7fef2
7feb0
7ff2d
7ff22
7fe2c
0004f
00001
7fe55
7fe62
7fe3c
7fe63
0003a
7ff53
7ff41
7fe2f
00033
7ffb6
7fec3
7ff10
7ffb8
7ff69
7fe98
7ff77
0002d
7fe4b
7ffb2
7fe9c
7ffde
00061
7fec3
7fe99
7fe79
7fff9
7ff64
7ff3e
7fe8b
7fe35
7ff66
7fe28
00054
7fe26
7fe3d
7ffa3
7ff62
7fe1b
7ff9e
7ff7e
7fdfe
7fed2
7fed3
7ffc0
7fff1
7ffe8
7ff8f
7ff30
0002d
7fec2
7ffb8
0003c
7fea1
7ff35
7ff3a
7fe69
00052
7fe7f
7fe47
7fef7
7fe32
7ff5f
7fea5
7fd7c
7fd34
7fc9c
7fd30
7fe55
7fd2d
7fdcf
7fe79
7ff10
7fddd
00022
7fee2
7ffe3
7fec8
7ff9c
7ff6e
7fe53
7ff45
7ffca
7fef3
7fe54
7ffe9
7ffdf
7ff46
7fe7c
7fe7a
7ff1b
7ff35
7ff90
0026f
00192
0054c
00405
001d4
00100
00180
7feaa
7fe60
7ff28
7fd8c
7fe3e
7fff2
0001e
7ff0d
7ff45
7ff4e
7ffac
7ffcb
7fff0
7fe8e
7ff26
7fec1
7fca3
7fea6
00133
7fd38
003b4
006f6
005ca
00606
002e0
0025f
00593
00047
7ffbf
001fd
00108
7fc9f
7fd2a
7fe0a
0017f
7ff64
00042
7fea1
7fe84
7fe32
7fe3c
7fdfa
7fe05
7fcd2
7fccf
00039
000f0
7ffc1
001cb
002d6
00246
00334
005ff
002e7
00369
000b8
003e5
0017c
001d4
00246
0021f
001ca
000c1
7ff45
7ffd1
00044
7fea4
7fe68
7fec2
7fde4
7ff3b
7fdd5
7ffdf
00225
000e0
00114
7ff53
7fd42
7fdf2
7fcfa
001d1
00247
7ffdc
0018d
7fe4e
00253
0039f
000a7
00781
00499
7ffd3
0001c
7ffaf
7ffae
0001a
7ffa1
7fe85
7ff9b
7ff4e
0031c
001ec
000b1
00565
0004f
0002e
0039a
004ab
7fc51
7fcdf
0028d
7fe31
000d9
00271
0019d
004f9
00356
005ab
00528
7ff63
7ff90
00082
00008
0001a
7ff31
7ff01
7ff75
00326
00256
004d0
00675
00572
00373
00610
001a5
001c1
7f8e8
7f623
7fc90
00087
00112
001ea
00287
0022e
00536
0055a
7ff21
7ff44
00131
7fe5e
7feb4
0000d
7fe9f
00023
00137
003df
003d8
0070c
0053b
0061d
008ef
00448
0047a
003a6
7fed1
7f69c
7f84e
7fda8
002ad
002aa
002bb
0065b
00708
005bc
00013
7ff95
7ff41
7fec3
7fe9f
00050
7ffe0
7fdd3
001d8
00445
00822
00a8e
0084c
00a7c
0072e
00365
0045f
00a70
00cb6
7fe70
7f86f
7fd66
7fd86
0010b
005c0
006e3
00926
008a3
00602
000fa
00087
7ff82
7fecd
7ff98
7fefc
7ff87
7ff9d
0051b
0043c
00677
0061a
007ab
0014e
001d4
00104
00c9b
00cab
002d7
0007b
7fee4
7ff17
0032c
00564
00943
00ac9
00900
005a6
00243
0011f
7fe69
7fe3f
7ff5e
0005b
7fe7f
7fedc
7fff9
7ff2e
7ff3b
000b2
7ff12
7fd3d
0010d
004a1
00bcf
00388
008af
00375
7fdce
00035
0004a
003d8
0037d
001fb
002d0
0017f
00055
00057
7ffb6
7feee
7fe37
7ffc2
7ff42
7fe6d
7fc92
7f9e0
7f826
7f6bb
7f893
7fef6
004bf
00491
009a7
007b8
00538
7ff5d
000a6
7fea5
7fcda
7fae0
7fb6a
7fc0f
7fb57
7fde3
7ffb1
7fe1d
0000e
00026
7fedb
7feaf
7ff73
7fe47
7fc98
7f85f
7f6a6
7f77a
7fdec
00052
00035
00698
007cb
006d2
003ef
7fe07
7fe48
7fecc
7f918
7f767
7f968
7fbd1
7fc05
7fcff
7ff7b
7fdec
0002b
7ff14
7fe4c
7fed3
7ff61
7fd3e
7fb12
7f813
7fb52
00324
0037e
0016e
00333
00660
00596
00201
00355
00121
7fd64
7fa6e
7f80a
7f80a
7f7e9
7f983
7fdd9
7fd2a
7ff08
7fefe
7fe40
00064
00045
7fea2
7fe54
7fe2d
7fae5
7f901
0013d
00681
0080f
00294
00619
009ed
00605
00082
7fe63
000b9
7fce9
7f7d1
7fc20
7fc27
7fa90
7fbf9
7fd77
7fe8e
7fdf0
7ffa9
7feee
7fec3
00014
7fe3b
7fdbb
7fce3
7fcd0
7fe07
001ec
00559
009a7
006bf
00934
005fe
00374
7fbd1
7feeb
7fda5
7f9b8
7fe7d
7fed1
00077
7fc8b
7ff7a
7fd10
7fc02
7fdf3
7ffac
00041
7feca
7ff66
7ff8d
7fd4c
7fc8d
7fe9c
000ec
0028d
002a8
00689
0035b
7ff89
00199
7fba0
7fae0
7fe0a
7fe64
7fde6
0019d
00077
00213
0002d
00158
7feda
7fcf4
7fe2e
7fe73
0002f
7fe83
7ffad
7fea3
7fe04
7fc04
7ff54
000a3
005a8
001b0
7ff45
7fff8
7fb38
0004d
7ffe0
7fb76
7ff2d
7fab3
7fe52
000f0
00095
001ae
002d9
002d7
7ff4c
7fe21
7fd8b
7ff46
7fe91
00021
7ff35
00048
7fcdf
7fb5a
7ff89
00273
0053c
00118
0023e
7ff96
7fc8c
7fe11
00131
7ffe5
7ff74
7fbf1
7fe4c
7fede
7ffd6
7ffe8
000f9
000d7
7fec8
7fe87
7ffe9
7ffb2
7ff0f
7ff87
7fe39
7fedd
7fe02
7fc4a
7fa77
000a8
0017d
7ffa9
7fe3b
0011f
00066
0069c
006ee
004e6
003d4
7ffac
7ffa3
001a8
7fdf1
7fdc6
000f3
7ff9a
7fe95
7ffa5
7ffa3
7ff97
7fea1
7fe9c
7ffd3
7ff5f
7fe3b
7fc1e
7f6bf
7f8be
7fc58
00143
0013f
002af
00381
007d3
00b40
00993
007a2
0062e
0046e
00384
0047f
00351
000cc
7ff95
7fef4
7fdf4
7ffcf
7fe30
7ffa4
7ffc7
7ffa4
00058
7fe69
7fe64
7f9e0
7f781
7f8dd
7ff90
001ab
7ff5e
00308
0023c
00179
003b6
00810
0088f
005bf
0080d
0078e
0027d
00025
7fe4a
0002c
7ff4c
7fed3
00047
7ff88
0005f
7ffbb
0002e
7fe65
7fec9
7fdba
7fccb
7fc03
7fb8e
7fb8a
7fe55
7fcd9
7fe22
7fe1b
7ffd0
002d5
00204
00290
002eb
00076
7ff61
7ffec
7fe11
7fe24
7ffd7
7ff7c
7fece
7ff72
7ffb4
0000b
7ff1c
7feb4
7fe1c
7fe6a
7fd92
7ff51
7fdcd
7fe20
7fdbc
7feb5
7fe93
7fec9
7fe34
7feb3
7fe6e
7fdea
7fdac
7fe8a
7fefd
7ffaf
7ff16
0006a
00060
7fe41
7ff72
7ff43
7ff9b
7fea8
7ff29
7ff78
7ff8a
7fe34
7ffef
7fecb
0004c
7ff1d
7fe73
7ffd6
7febd
7fe7a
7ff0e
7ff98
7ff6f
00008
0003f
0005a
7ffb3
7ff7e
7ffae
7fe9e
7ff5c
00042
7fe57
7ff60
