00018
00020
000f3
0005e
0018c
7ff50
7ff8a
00081
00131
0012a
7ff57
00050
00056
7ffd3
0013f
00055
00006
7fff5
00022
0006e
000cd
00184
7ff98
0011d
7ffd8
000cd
7ffef
7ffff
0016d
7ffb2
00052
00168
0008a
0000d
00165
00071
00022
7ffc3
7ffd0
7ff44
00133
7ffea
00171
7ffa0
000a0
00115
00138
000f9
00008
000f5
7fff9
00185
0012c
7ff94
7ff96
0009f
0015a
00155
0010c
7ffce
00137
7ff6c
7ff87
000f3
000cd
7ff88
7ffe5
00097
7ffd6
7ffb0
0005f
00139
000fd
0002f
0007c
00161
0012c
0015b
7ff51
0010f
00067
000ef
000ce
00131
7ffe4
00015
0013d
7ffd0
00024
7ffeb
7ff8b
000ce
00002
000ce
7ff57
0002a
000a6
7ff1c
000bc
7ff65
7feb0
7feed
7ff14
7ff61
7ffd8
7ff6e
0007f
7fff0
0009a
00186
7ff80
000a1
0017a
7ff76
000d3
7ff5f
00058
7ffb7
00011
7ff65
00076
7ffc9
7fe8e
7fd36
7fd12
7fd34
7fcaa
7fa82
7fcc3
7fd8f
7fde1
7ff6d
7fe6b
000bd
0001d
7ff3b
00166
7fff3
0015f
00154
00142
0000d
00137
7ffab
7ff0d
7ffd6
7ff46
7ffbc
7ff23
7fdff
7fb15
7f9f6
7f867
7f719
7f4e4
7f4fa
7f470
7f5cd
7f75b
7f96d
7fb54
7fe55
7fd6c
7ffad
00121
000e6
7ffc5
0000d
0010c
0016f
0001a
0003c
0018d
001d9
0022a
00341
004d4
003de
0041e
000bd
7fcb3
7f912
7f8c5
7fc3f
7fdb8
7fd4b
7fcb8
7fc34
7fa40
7fdd8
7fbf9
7fd11
7fe0a
7ff57
7ff52
00028
000f4
00172
00131
002d0
00369
00311
00471
006cb
0094d
0075f
00516
0059a
005f7
00126
000d9
00223
0064c
00700
004be
003ce
000ed
7fef3
0007e
7fede
7fef0
7fff2
000c0
7ffb8
7ff45
00184
00096
00260
004d0
00457
005cf
00a6e
00705
004d6
00627
0083d
007d5
003f1
0024e
00332
0058e
0088a
005da
00503
00400
00018
0026d
0020f
7fe88
7ff4d
000d0
0013f
000a5
00135
0019f
0036d
004b7
0055b
001f7
0029d
002f6
001f5
004cd
005e1
0077f
00619
008bd
00ac2
009e9
00b0f
00738
0075a
0062f
00528
00271
7ff1d
7fe80
7ff44
000a7
7ffaa
00040
00151
00176
00442
004e1
0040e
000bf
00138
7fe5c
7fff0
002fa
0053e
003a5
0087c
00aeb
00d69
00f45
00b51
008ea
00945
00823
006eb
0030f
7fec0
7fdef
7ff2a
00028
7ffb0
00128
000d0
0017a
0045d
00542
0029b
000f2
000d9
0003e
00328
001a1
0020e
00365
0035d
0037f
00a43
00d54
008e2
008f8
006e5
006b3
00437
0030b
7fef1
7fcec
7ffea
0004b
00159
00108
7ffed
000bc
002bf
00316
00082
000b0
002ef
00203
7ffe2
7fd9a
7f99c
7f27e
7eb18
7f05a
00057
008d7
00806
00328
00122
00036
7fed8
7fef3
7fe1c
7fea3
00146
000e5
00003
0011e
000a8
00134
0027e
000ee
00066
7ff2e
00089
7ffa0
7fdf4
7f94c
7f1dd
7e72f
7e448
7f12b
7fe0e
00483
002e9
000a1
00153
7fd48
7fc86
7ff2f
00042
7ff57
7ff79
000b5
7ff50
7ffb3
00098
0023b
002c8
001c3
0020c
7ff52
7fe93
7fcdb
7f8a1
7f52b
7ef3e
7ea85
7ede2
7f95c
00027
00161
002dc
00836
008d3
0054f
00364
00369
002f5
00100
0004c
7ff87
7ff92
000b8
00110
00064
0010d
0010d
7fd07
7fead
7fe28
7f817
7f667
7f33e
7f162
7f013
7f444
7f925
00036
000bf
00b2b
00d13
00ac6
00991
0083b
00552
00267
7ffe7
7ff56
0002d
00125
000b6
0016b
7ffe2
0017d
0012c
7feab
7fe1e
7ffbb
7f9a2
7f8d0
7f46e
7f23e
7f760
7fb2d
7f902
00399
0045a
00973
00818
0087b
006bf
00524
00103
7fde3
7feb0
7ff41
000ce
00166
0000b
0002e
000dc
7fff1
00048
7ff26
7fbb5
7fa58
7f8e7
7fa24
7f83c
7fa3d
7fe29
00170
000d1
0016e
7ff27
00245
00206
00170
000c3
7fed3
7fd64
7fed3
7fefb
7ff33
7ff92
7ff9d
7ff9b
7ffdf
000f9
0004d
7fe43
7fbde
7f92c
7f77f
7f81b
7f89c
7f682
7fcbc
7ff04
0001e
002ac
7fd2e
7fc8a
7fe16
7fba4
7fd53
7fb82
7f91a
7faf4
7fcd0
7fd7e
00042
7ffb9
0000f
0015a
00173
00153
000a9
7fed4
7faa0
7f765
7f6c5
7f686
7f677
7f98b
7fb5a
7fd38
00135
003c7
7fc0e
7fc27
7fb24
7f847
7f8af
7f6fd
7f7ae
7f9ab
7fba3
7fdca
7ff2e
00163
7ff5f
7ff47
7ffac
00092
7ffc4
7fea4
7fbda
7f755
7f6f5
7f779
7f7ac
7fa31
7fa02
0006f
00098
00201
7fab7
7f965
7f75f
7f416
7f86b
7f58f
7f809
7fa3d
7fd8d
7fe5d
0013c
0012c
000cc
0011d
0012b
00043
7fe7a
7ff3a
7fc4e
7fbab
7f9c1
7fa60
7fca7
7fb3d
7fc1e
7fe44
0003c
7fef5
7fc70
7fbe7
7f77d
7f785
7f781
7f70d
7f86c
7fb8d
7fca2
7ffda
00085
00120
7ffc2
00061
00016
0004c
7ff10
7ff93
0008d
7fea5
000ac
00112
7fe4a
7fcbe
7fa71
7face
7fde8
0009f
0009d
7fcc5
7fc00
7f930
7f930
7f853
7f948
7fc96
7fed9
000be
7ff46
0005b
00006
00086
00110
7ff2e
7ff41
00168
001e2
00419
00577
0029c
00085
7fe64
7fc49
7fcf6
00036
00221
001f6
7ff2e
7fec9
7fba4
7f9eb
7f9c7
7fb24
7fbfe
7fd63
7fed9
00016
00013
7ff92
7fffd
7ffdb
00064
000ea
001f5
00480
006cf
007ac
00684
0035c
0073d
00446
003b5
00539
00337
004a4
002bf
00225
7ffdd
7fe00
7fde0
7fd6c
7fd16
7fd59
00068
7ffca
7ff4e
000cb
7ff4b
000a6
0012c
00119
000a3
0023e
00352
00521
007ee
007be
0092a
00888
0079a
00605
00626
00684
00576
0051b
0041d
00169
7fe44
0003c
7ff25
7ff5f
7ffcd
00064
0018e
00102
7ff73
0004c
00178
7ffc0
7ff80
0015f
00019
00141
00132
0002b
001ba
0028b
000bc
0022f
004ae
005c7
0048f
005d7
00354
00192
0000d
0009b
7ffd6
00056
00011
7ff9c
7ffe8
7ffce
7ff46
00098
00067
000bd
00101
00099
00042
0001c
001a5
00102
0004c
00104
0007e
001e6
00122
000dd
002a4
000e5
000cb
001d5
00038
7ffb1
0017f
000d2
00061
7ffba
7ff63
000ff
