00000
00048
001e4
001e3
00009
00009
0017b
00067
00020
00047
0000e
0015c
001ca
00105
00151
00025
0013b
001b0
0005b
0015d
0001a
000cf
001d2
0002e
001d2
0004a
001fd
000d2
00085
000ee
7fffc
00028
000e9
00232
00074
7ffa6
00138
0000b
000d1
7ff5c
00090
7ff1f
0000c
00135
0016c
0006b
00006
0005b
00187
7fff7
7fff3
00020
0015b
0016f
00057
0016e
001a3
00111
0019e
001a9
00192
00167
001dc
7ff68
7ff5c
00057
7ffc8
7fee5
7fbbb
7fe47
7fdef
7fd13
7fddf
7ff95
00088
00181
001f3
00120
001d7
0007f
000b2
0013e
00014
000de
001a7
0017c
00093
000ef
000f8
00003
0013e
7fee7
7fe65
7ff20
7fc54
7fba8
7f912
7f963
7f9b4
7f85c
7fae6
7fd74
00060
000d1
0017b
0022e
00092
00095
0021f
0020a
000a1
00132
00210
0015e
0018a
0017e
000e4
001b0
7febc
7ffb8
7fd6a
7fdd0
7f9c9
7fa17
7f7ea
7f949
7f7c2
7f8f1
7fc92
7fcf4
7fe2d
001c1
0026a
002c2
002a1
0037c
000f7
001f5
00080
00052
00219
00096
0017b
0007c
0015b
00046
000f6
7fed6
00050
7fea7
7fb74
7fcfd
7fad6
7f997
7fb84
7fc4d
7ff61
00091
7ff1d
0017e
001d5
00279
005c4
00681
0038a
7ffa7
00095
0005a
001f2
00227
000a4
001b1
001d7
00183
00180
7ffe2
7ffa9
7fe37
7fc65
7f9a8
7f664
7f4a3
7f422
7f5b3
7f572
7f9d0
7f99b
7fd20
7fe1c
7ffdb
00840
008ab
00356
0029d
001de
00014
000eb
0007b
000a9
0012c
000ac
00191
7ff08
7ffd3
7feed
7fd90
7f9d8
7f666
7f388
7f730
7f4fb
7f4e6
7f495
7f8b8
7f88b
7facf
7fa00
7fd43
00519
006e6
003ae
00213
001f1
00127
001df
00192
00212
00066
0009f
000da
00093
7ff81
7fb5c
7fda4
7fcea
7f9cc
7f6ea
7fa31
7f2d6
7f27a
7f57d
7f96b
7fa17
7fe24
7fc65
7fc75
00259
0039d
002c2
0008c
000be
0015a
0023a
001df
001c0
0005e
7fed7
00009
7fd23
7fdf2
7feab
7ff90
7fe69
7fe17
7fe08
7fac3
7ed06
7f1ce
7fc8e
7fd74
7ff37
0006c
7fe02
7fe0d
000fc
00039
7fdbe
7fda6
7fefb
00181
00130
000d7
000d9
0003c
000e2
7fd72
7fbc6
7fdf3
0009c
00568
00346
00272
002ee
7f8be
7ebf6
7f9e4
000b3
7ff1a
7ff50
000b5
7fc00
7fd5c
7ff80
7fba5
7fd88
7fe6f
0013f
00210
00163
00172
00139
7ff3c
7ffb8
7fe92
7fe7d
00148
00418
006e5
00981
0060b
006d3
7f4e2
7f0e9
001f5
007ce
00151
7ff8c
7fec0
7fbbb
7fc5a
7fe24
7fca0
7fc40
7ffca
7ffdf
00084
0018d
0015c
000a5
000ee
7ffe8
7fe9b
00404
0069e
00a3f
008fb
00eef
010ec
00ffe
7ffbc
7f80b
00642
00a2a
00128
0006e
00163
7ffc1
0004d
7ff8c
7fdc2
7fdff
7ff70
00235
00147
0003e
00174
00034
0009c
001b7
004d7
009da
00b6e
00d24
00afb
00cd0
014e2
00fd4
0003d
7fdc1
00756
00789
0085e
005c5
00299
005c7
00441
00207
7fed2
7fef6
0001e
001c6
00145
0003a
001d0
00025
00222
00449
008a1
00bfe
00d20
009cf
00960
00b4b
00db0
009f7
000d3
7fe8d
002a6
00864
00dca
0095d
0089b
004ce
0033b
0010d
00098
7ffa9
00093
00114
00082
0017f
00226
00161
001c6
003e0
00465
006d4
0064a
00a1f
008b2
0060d
00465
00531
00106
0042a
005d3
00c17
00abe
007ae
0048d
7fec7
001b0
0030d
00052
7fe29
000f8
0003f
0009c
000aa
00003
00014
7ffbc
0010e
00298
0043a
00761
00abe
007a7
0020d
7ffb9
0021b
002a0
009dc
00da2
00e0a
00baa
007e5
000fd
00350
004b4
00119
7ff39
7ffc9
00075
000d9
000e4
000ca
000ce
0019b
7fff9
7fedf
7fdae
0015f
005da
00b49
009c9
0038b
002ca
0040a
009ae
00ffe
00ca8
00a97
00345
00081
7fc75
00110
00063
7fdd6
7ff11
7fe97
7ff31
0016d
001be
000df
00156
0012b
0002d
7fea3
7fd22
7fcac
7ffef
002e3
000a9
7fda6
7fe9c
003b1
00429
00707
00604
00324
7fb23
7fb64
7f93e
7fbfe
7fbd8
7fa76
7fbb5
7fee2
7ff68
00084
00012
000d8
00190
00098
0005b
7fce8
7fc28
7faec
7f85f
7f765
7f6d4
7f52e
7f5a7
7f6d6
7faa1
7fe68
00165
7fbd5
7fc6a
7fb95
7f9e7
7f930
7f9b9
7f99f
7fbb0
7fedd
000db
00183
00161
00240
00215
0009a
0005c
7fd7d
7fbb5
7f9c3
7f5d9
7f3ee
7f336
7f2fa
7f677
7f84a
7f761
7fa95
7fd2d
7ff06
7ff75
7fdc3
7fb26
7fcbd
7fc4f
7fb8b
7fdb7
7fdce
00029
00087
00181
0006a
000a8
0002c
0004d
7fffa
7fd8e
7f9da
7f763
7f83f
7f72f
7f853
7fa4d
7fb43
7fb9c
7faf9
7fdac
7fce6
0008f
7ff13
0002b
7ff99
7fcfb
7fd71
7ff87
7ffeb
000ee
00140
00134
00115
00142
00080
00161
7ffad
7feb2
7fd77
7fbd0
7fa57
7fc90
7fc75
7fd8b
7fd69
7fdc7
7fd39
7fe4b
7fe5d
00097
00283
00418
00325
00210
7fea3
7fea9
7fff3
000e6
00025
000b1
000b4
0000c
0009f
0013a
000b2
000da
7fea6
7fe7f
7fdf8
000f3
7fdd0
0005a
7fdbd
7fe39
7fe43
7ffdf
00094
00187
004b6
00499
003eb
001bf
7ff5a
00088
0010a
0016c
00077
001c5
00157
001e9
000e8
00184
0005b
00129
00071
7fdd9
7fdcd
7ff4d
7fdab
7ff9f
7fe53
7fe75
7fd28
7fccf
7fea0
7ff49
00040
0027a
001cf
7ff42
7ffc9
000f5
00193
00040
00069
0015d
00200
001f1
001c6
00066
001c9
00016
7feb9
7fdec
7fce0
7fcb7
7fa9b
7f9ea
7fa41
7fa48
7fb24
7fadc
7f959
7f86a
7f930
7fc44
7fc96
7fec4
00013
0014e
00019
001d0
000ba
000a9
000f0
0015a
0004e
000e6
7ffe9
7ffb1
0008b
00064
7ff97
7fe1c
7fb72
7fc07
7fb74
7f9d3
7f941
7fac0
7fa05
7faec
7fbd5
7fd84
7ff17
00159
00155
0002b
000e0
00025
00225
000f1
0014d
00031
0004a
00210
000c6
001b8
000cb
0021b
7ffff
000e8
00077
7ffb5
7ffc9
00014
7ff20
001ab
7ff92
7ff83
7ffd6
000e1
000ad
000ac
000b7
00138
0012a
0018a
0011b
000bb
