7ffa5
000ba
7ff2e
7fff0
7fff9
7ffe4
00062
00127
7ff3e
7ff7f
7ff88
7ff47
00060
0010d
00097
7ff0a
7ffde
00127
00032
7ffe6
7ff1d
7ff68
00046
00103
0008b
000aa
7ff1a
7ff23
000be
00096
000bf
7ffcf
7fefe
7ff66
00084
001ad
00123
00057
00160
00178
00191
00179
000ee
000fe
7fef1
000f2
00148
000bb
7ffcb
7ff59
0015c
00107
7ff94
00125
7ffcd
000d9
7ff55
7ff32
7fefd
7ffe7
00092
0005a
00095
001a4
0012b
0027c
00321
00389
0038b
003b8
001e3
00156
0031b
0015f
00155
00176
0016d
000b9
000f4
0002e
00086
7ffb4
7fef2
00053
7ff1b
0001b
000d8
0007d
0011b
7ff0a
00133
00150
00190
0032b
002cf
00384
0036e
0034d
004dc
00495
002d9
00399
005c7
005c3
00625
00572
00583
00334
002d7
000b2
7ff83
000a1
0002a
7ffca
7ffed
000fa
000d7
0004f
00050
001f7
7ffc8
7ff97
001e6
000b7
000e1
00051
000bf
00120
003da
003d0
005f9
00612
007a9
00880
00750
004e9
000b2
0014e
0002e
00000
00032
00098
00057
7ff8c
7ff30
7ffe9
7ff52
7fea8
00102
7feb3
00078
7fb8a
7fda4
7fe5e
7ff67
7fde5
7fde5
00068
002dd
0055f
004a9
0042a
00349
00241
7ffbd
0001d
7fede
00112
7ffda
000f7
000e6
7fed7
00069
7ffd1
0005f
00007
7fe58
7fdfb
7fadd
7f949
7fc19
7f858
7fc9f
7fd85
7fc78
7fce1
7ff22
7fde8
7fc9b
7fcc4
7faf8
7fcb8
7fd47
7fd22
7ff92
000ef
0005f
0008e
00009
7ffd1
00010
7ff01
7fdfc
7ffad
7fd23
7fc72
7fad3
7fbef
7f8b1
7f7cf
7fbb4
7fbed
7f99d
7f9f4
7f881
7f5d4
7f59f
7f752
7f6eb
7f8d4
7fd42
7fd85
7ff05
7ff41
7ffa4
7ffb2
00119
7fe99
7fed5
7fe72
7fc1a
7ff25
7fe90
7fbec
7fb3d
7fa8b
7f96e
7f862
7f894
7f812
7f699
7f52b
7f0b2
7f1c1
7f343
7f363
7f72f
7f83c
7fb27
7fcf2
7fdcf
00053
7ffd7
7ff26
7ff83
7ff07
00007
7ff1b
7fea4
7ff36
000ee
7fd8a
7fb59
7fc6e
7fdb4
7fbaa
7fc07
7f750
7f5e1
7f156
7f05c
7f33a
7f586
7f7aa
7f659
7f9cc
7fb44
7fc7d
7fe8e
000c2
7ff44
000f6
000a6
7fee0
7fe5d
0006a
0015a
0014c
004c0
7ffe7
000f2
00065
7fd20
7fe0c
7fbb7
7f702
7f6db
7f547
7f4d6
7f716
7f9f3
7fbab
7fa4c
7ff67
7fc4a
7fd6c
7ff3c
7ffa1
7ff67
00064
7ff58
7ffe8
7ff5a
0002b
7ffa6
003f9
002d8
0015e
001b8
00137
00138
00032
7fdee
7f8de
7f950
7fa4f
7fa48
7fb8d
7fdec
000cd
002ba
0043e
7fffd
7fdbe
7ff0f
7ffa8
7ff67
7ffae
7ff07
7ff89
00091
001dc
002d7
003ba
001ba
0026c
001b5
0047e
00452
00318
7fd5a
7fb37
7ffcd
7ff8f
7fb51
7fb83
7ff71
00289
00620
00ade
005d8
7fe55
7fe16
7ff6c
7ff6e
00102
000c5
7fee7
7fe80
0009b
004b7
0028a
0022e
00114
00494
003d2
00381
0009e
7ff5a
7ffe3
0005b
7fef8
7fbec
7ff77
7fe0a
00343
0087b
00d70
00742
7ff6c
00006
000a9
7ff85
0001b
000c3
0000a
7fe6a
001b1
00453
003ba
00521
004ce
00533
005a2
001e5
7fd41
0002f
0024b
00116
7fe37
7fe44
7ffc0
003ae
003a3
0099a
00b2c
00753
7ffe6
7fde7
7fef8
000c9
7ff9a
00027
7ff22
7fcf8
7ff9e
00482
005fe
003dc
0060f
007a3
00951
0026f
7ff53
00398
0034e
00083
7fe4e
00057
001db
0044e
005e9
0056e
006ba
00397
7fe29
7fedb
7fed4
00035
7ff25
7ff1d
7ff05
7fbfe
7fdd4
006ae
006d3
00484
006f8
00bd1
00bb9
00393
00220
00518
002b0
7fe98
7fd37
000f7
002fa
00163
0000a
002c8
001ab
7ff31
7fdd6
7feac
7ffd2
00032
000a8
000e8
7ffd7
7fa49
7fd03
002cb
0054f
0060a
0079e
00d26
00d5c
006e7
003e3
003ef
0027c
00000
000b8
0057a
001e4
000c9
7fe9a
00141
7ffbc
7fe72
7fcf8
7ff91
0007f
7ff8e
7ff62
7fffc
7fe55
7faa3
7fac4
7fd77
003a7
005da
00551
00935
00b5b
00d62
00637
001ae
00375
005f8
003e0
004d3
0028a
00054
000d9
000f0
7ff78
7fe17
7fe97
7fee9
7fed7
00049
7ff31
00083
7fde2
7fc87
7fa6e
7fbac
0004e
003cc
005f7
007f1
00ca9
00e3f
00758
0068f
006dc
004e2
00403
00643
00444
002c3
00098
7ff00
7fec4
7feb5
7ffcb
7ff62
000e9
7ff71
7ff30
7ffb7
7ff0a
7fb8f
7fab0
7fb66
7fe1f
00142
003fe
00693
00462
008a1
00a59
00c48
00a75
005ab
003a0
0070a
004f7
0035e
7ff4f
7fd64
0002b
7ff5e
7ffaf
7ff36
0002b
7ffe6
0001a
00055
7ffa9
7fe51
7fc57
7f9ca
7fd30
7fe51
00301
00575
007c3
009fc
00a23
00883
00756
00494
00643
005d6
003bb
0007f
7fe06
7fd3b
7fe64
00018
7fef5
7ffc6
7ff6c
7ff6b
7ffe6
000ff
00045
7ff6a
7fcd0
7fc37
7faec
7fc9d
7fe76
7febd
0009d
002eb
00144
00110
00327
00258
00005
7ff37
7fc7b
7fc9d
7fd2e
7fd5e
7ffbf
7ff8a
7ff05
00113
0006a
000dd
7ffa9
7ff85
00019
0004e
7feaf
7fdf1
7fb7a
7fa48
7f7c6
7f7d1
7f676
7fa1f
7fb5e
7fc64
7faa2
7f8f2
7f800
7f9b1
7fd20
7fd13
7fd70
7ff16
00021
7feef
7ff1f
7ffa0
7ffe4
0009e
0007f
00057
7fefc
7ff32
7ff9f
7ff07
7fe6c
7fec1
7fe02
7fd04
7fc39
7fb9b
7fbb3
7fafb
7fafc
7fac2
7fbff
7fe9c
7feb5
7ff8c
7ff49
00088
7ffc5
7fef4
7ffac
7ff38
7ff3e
000fa
7ff17
00044
7ff89
7ff4a
7ffde
000a7
7fff3
7fee4
00067
7feeb
7ffd5
0000e
7fedb
7ff5e
7ff9d
7ffe5
7ff00
7ff6a
7fee6
7ff22
00023
7ff95
000cb
00120
000fe
0000c
000bf
0010e
7fff3
00031
7ffcd
7ff68
000e3
000ab
7ff6c
7ffa8
00080
7ff95
00038
7ff90
000a7
000b0
7ff1c
7ff52
000e6
000b5
7ffa7
000a2
7ffc3
7ffc0
00065
00073
7ffc8
7ff78
7ffb2
00105
7fff3
00093
7ff6b
0005b
7fff9
000f5
00023
7ffdf
7fee0
7ff3d
00059
7fefb
7ff26
7ff5b
7fef6
7ff4c
7ffa7
7ff12
7ff4c
7ff64
7ff81
000f1
7ff14
7ff66
7ff1c
7ff60
0002c
