7ff5f
7fe71
7ffec
00012
00028
7ffdd
7ff68
00029
7febe
00019
0001b
7feee
7fee7
7fee0
7fef6
7ff18
00005
00012
7fe72
00029
7ff7f
7ff90
7fdf6
7ffe3
7ffed
7fe15
7ff0e
0000e
7fe65
7fefe
7fe6c
7ff73
7fe30
7ff22
00035
0001d
7fe12
7fdfb
7fe30
7ff67
7ff92
7ff14
7feec
7fe8c
00033
7fe73
7ffa8
7fed1
7fed8
7fe20
7ff38
7ffd0
7fe4e
7ffe7
7ff55
7fe52
7fe96
7ff35
7ff27
7fe73
7ff82
7ffab
7feae
7ffa4
7ffd3
7ff14
7fe46
7fe52
7fe1c
7fe5c
7fef6
7fed0
7fea8
7fe9c
7ffa4
7fff5
7ff09
7fe69
0002d
7ffdf
00001
7fec2
7fe0a
7ff16
00038
7ffa0
7ff1d
7ffc3
7ff9a
00002
7ff6a
7ffe4
7ffc6
7ff41
000b2
00251
004e4
00410
00424
00492
0032b
00393
002cb
00036
7ffb9
7fc97
7fe07
7ffd4
00018
7fe81
7ff52
7feb0
7ff4c
7ffe3
7ff78
0000f
000be
7fffe
002df
0026d
0069c
005ae
0070b
00879
009d4
00a88
00978
006f1
003ea
00322
0051f
000a1
7fc7f
7fa88
7fb54
7fb6d
7ff72
7ff2b
7fecf
7ffb0
7fe47
7fe07
7fe87
7fe87
0005e
002fd
00576
0045d
004fe
00468
003fd
00531
00545
00653
00115
00436
004dd
7ffa0
7ffbe
7fdcc
7fcef
7f97e
7f7ae
7f8f5
7fdf5
00002
7fe99
7ff23
7fe74
7fec9
7fea7
000a1
003b3
006e0
00542
00407
0061a
004fa
0046d
0043c
005a9
0081f
005a5
0020a
0055f
004ed
004b0
7fde7
00200
7fe04
7f8dc
7f8dc
7fba0
7ff1f
7ffce
7ff50
00016
7ffc2
0006b
00316
0081e
00813
005b1
00199
001b7
0039e
0011c
001a6
004c3
00482
00779
00464
00158
003c0
0031c
00361
0036c
0007c
7fc8d
7f7fc
7fa41
7fe7e
7fe09
7fef4
7ff3d
7fed3
00057
002e2
006b1
0065c
004c7
001f4
0033c
0018b
00416
00150
0011e
00200
00820
006be
0018e
003bf
00562
00382
00522
002a5
7fea0
7f893
7fa70
7fdf8
7fe46
7fec2
7ff07
7fe18
7ff64
0013e
00375
00496
003cd
000ec
7ff85
7fc75
7f93f
7f398
7f5ef
7fea9
009ad
00ee0
00898
00506
00576
0050c
00790
004d3
7fe8a
7f8a0
7fc4a
7fde8
7fe6d
7feb0
7ffca
7ffaf
0001a
001dd
001ad
000b7
7fdd6
7fa86
7f5fb
7f1ad
7ee73
7ee00
7f2bd
7fca7
007ef
0092c
007cf
00748
0047e
007cc
0073c
002e6
7fd68
7fb37
7fe36
7fdf9
7ff24
7ffc8
0003c
7ffc8
7fe58
001d1
7feed
7fa62
7f793
7f39e
7f085
7f29f
7f5d0
7fb33
7fd66
0035d
00548
0054f
0026c
0057f
006cd
006a2
005ca
00007
7fd73
7fdde
7fe1f
7fee3
7fe76
7fe46
00011
7feb3
7ffab
7ffe6
7fdf5
7fa5d
7f621
7f3a7
7f4d6
7fa0e
0001e
000fe
00192
00391
008d6
00491
0031e
0046a
00389
7ffb1
7fb6d
7f9b8
7f96c
7fbd1
7ff44
7febc
7ff51
7ff85
7ff1c
7fea6
7ff2b
7ff72
7fd63
7fc25
7f7f9
7f6bc
7f9b7
7fec3
7fdf5
7faac
0006d
0079b
007af
00167
0037d
003b8
001f9
7fd62
7f8fd
7f8f4
7fa6f
7fc17
7fdc1
7fff4
7ff97
7fece
0002f
7fe79
7ff06
7ff5d
7ff84
7fcc7
7f8c2
7f974
7fb8e
7ff62
7fb56
7fb07
00169
003ae
003ee
7ff6a
7fe67
7fed0
00089
7fcf3
7fbdf
7fe00
7fd29
7fe15
7fd7a
7fdbb
0000f
0001d
0002b
7fe7f
0003a
0008e
7ff5a
7fc61
7f948
7f8cf
7fa9f
7fcd9
7fc82
7fed2
00174
005fc
0036f
7ffa9
7fb01
7fe8d
7ff82
00150
0031a
00307
0010c
00066
7fe1b
7ff93
7ff66
7fe7e
7ff6f
7ffae
00161
0003f
00103
7fe54
7fd41
7fb3f
7f5a8
7f519
7f657
7fd8e
002e2
00776
7ff31
7fa8e
7fa3d
7fe20
0026e
0065d
0047b
005a3
0057a
0026d
7ff48
7ff84
7ffef
7ffd2
7ffc7
0003c
00008
0037d
001ed
0009a
7fe27
7f9b9
7f4d3
7ee47
7e9f1
7ebde
7f0b7
7f74b
7f7eb
7f8c9
7ffb7
0023a
00414
00675
00156
007d0
007cc
00259
7fed9
7fe57
7fe7c
7fe9e
7ff25
7ff33
000ad
00529
003b7
0023e
0012d
7fea3
7fc07
7f306
7ece4
7edeb
7ea2b
7ee2e
7f4ba
7fd70
0048d
00622
0069c
00689
00494
0091f
00883
00341
7fd01
7fdf9
7fe86
7ffc4
7ffc4
7fe82
7ff0b
00678
00699
007c0
006ae
00274
000bc
7fd47
7fe09
7f9d7
7f700
7f66e
7f97a
0024c
00629
007b3
008a1
007b8
006d5
007f8
0030e
0005b
7fd77
7ff88
7ffbf
7ff75
7ffac
7fe08
0012a
006f1
00888
0093c
009c8
004ef
005cf
00692
0026d
7ff57
7fdcb
7fc9f
00106
001d2
00379
00631
0067c
0046a
007af
0045e
7ff30
7fe40
7fdf8
7ff67
7ff60
7ff4d
7fead
7ffe9
7ff85
00374
0083d
0083a
00730
0040e
00453
0016e
7ff6e
7fe0e
000a0
7ffa6
7ff7e
7ff0d
00204
000bd
003f5
0065d
003b3
0016a
7fe91
7fc4e
7fecc
7fe7a
7fdfe
7fe1e
7ff2c
7ff6c
7ff9e
00225
00423
005a2
00506
002dc
00039
00212
00280
0030a
000d7
7fee5
7fed2
7fe53
0014f
00100
000fc
00466
00222
7ff3e
7ff04
7feb7
7fd2c
7fde2
7ff9e
7fff1
7ff69
7fe6a
7feaf
0016a
00485
006d3
00516
0055f
0014d
00370
0022f
7fff7
7fe47
00047
000b3
001b8
00148
002a9
0043b
7ff49
7fd2b
7fd33
7fe86
7fe27
7ffd6
7ff86
7fe3e
7fe65
7febc
00033
00036
00007
002e8
004ae
00583
00681
0069b
0056b
007e6
00857
0088b
006ba
005ef
00463
00430
7ffa3
7fc98
7fb4a
7fbc4
7fd6b
7fd96
7ff49
7fecd
7fff8
7fec6
00039
7ffd0
7fdf9
00028
00054
7ff80
001d3
002bf
00189
003b4
003be
00700
00800
00897
006b9
004c8
001ec
7ff3a
7fcf8
7fcf4
7fd81
7fd86
7fec1
7fec1
7ffdd
7fe7c
00031
7fe04
7ffb9
7fe90
7fdf4
7fe0c
7ff80
7ff87
7fea7
7fe6e
7ff75
7ff80
7ff58
7ff15
7ff3c
7fedd
7ff63
7fedb
7fdca
7fea5
7ff5b
7ff1c
7ff6c
7fe17
7fe1f
7ffb7
7fee8
0000d
7fe88
7ffd7
0003a
7ff06
7fe79
7ff53
7fe15
00019
7ff7a
7ffe7
7ff64
7ffb0
7fe0f
7fe69
7ff95
7fe66
7ffb3
7fece
7ff4c
7fedc
7fff6
7fe2a
7fe7c
7ffdf
7ff56
7fe78
7ff86
7fe31
7fe0a
7ffe3
7ff16
