7fef7
00098
7ffae
7ffd9
000b2
7ffee
7ff58
7ff4d
7ffd7
7ffa7
000c6
7fff0
0005b
7fefe
7fff2
7fe9d
7fed9
7ffb1
7fed0
000c5
7fed7
7ffa1
7fec0
7ffe0
00063
7ffb9
7fff1
7fff6
00070
0008a
0002d
7fec9
7feb9
00011
7fefd
7ffb8
7ff38
7fe92
7ff17
00013
000de
7fecf
7ff5b
00060
7ff03
7fea7
00041
0009a
7fef7
00048
7ff1f
7fee3
7ffc8
00013
7ffa6
000c0
7feb4
7ff34
7ff21
0005e
0001a
7feaa
7ffae
000b7
7ff91
7ff0a
7ff14
7fe6b
7fe51
7ff6b
7fe42
7fdc4
7fe5e
7ff93
7fe9d
7fe37
7ffb1
0008a
00019
7ff03
000ac
7fe94
7ffa8
00053
7feab
7ffb0
000c0
7feb5
7ff12
0009c
0003f
00007
00019
7ffa9
7ff8d
7fe3d
7fd96
7fea2
7fe1d
7fddd
0005b
0002c
7fd9e
7fdf6
7fd15
7fded
7fd80
7fe43
7fecc
00075
00071
7ff50
0002c
7fea6
7ff0d
7feae
7fe82
7ffce
7ff98
7feaa
7ff8d
7ffb6
7fdd6
7fddc
7fde5
7fdfd
7ff74
7ffc9
7fe58
7fe72
7fe65
7fdc3
7ff17
7fd1e
7fee1
7ffd8
7febf
7ff6f
7ff43
7ffe1
0005b
7ff5d
7fff8
7fed1
7ffae
7ff6c
7ff94
7ff1b
7ff98
7fe62
7ff46
0007a
001e4
00415
004ef
004e1
0057d
005e8
0063f
00234
00064
00104
7ff7f
7ffee
7fd55
7fe10
7ffdd
7fef8
7ff77
7ffc0
00025
7ff8f
00005
00011
00027
7fff1
7fea9
7fdba
0013f
7ffce
00362
002ff
002dc
0043e
0052c
00754
006d2
005d1
0059c
00667
003a1
0014c
7fd38
7fd1b
7fe0b
0004b
000ab
0001c
7ffdd
7fe4b
7fd5c
7ffc4
7fef0
00005
7fec3
7ffa3
0003d
0026b
00508
004a1
001e6
002f4
00437
007df
005cb
00512
00212
003fa
0045f
0023c
7fe4e
7fd37
7fd80
7ffd9
000c1
00047
7ffae
7fffd
7fe0f
7fe7f
7fec3
7fe7b
7ff32
7ff28
00263
00283
00149
0008a
000e4
0038a
00a53
00838
007a1
00266
00204
001d9
00487
007e3
7ff22
7fd60
7ffbd
7fe9f
7ffc9
7ffde
0003b
0002c
7fd90
7fe44
7fd83
7fe92
7fe97
7ff47
001b7
7fe89
000da
00296
0024c
001f6
005a8
00789
008aa
00503
00187
7ffb8
003b8
00806
00257
7fe06
00007
7ffc2
7febc
0009f
7feef
7fe10
7fe39
7fe98
7fecf
00028
000d2
7ffcf
7fea3
00071
0008e
7ffad
7fd47
7fb52
7fd31
002b7
006e4
00724
00652
00494
006ca
00949
0046b
7fe2d
7fe2c
7fe9a
7ff0e
7febc
00088
7ff9b
7fc84
7ff42
0008b
002a1
001fa
7ff3e
000b1
00012
0015c
7ff13
7f89e
7f252
7f322
7faf9
7ff54
003a2
005d0
00561
00756
00854
005fd
7fed9
7ffec
7fe85
7ff00
7ffaf
7ff8b
7ff9f
7fe09
00051
002dd
002fe
00173
7ff99
0020e
00175
002b0
7fdcb
7f183
7ee0e
7ee22
7f63b
7fe45
7ff48
000e1
00280
00984
008b4
0060c
00037
7ff0c
7ff09
7fe95
7fff8
00080
7fea4
7ff7b
001c7
00378
0047b
00364
00260
0033e
00285
001d1
7f72e
7f17d
7ed8f
7f0db
7f87b
7fc53
7fb11
7fc3b
001a8
0063e
009cd
00591
000e5
00002
0008a
7ffcc
0006d
7fee9
7ff36
7fe4f
00496
005f4
0073b
00378
0042b
00622
00386
000dc
7f852
7eee3
7ed81
7f149
7f7f3
7fc75
7fbb7
00062
0037d
0042a
009e7
00527
7fef5
7ff7b
7fee3
00094
00052
7ff0f
7ffc8
7ffec
0067a
004b3
00677
00477
005eb
0077c
00210
7fa5d
7f1a4
7ecd2
7edbd
7f3aa
7f9fb
7fdc1
7fdd3
001df
001a5
0064a
00765
003d4
7ff9f
0001c
7fefd
0002b
000b9
7fe89
7ff35
00118
005e0
0074d
005a5
003ec
003f4
006aa
7ff20
7f50e
7ecf7
7ed76
7f14b
7f820
7fc52
7fff4
00135
002c5
0041f
005aa
00568
0020f
0001a
7ff54
7ff18
7ff79
0002e
7fec3
7fd98
00034
0042c
0053c
00517
00196
00416
00675
7ff03
7f2e3
7ed39
7ef78
7f625
7feb5
00283
0039f
00356
00441
0033f
00291
002e9
7ffd8
7ff91
0003a
7fefc
7ff4c
0003a
7ff82
7ff14
7ff7f
002aa
0056d
00322
001ed
00565
00a59
00068
7f7a5
7f286
7f69a
7fd23
00308
0033d
00363
001c4
000e1
00178
002d2
001c2
7ffc9
7ff23
0001b
7ff83
7ff91
7ff65
7ff75
7fda7
00101
002eb
006f9
00656
004f4
00693
00a5f
0074b
0018b
7fca5
7fe89
7ff10
00196
7ff45
7fea7
7ff2e
001a2
0017c
002ea
7ff9d
0006b
7ff5d
7fe7f
00085
00083
000ae
7ff84
7fee3
7ff56
002fe
0059b
00421
0051d
00649
009cc
009c8
004e6
0017f
7fefc
000b4
000aa
7fe92
7feea
7fe7a
000cf
00100
0018b
00089
7ff24
7ffce
7feca
7ff5f
7ff1a
7feab
7ff87
7ff1f
7ff71
000c7
00376
005a2
003f3
00449
00863
0097b
0064a
00261
000e3
0002f
7ffd8
7fd68
7fe05
7fedc
000fd
7ffed
7fed3
7fe1e
7ff8a
7ff62
7ff16
7ff38
7fee2
00011
0001b
7ff57
7fed1
0006f
00284
00230
00652
00523
005aa
006bc
005bf
00762
00333
00346
001ca
7fe7b
7feca
7ffea
7fe4a
7fe35
7ff24
7ff11
7ffab
7ff6d
7ff41
7ff9c
7fee0
7ffb2
7fff8
7fea5
7fe9c
7ff99
7ffd6
001c0
00279
005dc
00702
00893
0087c
00516
00425
0024a
000f8
7ffe8
7fcc6
7fbf3
7fcdd
7fe73
7febe
7ffd6
7ff85
00064
7ff54
7fe97
7ff5f
7ffb9
7fe9c
7fff2
7ff9f
7ffa3
7fe55
7fdc6
7fec3
7fee3
0014c
000fa
0025f
00378
001d5
7fe9b
7fdd6
7fd6b
7fdcd
7fcea
7fd0e
7fd38
7ff74
7ff46
7fed5
7ff24
00012
7fefc
7ff26
000cb
7ff94
000a9
000c1
7fff7
7fe7f
7ff58
7fd12
7fd3a
7fc8e
7fb86
7fae3
7fb58
7fa93
7fb1c
7fb60
7fd38
7fdb2
7fe0d
7fdd7
7fe02
7ff55
000c0
0005e
7ff77
7ff49
7ffba
000a1
00091
7ff6d
00009
7ff37
7ff5e
7fea5
00045
7ff48
7fd8c
7fd8a
7fdc6
7ff1a
7fdc7
7fde4
7ff37
7fdc0
7fe2c
7fea3
7fe49
7ff25
7fdf1
7fe43
000ad
7fef0
00033
0008f
7ffdf
7fed7
00077
7ffcd
7ff60
00098
0001e
00035
7fe94
000b2
000ae
0003c
0007d
7ffaa
7ff29
00077
7fec7
7ff8d
7ff24
7ffcb
7ff3e
7fe8d
7feb3
7fe26
7ff92
0004d
7fed3
7fe86
00064
