00121
000fd
7ffb2
000b2
000a4
00109
7ff9d
00031
00132
7ff83
7ffdb
00085
00182
000fb
7ff63
7ffb7
7ffb0
00098
00117
00015
0001c
7ffec
7ff84
0002b
00139
0005f
7ff71
0009b
00103
000d9
00069
7ffc4
7ff6a
7ff85
7ffe7
00184
7ff6e
0013b
00079
000c2
00098
000dc
00006
7ff55
7ffa9
000f0
7fff6
00044
00130
7ffe9
00035
0001c
000a7
00146
7fffc
00045
00157
00160
0001a
000f0
00123
7fff2
7ffde
00068
00124
7ffd6
7ffa7
000df
00084
00117
7ff5c
00126
7ff96
7ff90
0001b
7ff74
00151
7ffa7
7ff87
00150
0003c
0003b
0004b
00096
001a2
0000e
7ffda
0007c
00083
7ff75
00157
000bc
7ffbc
0015a
0006c
00111
7ffe4
7fec8
7ffe4
7fe26
7ffc6
7ff09
00052
00031
0006a
7ffe6
00110
7ffdd
7ffd8
00176
0008b
000ee
0002e
0004d
00013
7ffaf
7ff7b
000f1
000a7
7ffe1
7ff2c
00051
7fea1
7fe12
7fd4a
7fb15
7f9bd
7f7a1
7f9d1
7f9cc
7fb63
7fdf9
7ff0d
7ff51
0003a
0012a
000ea
000d9
00002
0000b
00121
000cd
000f0
00098
000b8
7ff1c
7ff35
7ff1f
7fd29
7fd37
7fcfe
7fc0a
7fb0a
7fa21
7f70a
7f653
7f3c6
7f7f1
7faec
7fd8a
7fd67
7fc9e
7fcda
7fdc1
7ff1b
7ff96
00023
000cb
00104
0010b
7ff58
0010e
000ac
7fcfa
7fc52
7fbab
7fb1d
7fa02
7fb99
7fe98
0005b
00569
00812
0066c
00480
003bd
004be
7ff33
7fedc
7fc65
7f989
7f9fc
7fc8e
7fe53
7ffbf
0008c
0018f
7fff2
7ff7e
7ff70
7fc8b
7fabf
7f9d0
7f8a3
7f909
7fd8b
7ffcd
001e8
00755
008c1
00c00
00c10
00c8d
005b0
00448
00077
0011d
00142
7fbad
7f842
7fb70
7fedc
7fed5
00106
00183
00186
000c6
7ff89
7fc67
7fa8e
7f9a9
7f723
7fda8
7feea
7febf
7fd7a
7ffcf
00383
00a49
005ad
005c8
0012f
00075
0004e
7fe19
000fd
7fd91
7f9d3
7fac8
7fd80
7fee8
00169
00075
00046
0001a
7fd6e
7fa64
7fbb3
7fec8
7fd89
7fe88
7ff56
002a3
00197
00077
0043f
0071d
00657
7ffc1
7fe2f
00012
7fc37
7fe65
7fc08
7fbc0
7fb77
7fce9
7fea6
7ff05
00141
00045
7fff2
7ff65
7ff04
7fbae
7fdbe
0021b
002c3
0059a
00590
004ca
00736
003a1
000db
000ed
7fc5a
7fdd3
7ff92
0028b
7fff2
0020c
7fec7
7fd7e
7fda2
7fcfe
7ff24
7fedd
000b8
7ffc3
0004a
7ff5a
7ff96
7fed1
003fa
00932
006dd
00ac9
00453
0047c
007b3
7fd8d
7fdeb
7fee0
0008b
002fa
00a6c
004ec
004fe
0082f
005ec
00376
000b7
7ff6f
7fe97
7fff0
00002
000a7
00157
7ff13
7fe86
0035b
008b8
00a17
005fc
0077b
00925
005d7
00012
7fa24
00514
00af8
008ad
0076b
00b58
00b6c
00bdb
00c30
00825
003eb
0001a
7fe30
0004c
000a8
000b6
00182
000ed
7febb
0007a
00513
007a1
00731
004b8
005ed
003ce
00370
7fe38
7fcec
007fb
00af2
007ee
00923
00831
00b3d
00b6f
008f0
00538
0004d
7fc72
7fdee
7ff5b
000ad
000af
0004e
00026
0010a
000a9
00252
00230
005f5
0042b
00207
7fffa
000be
7ffa1
7fdc0
00296
00178
00700
0076c
0076f
00510
00341
0040f
00013
7fbe7
7fa0c
7fd89
00069
0003c
00047
00124
0010a
000b0
7ff2b
0002c
002a6
0028a
001ad
001b6
7fcdc
7fe8a
7fe88
7fdcf
7fe4e
7fdf1
007a5
00b31
00aba
0055f
00085
7fdab
7f9d9
7f854
7fa85
7fd90
0000c
000a0
7ffe9
00150
0001c
7ff0f
7ffc2
00015
000cb
7fdf3
0019f
0049a
7feec
0029c
003b3
7ff7f
7fbca
7ff4c
0043f
007a3
00797
001e5
7fbaf
7f8d7
7f619
7f90d
7fa5a
7fc43
00020
7ff2f
000b5
0006f
7ffb6
7fef9
7fe7f
7fd30
7fc94
7fd2e
00146
0027a
002d2
0044e
00643
003d2
001c6
0026d
0063b
001da
7febd
7fd3f
7f9ad
7f9c2
7f948
7f9ae
7fb59
7fc9c
00057
00059
7ffb4
00136
7ffff
7ff4b
7ffb8
7fd87
7fa52
7fa36
7fa52
7fd9d
000f2
006dc
0058c
7fc9d
7fc90
00036
0041f
7fd79
7fd1e
7fa9a
7fcc0
7fcf4
7fb3f
7faff
7fac3
7fc4b
7ff69
00013
0011c
000c9
00192
00047
7fea4
7fdbb
7fbfb
7f9a5
7f97b
7f940
7f94e
7f881
7f9ab
7f7ce
7fa45
7fb2c
7fa82
7fb42
7fe74
7fc65
7fefe
7fd96
7fd24
7fd4d
7fd9a
7fe7e
0006f
7ff86
0002b
7ffb4
00038
000ab
0000d
7fda6
7fc1e
7fa1d
7f6c8
7f571
7f427
7eff7
7f3ba
7f40a
7fc16
7fa83
7fd6c
7fce8
7ff2b
7fabe
7fe45
7fdea
7fca6
7ff0e
7fe65
00029
00157
000ce
00041
0001c
00000
00156
7fe95
7fe6b
7fc2c
7fa98
7f7a8
7f687
7f595
7f514
7f62d
7f9be
7f9d3
7f9b9
7fc66
7fc19
7fa20
7f8ea
7fcff
7fe53
7ff09
00079
7ffde
0009a
000d2
0000c
00019
00107
00042
0004a
000fb
7ff5e
7fce8
7fb0e
7f945
7fafe
7fac5
7fa4a
7fc24
7fbaa
7fa3b
7fb27
7f934
7f87b
7f8a1
7f9df
7fa8d
7fe81
001d5
00105
00144
00211
0006f
0007c
000c1
00134
000f2
0005b
7ff87
7ff22
7fd57
7fce9
7fbea
7ffb1
7fe59
7fead
7fb0c
7fbf7
7fae8
7fbb2
7f8a6
7f811
7f904
7fba6
7ff93
001b4
003f4
005b3
004c6
0023c
7ffd9
0019a
7ffd0
7ffff
7ff5e
7ffd5
0015a
000f8
00185
0011b
0019b
00244
00139
7ff31
7fd76
7ffd2
7fc1a
7fb12
7facc
7fda4
001b6
002ec
00305
006e5
0076c
00446
0029c
00210
7ff98
000ec
7fff0
00056
00157
00158
7ffdc
00020
0024b
001bc
00502
0057e
00597
004d6
001ec
00516
0048a
00458
00415
007a1
0084b
0091e
00984
00aa0
0078a
002f1
00165
7ffd0
7ffe3
00064
00054
0000f
00138
00054
7ff8e
0013a
001e6
002aa
003b4
00437
00664
00699
00769
008c6
008da
00ad6
00640
00448
0039e
00555
005c2
0042e
002e9
00136
00070
00046
0007c
7ff8b
00044
7ffb5
0008f
7ff7f
0017a
000d9
00078
7ffca
00170
00137
000d5
7ffbb
7ffb3
00049
7ffbc
0004f
000ec
00016
00081
001a4
00176
000d3
00081
7ff98
0019f
000e1
7ffb3
0001d
7ffd6
