7fee4
7ffd8
7ffd7
7fe82
7ff4c
7ff1c
7ffff
7ff0b
7ff9b
00052
7ff9b
7ff91
7fedd
7ffee
7fe7c
7fec0
7fe48
7fe9b
7ffcc
7ff9e
7fe43
7ff57
7ff85
7ff25
7fe5d
7ff62
7ff85
7fef0
7ffe6
7fe2d
7fffd
7fe70
7ffef
7feff
7ff7c
7fef5
7feb1
7ff86
00029
7fe7a
7fef1
7fea5
7fe40
7ffb5
7fed1
7fe9e
7feda
7fec6
7ff9d
7fe69
7fffa
7fe85
00005
7ffe1
7fe95
7ff37
7ff3c
7ffaa
7fef3
7fe43
7fe92
7ff65
7fff1
7ff87
7febe
7ff09
0003d
7fe27
7ffea
7feb3
7fe4e
7fe9f
7fee5
7ff5c
7ff0a
7ff0d
0006d
0000c
0002e
7fea9
7fe42
7ff22
7ffe5
7ff86
7ffac
7ff7f
7fe96
7ffe9
7fe71
7fef8
7fe26
7fecb
7fe48
7fec5
7fd02
7fc2e
7fdd2
7fdf4
7fd7d
7ff2b
7ffa4
7fe07
7fed1
7ffa1
7ffbb
7ff2e
7fdff
7fea8
7fd96
00047
0002c
7fe6c
7fe51
7fef5
0002c
00018
0003c
7fecb
7feb3
7fd4d
7fb72
7f9f3
7f72b
7fa5b
7fa50
7f85f
7fbcc
7fffb
7ff80
0016c
7ff91
7fdd5
7fd2b
7fe80
7fec6
7ff24
7feef
00066
0003a
7ff38
7ff5c
00065
7fea2
7fe6e
7fed7
7fd3e
7fbd5
7fbf9
7fd5c
7ff82
000e4
000f6
7fe92
7fdf5
7fec4
7ff6c
0020b
00216
003f5
00277
00264
00312
005aa
004d1
00361
001de
0012a
0006f
7fe7f
7fe5c
00035
7fe6b
7fdf7
7fb23
7fdd0
7ffbe
7ffd4
001f9
00419
00369
00094
00141
7ff70
7fe0f
7fed3
7ff02
0000b
003e4
0023a
00288
007bb
0094c
00a75
00588
002bb
000ab
7ff25
7ff8a
7ff55
7fdff
7fa59
7f95d
7fbf6
00086
002a5
00532
0050e
0046a
00147
7ff95
7fe97
00019
00230
001fb
00281
0059a
004d7
005ca
00818
00adc
00d42
00992
00179
7ffc6
7ff9f
00059
7fff8
7fd45
7f7dc
7f90a
7faf6
00050
003f0
00128
0021e
0041c
00281
7fd2f
7f9d2
7fc42
7fdb4
00038
000a1
004ab
004ed
00705
00b17
00e83
0135d
00c82
00247
7ffc4
7fe66
7ff10
7fe40
7fc33
7fba2
7fbf7
0007e
7ffb8
0035c
002eb
0032d
0087a
00577
7fdbc
7f88d
7f552
7f606
7fa32
7feab
7fff7
00489
009b2
00e08
01331
0181f
00fd9
002d6
7fee2
7ffa8
7fee4
7fe81
7fecc
7feba
7ff2e
002b5
0050b
007df
008b6
00853
00a13
00861
00670
7fe9f
7fabd
7f737
7f77f
7f732
7f5f6
7f921
7fdde
0012b
00671
00cda
009a9
00349
7fee3
7fe7f
00003
7fec6
7ff32
7fec2
7ffd3
0044d
00540
00797
00703
00522
005a7
0095b
008bd
00024
7fa8f
7f941
7f8bc
7f64d
7f277
7ec5a
7edf6
7f138
7f538
7fc2a
0006c
00115
7ff59
7ff53
7ff72
7ff30
7fede
7ff24
0022d
004ef
00467
0033d
001da
00578
00b51
00a92
00ad6
0011e
7fa81
7f5c7
7f7ba
7fa62
7f7f0
7f6d1
7f0c1
7ee9b
7f0e4
7f5e5
7fd22
00026
7fffe
7ff66
7fe92
7fe7a
7fef0
7ffad
00124
0034e
0026d
002cd
00251
0079d
00882
00654
005e9
7fed0
7f975
7f55a
7fa60
7fe01
7fdb0
7fee6
7fbaf
7f831
7f497
7f768
7fe82
7fe60
7ffc3
7ff6c
7fe74
7ff3c
7fe15
7ff5b
7ff4e
7fff7
7ffa2
00380
00589
006a4
00145
0023f
7ff95
7fb40
7fa87
7f868
7f949
7f9b5
7fcf7
7fd60
7fd9e
7fe8e
7f9bb
7fbc8
7fde3
7ff40
7fe21
7fe53
00042
7fe32
7ff43
7fd52
7fbf9
7fa5d
7fc44
0015c
0063c
002f6
002bb
0025b
7fddf
7f8f2
7f7e3
7f8ae
7f87f
7fab7
7ffbc
7fe34
7fe7c
7fe30
7fdea
7fe89
7fff4
0004a
7fee1
7fefe
7ff58
7ff90
7fe33
7fef4
7fb6b
7f6d3
7f526
7f8a9
7fbf1
7fe64
7fdaf
7fe7d
7fb00
7f65e
7f82e
7fa51
7fdf4
7fe13
00050
00195
00040
001b8
00064
00045
0003e
7feec
7ff01
7fece
7ffec
7ffff
00022
7fed6
00056
000ac
7f8d6
7f309
7f3de
7f74f
7fac6
7f7d4
7f574
7f5bf
7fb54
7fdf3
0031a
004bd
00319
00320
000e8
0001a
001ba
001c1
7fe85
7fff1
0000a
0002d
7febe
7ff34
7fefa
00291
00364
0080d
0016a
7f83f
7f4b8
7f127
7f2bd
7f67d
7fa92
7fd4a
7fedd
7ffcc
003a4
001d4
0033f
0022f
0032a
0029c
0039b
001e0
00024
7fea1
7ff8f
00002
7febb
7ff52
00046
003e5
006a6
008f4
00607
003d1
0013d
7fd26
7fcf5
00042
003a6
0015d
001f0
001f7
7ff61
00169
00161
0004b
0025d
00410
002f8
0003f
7fff3
7fffd
7fe68
7ffeb
7fe24
7ff1d
7fe9c
00086
00460
00514
00630
008ac
00753
0066f
00961
005d7
00461
7fec4
7fede
0033a
001a7
002b2
00391
00320
00274
005de
00463
7ff6e
7fe2d
7ff5b
7fed8
7fead
0000b
7fe10
7ff46
001ba
7ff73
00217
005a9
0082c
00558
00489
00272
0032a
001f7
0020c
0027f
000a6
00203
00107
0033d
0032e
00556
00690
0016b
0000e
7fe71
7fedd
7fede
7ff9e
7fe3a
7ff14
7fedd
0009f
7ff20
7fe16
7ffa9
0032d
004a5
000ce
0041d
006a6
00836
0042e
000a1
00076
00106
00227
00224
003ab
00350
00376
00138
7ffd2
00032
7ff55
7ff8d
7fe8a
7ff49
7ff96
7ff6e
7fe9d
7ff16
7fd38
7febc
00284
00277
00275
00462
00435
002e1
0034f
00308
002f7
0015d
7fe6f
7ffc8
00174
00097
001f2
7fec8
00054
7ff01
7fefb
0004e
7ffdc
7ff0b
7fee6
00057
7fe19
7fdfb
7ff46
7ffa2
7ffe3
00341
00439
00340
0021d
002f0
0056c
0047c
002ad
0014d
0027c
0019c
7ffe8
7ffc5
7ff69
0001a
7feb1
7ff88
00032
7fe66
7ff48
00011
00030
7fe52
7fffd
7ff7b
7fe01
7ff43
7fe35
0010f
000ca
00233
00230
003d6
00036
00124
000f7
001e1
7febe
7fff2
7fde7
0002e
7ff38
7fe98
7ffd5
00018
7fe37
7ff0e
7ff71
7ff62
7feb0
7ff01
7fee5
7ff18
7ffac
7feb3
7fe48
7ff1b
7fed3
7ffc7
00009
7ff8d
7febf
7ff5c
7ffb7
7feb1
7fd79
7fdf4
7ff91
7ff8f
7fed9
7ffaa
7ff24
7ff6a
7fef0
7fe36
7ff9b
7ffc2
7ffd5
7ff7f
7fe79
7ffe8
7fef9
7fee0
0005f
7feed
7fec7
7ffdb
7ff57
7fe20
0000a
7ff6c
7fe4d
7fe1d
7fe97
7fe16
7fff9
7fef2
0005a
7fe5f
7ff83
7ff2f
7fe7f
7ffc4
