1ff991
000027
1ffccc
1ffab1
1ffcb5
1ffb0d
1ffdd5
1ffe2c
1ff964
1ffd50
1ff9dd
1ffbec
00013b
000114
1ff9bc
1ffdbd
1ffa2e
1ffa41
0001ab
00007a
1ffb3a
1ffdf4
1ffbc4
1ff8ff
1ff992
1ffd93
1fffaf
1ffe3c
1ffd46
1ffcd6
00018e
1ffe67
1ff9e6
1ff9b3
1ff974
1ffb0a
1ffb1c
1ffdb7
000011
1ffa21
1ffc3e
1ff9eb
1ffdd7
1ff900
1ffe25
1ffa24
1ffc0f
1ffa93
1ffdc8
1ffa4a
1ff950
1ff8ad
00005c
1ffe61
000078
1ffb97
1ffce0
1ff91c
1ff9c1
1ffff2
1ff95a
1ff9e9
1ffc8c
1ffd93
1fff5a
1ffc39
00039e
0002fc
00093e
00075f
0006bd
0002ad
000913
000318
0002a0
1ffb66
1fffdf
1ffddd
1ff69c
1ffcb1
1fff01
000243
1ffd4e
1ffc32
1ffb6c
1ffacd
1ffe83
1ffb3a
00014d
1ffa34
1ffde3
000001
0001a7
000eb8
001709
0016e1
0015e5
002036
001193
0007cc
000ecf
0006ca
1ff998
1ffe6a
1ff8b8
1ff779
1ff593
1ffad4
0000c3
000274
1ffa3d
1ffed7
1ffaf5
1ffc7f
0001c3
1ff879
1ff95c
1ffde3
000369
00034b
00097c
001c35
001c7e
0023ce
001e41
001800
0015ce
0009a2
000ce4
000bea
1ffc6e
1ff9fc
1ffb5b
1ff1d7
1feedc
1fef88
1ffde3
1ffde2
1ff91c
1ffeb3
000098
1ffdc4
1ffa91
1ff8bd
1ffa0a
1ffae0
000328
000dc9
00131d
0020b8
00243e
0025cd
0022a0
0026d3
0023f0
002157
002429
001d41
001522
1ff713
1ff761
1ff1eb
1ff1b0
1fe9ce
1ff66c
1ffa8e
0000e2
1ffbc3
1ffd1d
1ffad4
00012b
1ffd38
1ffc5b
00024f
000d7a
001a18
0013f2
0016a4
001ea7
00132b
00145f
001a4e
00173d
000ca4
000dfe
00039e
0002ab
1ff7c9
1ffa8a
1fee16
1fee39
1fe733
1ff13a
1ff7b9
00010d
1fff29
1ffc2c
0000c3
0000d6
1ffc82
00005a
00073f
00115e
001924
001492
001332
000756
0008ab
00017b
000d79
00109a
00037a
00023a
1feaf8
1ff8df
1ffa11
1ff944
1ff81f
1ffa20
1feb98
1ff1dd
1ffbaf
1ffa8f
1ff95e
1ffe7b
0000ff
1ffd2d
0000ea
0003cb
000bc2
000881
000c01
000c28
000d86
000d97
000f82
000938
000b04
001d0f
001056
1ffdfc
1ff806
1fffcb
000673
000027
1ffb8c
1ff428
1fe82f
1fedba
1ff863
1ffc70
1ffa27
1ffafa
1ffec5
1fffba
00030c
0005e9
000d2b
00049d
0000e4
1ffb73
000716
000581
00071b
0001d8
1fff43
0012f6
001481
000712
00008a
1ffe19
1fffd4
1fff24
1fff8b
1ff87a
1febbf
1feeb7
1ffa60
0000e5
1ff979
000146
1ffe85
1ffd01
1ffbc0
0000e6
1ffcc9
1ff96b
1fe009
1fe367
1fea65
1fdef9
1fdb60
1fd563
1fd025
1febe8
0003a5
00052c
0000de
0002a9
1ffc1d
1ffd2b
1ffc19
1ff5f8
1fe8b5
1ff334
1fff75
1fff6a
1ffa9e
1ff957
0001a4
1fff52
1ff9e2
1ff404
1fe5cf
1fd30e
1fc0a1
1fc31f
1fb84e
1fb819
1fbe5e
1fba55
1fab1c
1fbeb3
1fe0c4
1ff52c
1ff6b0
1ff70d
1ffe36
1ffa9f
1ffa64
1ff12a
1ff5d9
1ffe28
1ffc7e
1ffa72
1ffe75
1ffdb2
1ffe18
0000aa
1ffd35
1ff319
1fd901
1fb423
1fa32d
1fa96c
1fadf2
1fb505
1fb9d6
1fba09
1fb734
1fc435
1fd81f
1fe4a3
1fe76c
1ff39d
00000e
1fffc3
1ff90e
1ff036
1fe7fc
1ffd13
1ffc06
0001c9
1ffe18
1ffb2c
1ffcd6
0001aa
1ffb02
1feb1e
1fced3
1fb1f5
1fb85d
1fbd23
1fd20b
1fdf6e
1ff0c0
1fe7e0
1ff507
1fe473
1fe3e3
1fdea8
1fe7ee
1ff2bd
1ffd76
1ffc1c
1ff774
1fec26
1fedee
1ff6dc
00024b
1ffcf2
1fffcc
00010b
1ffe57
00002c
1ffbcc
1ff801
1fdec9
1fd5fa
1fddbe
1ff242
1ffda1
000891
000b56
000d73
0014ee
00016d
1ff299
1ff60b
1feebf
1ffd19
1ff4e7
1ffc7e
1ff337
1fe905
1fef4b
1ffcbb
000822
00093b
1ffadf
1ffc68
1ffd29
1ffc4b
000797
0003ad
0001a9
0008fc
000a86
00138e
000dd2
001092
0009be
0008a0
001439
000181
0007f0
000122
1feff6
1ff0be
1ff6a4
1ff92d
1ff5ae
1feb2e
1ff54a
000667
000ae9
0005e5
1ffa2a
1ffb8c
1ff915
1ff828
000813
0010f1
001ba7
001c2c
0010c4
0006f4
000e76
000d6e
000c44
001945
001641
0004ab
1ffd57
1fffe6
1ff596
1ff6e4
1ff006
1ffa52
0000dd
000384
00076c
001799
001d3a
0004e5
1ffb6e
1ffc39
000155
1ffd0e
0009ca
001ced
00284e
0024d5
00193d
001190
00154c
0020bf
001ad7
001ec8
000e67
00076b
000a01
000a1b
1ffe70
00068e
1ffbd2
000c17
000ce6
000995
000d49
0025cf
0020cb
00077c
0000fe
1fff26
1fff8a
1ff60b
0002a2
001f5a
0034fa
0031d5
0023df
0017ed
001a99
0028a6
0024ba
003a81
002ab4
00254b
001226
000c7d
0016f1
000ecd
000a14
001b11
001bf5
001e79
002843
0031f7
001cd0
1ffd3c
1ffa10
1ffaf1
1ffb46
1ff90c
1fffe2
00113a
00202e
0028a4
00233d
002088
00226f
0020f5
002300
00272c
001e22
001384
000941
000e5f
0018f6
000c0f
000bc8
00141c
001917
0020c4
002325
001e4a
000fdd
000157
00005e
1ff9b9
1fff82
1ffe53
1ff760
000f4a
0012e2
001d50
0028c4
0026b9
0019a7
0018ab
002949
0016f5
000799
000518
000641
000818
00005e
0011da
001be0
0012ea
001ae7
002577
002081
001765
000b18
1fffdc
1ffef8
1ffd8a
1ffa02
1ffeed
1ffc8d
000332
00081f
001455
0016d8
001423
001922
00163c
0015d5
000892
000415
1ffdc9
0000f2
000adc
000be6
001a11
001b6c
000c07
001ae3
002137
0025d6
0012a5
000765
0001b5
1fff2b
1ff9ad
1ffe4e
1ffa8d
0001cb
000665
00024f
000dd7
000c24
000b51
000fe5
000fc9
0012b6
000207
1ff138
1fed64
1ff576
1ff613
0007b6
00183b
001eef
001c20
001ae9
00175e
0019c5
000993
1ffef1
1ffe5d
1ffb83
1ffe77
1ffea8
1ffd36
1ffcc0
1ffc60
1ff8cd
1ff72a
1ff854
1ff36a
1ff89e
1ffb11
00065d
000096
1ff618
1ff298
1fee80
1fed00
1ff61a
0003e1
001837
001532
0019f5
0012a0
00071e
00044e
0002bf
1fff65
1ffcab
1ffd9f
1ffb17
1fffc2
1fff2a
1ffacd
1ff272
1fe5d0
1fec6c
1febd9
1fea7e
1feaa9
1fefa8
1fef87
1ff70e
1ff453
1fef5c
1ff034
1ff39d
1ff0db
1ff7d2
1ff8c4
1ff8cf
1ffbcb
1ffcac
1fff80
0002b3
1ffa59
1ffa82
1fffc4
1ff8ec
1ffc66
1ffbac
1ffa6a
1ff673
1ff34a
1feca6
1fea85
1fec14
1fedf6
1fe908
1ff09d
1ff192
1fecdb
1ff03a
1ff44b
1ff506
1ffbce
1ff5f6
1ffc65
1ffc1f
1fffd5
1ffa96
1ffdf8
1ffab5
1ff920
1ffacd
1ff95f
1ffbd0
1ffcf5
000050
1ffeea
1ffcae
1ffeab
1fffc4
1ffc8a
000066
1fffe0
00003a
0000a3
1ffdf8
1ffb69
1ff87d
1ffc0d
1ffde8
1ffd80
1ffaa5
0000b2
1fffdf
1ffab3
1ffbd2
1ff947
00004e
000037
1fffa4
1fff6f
1ffb1d
1ff9e9
1ffd96
1ff930
000169
000146
1ffc09
1fff95
1ffaa3
0000ef
1ff904
1fffa1
1ffc9f
1ffe6e
1ffa10
1ffd8d
1ffc5a
1ffdea
1ffd65
1fff39
1ff8bf
1ffce1
00003d
1ff8bd
1ffd40
1ffef6
1ffc1d
