1ffffe
000120
00078f
00078d
000023
000025
0005eb
00019e
000080
00011e
000038
00056f
000727
000412
000542
000095
0004ec
0006c0
00016c
000573
000068
00033d
000748
0000ba
000747
000127
0007f6
000347
000215
0003b9
1ffff0
0000a0
0003a4
0008c8
0001d1
1ffe98
0004e0
00002d
000346
1ffd71
000241
1ffc7b
000030
0004d3
0005af
0001ac
000017
00016e
00061e
1fffdb
1fffcc
000080
00056a
0005bb
00015b
0005b7
00068e
000443
000678
0006a2
000649
00059b
000772
1ffd9e
1ffd6f
00015b
1fff20
1ffb96
1feeec
1ff91a
1ff7bc
1ff44c
1ff77b
1ffe53
000222
000602
0007ce
000480
00075a
0001fb
0002c9
0004f9
00004f
000376
00069d
0005f1
00024b
0003bd
0003e0
00000d
0004f6
1ffb9a
1ff993
1ffc7f
1ff151
1feea0
1fe447
1fe58d
1fe6d1
1fe170
1feb99
1ff5cf
00017f
000345
0005eb
0008b8
000248
000254
00087c
000827
000285
0004c8
00083e
000578
000629
0005f9
00038e
0006c1
1ffaef
1ffedf
1ff5aa
1ff742
1fe725
1fe85a
1fdfa9
1fe524
1fdf06
1fe3c6
1ff249
1ff3cf
1ff8b5
000704
0009aa
000b0a
000a82
000df0
0003dd
0007d5
0001fe
000149
000863
000259
0005ec
0001f0
00056d
000118
0003d7
1ffb57
000140
1ffa9e
1fedd2
1ff3f5
1feb58
1fe65d
1fee12
1ff134
1ffd86
000245
1ffc74
0005f8
000753
0009e5
00170f
001a04
000e27
1ffe9d
000253
000167
0007c8
00089b
000290
0006c4
00075d
00060d
0005ff
1fff86
1ffea5
1ff8dc
1ff194
1fe6a0
1fd98e
1fd28d
1fd089
1fd6cc
1fd5c8
1fe740
1fe66c
1ff47f
1ff86e
1fff6c
002101
0022ad
000d57
000a75
000779
000052
0003ae
0001ed
0002a6
0004af
0002af
000644
1ffc20
1fff4b
1ffbb5
1ff642
1fe760
1fd99a
1fce1f
1fdcc0
1fd3eb
1fd397
1fd254
1fe2e1
1fe22c
1feb3c
1fe7ff
1ff50d
001463
001b96
000eb8
00084b
0007c6
00049e
00077e
00064a
000846
00019a
00027e
000369
00024b
1ffe02
1fed6f
1ff68f
1ff3aa
1fe730
1fdba9
1fe8c5
1fcb57
1fc9e8
1fd5f4
1fe5aa
1fe85d
1ff88f
1ff193
1ff1d2
000965
000e75
000b07
000231
0002f9
000567
0008e8
00077e
0006ff
000178
1ffb5b
000023
1ff48c
1ff7c8
1ffaaa
1ffe3f
1ff9a5
1ff85b
1ff81f
1feb0b
1fb418
1fc736
1ff23a
1ff5d2
1ffcdb
0001af
1ff806
1ff835
0003ee
0000e5
1ff6f6
1ff699
1ffbec
000604
0004c0
00035d
000366
0000ee
000388
1ff5c8
1fef19
1ff7cb
000272
0015a1
000d18
0009ca
000bb8
1fe2f9
1fafd8
1fe791
0002cc
1ffc66
1ffd42
0002d6
1ff000
1ff56e
1ffe01
1fee95
1ff622
1ff9be
0004fd
00083e
00058c
0005c9
0004e2
1ffcf1
1ffedf
1ffa4a
1ff9f4
00051f
00105e
001b94
002603
00182e
001b4b
1fd389
1fc3a4
0007d6
001f37
000542
1ffe31
1ffafe
1feeed
1ff167
1ff88f
1ff27f
1ff0fe
1fff28
1fff7e
000211
000632
00056e
000294
0003b8
1fff9f
1ffa6b
00100e
001a76
0028fd
0023ea
003bbd
0043af
003ffa
1ffef0
1fe02d
00190a
0028a9
00049f
0001b6
00058e
1fff06
000133
1ffe2f
1ff709
1ff7fc
1ffdbe
0008d5
00051c
0000f7
0005d1
0000ce
000270
0006dd
00135e
002769
002dba
003492
002bec
003341
005386
003f51
0000f4
1ff703
001d56
001e22
002179
001715
000a63
00171e
001103
00081c
1ffb47
1ffbda
000078
000718
000514
0000e7
000741
000095
000888
001125
002284
002ffa
003482
00273a
00257e
002d2e
0036c1
0027dd
00034e
1ffa32
000a99
00218f
003727
002575
00226e
001338
000cec
000434
000260
1ffea3
00024d
000452
00020a
0005fc
000897
000584
00071a
000f80
001194
001b52
001929
00287b
0022c7
001834
001193
0014c3
00041a
0010a8
00174d
00305e
002af9
001eb8
001233
1ffb1a
0006c1
000c36
000149
1ff8a6
0003df
0000fd
000270
0002a8
00000d
000051
1ffef0
000436
000a60
0010e7
001d85
002af8
001e9d
000833
1ffee3
00086a
000a80
002770
003688
00382a
002ea9
001f95
0003f5
000d3f
0012d0
000466
1ffce6
1fff25
0001d5
000364
00038f
000328
000339
00066e
1fffe5
1ffb7d
1ff6b8
00057d
001769
002d26
002723
000e2d
000b28
001027
0026b9
003ffa
0032a1
002a5b
000d16
000206
1ff1d4
00043f
00018d
1ff756
1ffc45
1ffa5b
1ffcc5
0005b2
0006f7
00037d
000558
0004ad
0000b2
1ffa8c
1ff487
1ff2ae
1fffbe
000b8d
0002a4
1ff698
1ffa70
000ec4
0010a5
001c1e
00180e
000c91
1fec8b
1fed92
1fe4f8
1feff7
1fef5f
1fe9d9
1feed5
1ffb86
1ffda1
00020f
000049
000360
000640
000261
00016d
1ff3a0
1ff0a1
1febb0
1fe17c
1fdd95
1fdb52
1fd4b8
1fd69a
1fdb58
1fea84
1ff99e
000594
1fef55
1ff1a7
1fee54
1fe79e
1fe4be
1fe6e5
1fe67c
1feebf
1ffb73
00036b
00060b
000586
0008ff
000853
000268
00016e
1ff5f6
1feed3
1fe70b
1fd762
1fcfb9
1fccd8
1fcbe8
1fd9dc
1fe129
1fdd86
1fea56
1ff4b6
1ffc1a
1ffdd2
1ff70b
1fec97
1ff2f3
1ff13c
1fee2d
1ff6dc
1ff73a
0000a5
00021e
000604
0001a9
00029f
0000af
000132
1fffe6
1ff637
1fe769
1fdd8d
1fe0fd
1fdcbd
1fe14d
1fe934
1fed0a
1fee70
1febe2
1ff6b2
1ff397
00023c
1ffc4c
0000ac
1ffe63
1ff3ed
1ff5c5
1ffe1d
1fffac
0003b9
0004ff
0004d1
000455
000509
000201
000584
1ffeb3
1ffac8
1ff5da
1fef3f
1fe95d
1ff241
1ff1d5
1ff62c
1ff5a3
1ff71b
1ff4e4
1ff92c
1ff973
00025c
000a0a
001061
000c92
00083e
1ffa8c
1ffaa4
1fffcc
000398
000093
0002c2
0002cf
000031
00027c
0004e9
0002c6
000368
1ffa99
1ff9fd
1ff7de
0003ca
1ff740
00016a
1ff6f4
1ff8e4
1ff90e
1fff7d
000250
00061d
0012d8
001263
000fac
0006fb
1ffd69
00021f
000428
0005b0
0001db
000715
00055a
0007a6
00039f
000610
00016d
0004a4
0001c4
1ff763
1ff734
1ffd33
1ff6ac
1ffe7a
1ff94b
1ff9d2
1ff4a0
1ff33d
1ffa7e
1ffd24
000100
0009e8
00073c
1ffd0a
1fff26
0003d3
00064c
000101
0001a2
000574
000802
0007c4
000718
000197
000723
000057
1ffae6
1ff7b2
1ff381
1ff2db
1fea6b
1fe7a8
1fe903
1fe922
1fec91
1feb6e
1fe562
1fe1a9
1fe4c2
1ff111
1ff258
1ffb12
00004e
000539
000064
000742
0002e7
0002a3
0003bf
000566
000138
000399
1fffa3
1ffec3
00022b
000190
1ffe5b
1ff871
1fedc7
1ff01a
1fedd0
1fe74c
1fe503
1feafe
1fe813
1febaf
1fef53
1ff610
1ffc5d
000562
000555
0000ad
000380
000093
000896
0003c2
000535
0000c4
000128
000841
000318
0006df
00032b
00086a
1ffffc
0003a1
0001dc
1ffed4
1fff24
00004f
1ffc80
0006ad
1ffe4a
1ffe0b
1fff56
000384
0002b3
0002af
0002da
0004df
0004a9
000629
00046a
0002ee
