000060
000082
0003cb
000177
000630
1ffd40
1ffe2a
000202
0004c2
0004a9
1ffd5e
00013e
000158
1fff4c
0004fb
000155
000019
1fffd3
000087
0001b9
000333
00060f
1ffe60
000475
1fff62
000332
1fffbd
1ffffb
0005b4
1ffec8
000148
0005a0
000229
000035
000595
0001c2
000089
1fff0d
1fff41
1ffd11
0004ce
1fffa7
0005c3
1ffe7f
00027f
000455
0004e0
0003e3
000021
0003d5
1fffe3
000613
0004af
1ffe50
1ffe59
00027b
000567
000553
000430
1fff39
0004db
1ffdb0
1ffe1b
0003cd
000334
1ffe1f
1fff95
00025d
1fff58
1ffec2
00017c
0004e4
0003f2
0000bb
0001ef
000586
0004b0
00056d
1ffd45
00043b
00019a
0003bd
000337
0004c3
1fff91
000052
0004f3
1fff3f
00008e
1fffaa
1ffe2d
000338
000006
000338
1ffd5b
0000a8
000297
1ffc6e
0002f0
1ffd94
1ffac1
1ffbb5
1ffc51
1ffd85
1fff62
1ffdba
0001fd
1fffbf
000267
000619
1ffdff
000285
0005e9
1ffdd9
00034c
1ffd7d
000161
1ffedd
000043
1ffd93
0001d7
1fff23
1ffa36
1ff4d7
1ff447
1ff4d0
1ff2aa
1fea0a
1ff30a
1ff63d
1ff784
1ffdb5
1ff9ab
0002f4
000073
1ffced
000599
1fffcd
00057d
000552
00050a
000033
0004dc
1ffead
1ffc33
1fff59
1ffd16
1ffeef
1ffc8d
1ff7fd
1fec53
1fe7da
1fe19b
1fdc64
1fd392
1fd3e7
1fd1c2
1fd734
1fdd6e
1fe5b2
1fed50
1ff955
1ff5b1
1ffeb6
000483
000399
1fff14
000034
000430
0005bc
000067
0000ee
000635
000764
0008a6
000d06
001351
000f79
001077
0002f6
1ff2cb
1fe449
1fe314
1ff0fa
1ff6e1
1ff52c
1ff2e0
1ff0d0
1fe902
1ff760
1fefe2
1ff445
1ff826
1ffd5e
1ffd47
0000a2
0003d1
0005c8
0004c2
000b41
000da5
000c45
0011c5
001b2a
002535
001d7a
001456
001667
0017dd
000496
000363
00088b
00192f
001bff
0012f9
000f36
0003b6
1ffbca
0001fa
1ffb76
1ffbc2
1fffc6
000300
1ffedf
1ffd14
000610
000257
000981
00133e
00115b
00173d
0029b7
001c14
001358
00189c
0020f6
001f54
000fc3
000936
000cc9
001637
002226
001767
00140c
001000
000060
0009b3
00083b
1ffa21
1ffd32
00033f
0004fe
000293
0004d3
00067b
000db4
0012dc
00156b
0007db
000a73
000bd9
0007d5
001333
001786
001dfe
001866
0022f4
002b07
0027a3
002c3c
001ce1
001d69
0018bb
0014a1
0009c4
1ffc73
1ff9ff
1ffd0f
00029c
1ffeaa
0000ff
000543
0005d6
001109
001384
00103a
0002fe
0004e1
1ff970
1fffc0
000be8
0014f7
000e96
0021f2
002bad
0035a4
003d14
002d44
0023a6
002515
00208e
001bae
000c3d
1ffb02
1ff7bd
1ffca6
0000a1
1ffebf
0004a1
000340
0005e7
001173
001507
000a6d
0003ca
000366
0000f9
000ca0
000683
000837
000d92
000d73
000dfc
00290d
00354f
002387
0023e1
001b96
001acd
0010dc
000c2c
1ffbc5
1ff3b0
1fffa8
00012d
000565
000420
1fffb4
0002f0
000afe
000c57
000208
0002c2
000bbe
00080d
1fff88
1ff666
1fe671
1fc9f8
1fac5e
1fc167
00015c
00235b
002017
000ca0
000489
0000d9
1ffb60
1ffbce
1ff870
1ffa8d
00051a
000395
00000b
000478
0002a1
0004d1
0009f9
0003b7
000198
1ffcba
000226
1ffe7e
1ff7cf
1fe52e
1fc775
1f9cbb
1f911e
1fc4ab
1ff838
00120c
000ba4
000285
00054b
1ff521
1ff217
1ffcbc
000107
1ffd5c
1ffde3
0002d3
1ffd42
1ffecd
000262
0008ed
000b1e
00070c
00082f
1ffd4a
1ffa4c
1ff36b
1fe286
1fd4ac
1fbcf9
1faa15
1fb787
1fe56e
00009e
000586
000b72
0020d7
00234c
00153d
000d90
000da5
000bd5
000400
000130
1ffe1c
1ffe49
0002e1
00043f
00018f
000436
000433
1ff41b
1ffab3
1ff8a1
1fe05d
1fd99d
1fccf8
1fc586
1fc04e
1fd10f
1fe495
0000d6
0002fe
002caa
00344b
002b18
002645
0020ec
001547
00099c
1fff9a
1ffd58
0000b6
000494
0002da
0005ab
1fff88
0005f3
0004ae
1ffaac
1ff879
1ffeeb
1fe688
1fe341
1fd1b7
1fc8f9
1fdd81
1fecb4
1fe407
000e64
001169
0025ca
002060
0021ec
001afe
00148e
00040e
1ff78b
1ffac0
1ffd04
000336
000597
00002e
0000b8
00036f
1fffc4
000121
1ffc9a
1feed6
1fe962
1fe39d
1fe892
1fe0f1
1fe8f4
1ff8a3
0005c0
000343
0005ba
1ffc9b
000915
000819
0005c1
00030d
1ffb4b
1ff58f
1ffb4c
1ffbea
1ffccb
1ffe47
1ffe73
1ffe6d
1fff7d
0003e3
000133
1ff90d
1fef77
1fe4af
1fddfc
1fe06d
1fe271
1fda07
1ff2f0
1ffc0e
000077
000aae
1ff4b9
1ff226
1ff859
1fee8f
1ff54c
1fee09
1fe467
1febcf
1ff340
1ff5f9
00010a
1ffee6
00003c
000569
0005cb
00054e
0002a5
1ffb4f
1fea81
1fdd96
1fdb14
1fda17
1fd9db
1fe62b
1fed68
1ff4e0
0004d3
000f1c
1ff039
1ff09c
1fec91
1fe11b
1fe2bc
1fdbf4
1fdeb8
1fe6aa
1fee8c
1ff727
1ffcb8
00058d
1ffd7c
1ffd1d
1ffeb1
000247
1fff12
1ffa90
1fef69
1fdd54
1fdbd5
1fdde2
1fdeae
1fe8c5
1fe808
0001bc
000261
000805
1feadb
1fe593
1fdd7b
1fd05a
1fe1ad
1fd63c
1fe026
1fe8f5
1ff634
1ff975
0004f1
0004b2
000330
000474
0004aa
00010c
1ff9e7
1ffce8
1ff138
1feeac
1fe705
1fe97e
1ff29e
1fecf4
1ff079
1ff90f
0000f1
1ffbd5
1ff1c0
1fef9b
1fddf2
1fde15
1fde03
1fdc34
1fe1b2
1fee32
1ff289
1fff69
000213
00047e
1fff08
000184
00005a
000131
1ffc3f
1ffe4c
000233
1ffa95
0002b0
000448
1ff928
1ff2f9
1fe9c6
1feb3a
1ff79f
00027d
000274
1ff315
1ff001
1fe4bf
1fe4c1
1fe14b
1fe51f
1ff25a
1ffb63
0002f9
1ffd19
00016c
000017
000219
00043f
1ffcb9
1ffd04
0005a2
000789
001065
0015dd
000a71
000214
1ff991
1ff123
1ff3d8
0000d7
000884
0007d9
1ffcba
1ffb26
1fee90
1fe7aa
1fe71a
1fec90
1feff7
1ff58c
1ffb62
000058
00004e
1ffe48
1ffff5
1fff6d
00018f
0003a7
0007d3
0011fe
001b3c
001eb0
001a11
000d71
001cf6
001119
000ed6
0014e5
000cdd
00128f
000afe
000893
1fff73
1ff800
1ff780
1ff5ae
1ff459
1ff564
00019f
1fff2a
1ffd3a
00032e
1ffd2a
000297
0004b2
000465
00028d
0008f8
000d47
001486
001fba
001ef8
0024a9
00221e
001e67
001815
001899
001a11
0015d8
00146a
001074
0005a6
1ff911
0000f0
1ffc93
1ffd7c
1fff33
000192
000637
000409
1ffdcc
000131
0005e0
1fff00
1ffe01
00057d
000065
000504
0004c9
0000ab
0006e6
000a2b
0002ef
0008ba
0012b8
00171d
00123b
00175c
000d50
00064a
000035
00026b
1fff5a
000159
000045
1ffe6e
1fffa1
1fff37
1ffd1a
00025e
00019c
0002f3
000402
000265
000109
00006e
000692
000408
000130
000412
0001f9
000799
000488
000375
000a8f
000394
00032b
000754
0000df
1ffec3
0005fb
000347
000185
1ffee8
1ffd8e
0003fb
