1ffd7b
1ff9c5
1fffb1
000048
0000a1
1fff74
1ffda2
0000a6
1ffaf8
000065
00006d
1ffbb6
1ffb9c
1ffb80
1ffbd7
1ffc62
000016
000047
1ff9c9
0000a2
1ffdfb
1ffe40
1ff7d6
1fff8d
1fffb2
1ff853
1ffc39
000039
1ff994
1ffbf9
1ff9ae
1ffdcd
1ff8c1
1ffc88
0000d5
000076
1ff847
1ff7ed
1ff8be
1ffd9e
1ffe47
1ffc4f
1ffbb0
1ffa31
0000cc
1ff9cc
1ffea0
1ffb45
1ffb5e
1ff87e
1ffcdf
1fff41
1ff939
1fff9b
1ffd52
1ff948
1ffa59
1ffcd5
1ffc9d
1ff9ce
1ffe06
1ffeac
1ffab8
1ffe91
1fff4d
1ffc4f
1ff919
1ff948
1ff870
1ff971
1ffbd9
1ffb40
1ffaa1
1ffa6f
1ffe92
1fffd6
1ffc25
1ff9a4
0000b3
1fff7b
000005
1ffb0a
1ff828
1ffc5a
0000de
1ffe81
1ffc73
1fff0c
1ffe69
000008
1ffda8
1fff8f
1fff18
1ffd02
0002c7
000943
00138e
00103f
00108f
001248
000cad
000e4b
000b2a
0000d6
1ffee3
1ff25c
1ff81d
1fff52
000062
1ffa03
1ffd47
1ffac0
1ffd31
1fff8b
1ffde0
00003d
0002f9
1ffff9
000b7d
0009b2
001a71
0016b8
001c2b
0021e3
002750
002a22
0025e1
001bc6
000fa9
000c88
00147b
000284
1ff1fa
1fea21
1fed4f
1fedb6
1ffdc7
1ffcac
1ffb3b
1ffec0
1ff91b
1ff81b
1ffa1a
1ffa1c
00017a
000bf2
0015d6
001172
0013f9
00119f
000ff3
0014c4
001515
00194b
000453
0010d9
001374
1ffe81
1ffef6
1ff72e
1ff3bd
1fe5f9
1fdeb7
1fe3d4
1ff7d6
000009
1ffa62
1ffc8d
1ff9d0
1ffb24
1ffa9c
000284
000ecb
001b80
001508
00101e
001868
0013e9
0011b2
0010ee
0016a5
00207c
001695
000828
00157d
0013b3
0012c1
1ff79d
000800
1ff812
1fe36f
1fe36f
1fee81
1ffc7b
1fff39
1ffd40
000056
1fff09
0001ae
000c58
002078
00204d
0016c2
000666
0006dc
000e78
000470
000698
00130c
001209
001de4
001190
000562
000f00
000c6f
000d83
000db1
0001f0
1ff235
1fdff2
1fe903
1ff9f7
1ff824
1ffbce
1ffcf4
1ffb4b
00015d
000b87
001ac4
00196e
00131d
0007ce
000cf2
00062c
00105a
00053f
000477
0007ff
002080
001af6
000638
000efc
001589
000e09
001489
000a93
1ffa81
1fe24b
1fe9c1
1ff7e2
1ff919
1ffb09
1ffc1a
1ff85e
1ffd90
0004f8
000dd5
00125a
000f32
0003b1
1ffe13
1ff1d3
1fe4fa
1fce61
1fd7bd
1ffaa3
0026b5
003b80
00225f
00141a
0015d9
001431
001e3f
00134d
1ffa27
1fe27e
1ff127
1ff7a0
1ff9b4
1ffabf
1fff28
1ffebe
00006a
000775
0006b4
0002db
1ff75a
1fea17
1fd7ec
1fc6b5
1fb9cb
1fb7ff
1fcaf5
1ff29d
001fbd
0024b1
001f3c
001d20
0011fa
001f2f
001cf2
000b98
1ff5a0
1fecdc
1ff8d8
1ff7e6
1ffc92
1fff21
0000f1
1fff21
1ff95f
000744
1ffbb4
1fe989
1fde4d
1fce76
1fc213
1fca7c
1fd741
1feccb
1ff599
000d73
00151f
00153c
0009b1
0015fd
001b36
001a88
001729
00001c
1ff5cd
1ff777
1ff87d
1ffb8d
1ff9d7
1ff91a
000044
1ffacc
1ffead
1fff99
1ff7d5
1fe973
1fd886
1fce9c
1fd356
1fe837
000078
0003f7
000649
000e45
002359
001244
000c7a
0011a6
000e24
1ffec4
1fedb3
1fe6de
1fe5b1
1fef46
1ffd10
1ffaee
1ffd44
1ffe13
1ffc6f
1ffa98
1ffcae
1ffdc7
1ff58e
1ff096
1fdfe4
1fdaee
1fe6db
1ffb0d
1ff7d4
1feab0
0001b2
001e6e
001ebc
00059c
000df4
000ee0
0007e5
1ff587
1fe3f2
1fe3cf
1fe9bc
1ff05c
1ff705
1fffcf
1ffe5d
1ffb38
0000be
1ff9e5
1ffc18
1ffd75
1ffe11
1ff31b
1fe307
1fe5d0
1fee37
1ffd88
1fed59
1fec1e
0005a3
000eb9
000fb8
1ffdaa
1ff99d
1ffb3e
000225
1ff3cd
1fef7d
1ff800
1ff4a3
1ff854
1ff5e7
1ff6ec
00003a
000074
0000aa
1ff9fe
0000e8
000239
1ffd69
1ff184
1fe51f
1fe33c
1fea7b
1ff362
1ff206
1ffb47
0005cf
0017ef
000dbd
1ffea5
1fec06
1ffa33
1ffe08
000541
000c68
000c1d
00042f
000197
1ff86b
1ffe4d
1ffd9a
1ff9f7
1ffdbb
1ffeb7
000583
0000fa
00040a
1ff950
1ff504
1fecfd
1fd69f
1fd465
1fd95b
1ff636
000b87
001dda
1ffcc6
1fea37
1fe8f6
1ff880
0009b8
001976
0011eb
00168d
0015e7
0009b2
1ffd22
1ffe10
1fffbc
1fff48
1fff1e
0000ef
00001f
000df4
0007b6
00026a
1ff89e
1fe6e4
1fd34a
1fb91b
1fa7c5
1faf78
1fc2dc
1fdd2a
1fdfac
1fe326
1ffeda
0008e8
001050
0019d2
00055a
001f3f
001f31
000963
1ffb63
1ff95b
1ff9f1
1ffa77
1ffc95
1ffccb
0002b5
0014a3
000edc
0008f6
0004b2
1ffa8d
1ff01b
1fcc1a
1fb38f
1fb7ad
1fa8aa
1fb8b8
1fd2e9
1ff5bf
001234
00188a
001a71
001a24
00124e
00247d
00220e
000d03
1ff404
1ff7e2
1ffa18
1fff0f
1fff11
1ffa08
1ffc2d
0019e0
001a64
001f01
001ab8
0009ce
0002f1
1ff51a
1ff825
1fe75d
1fdc02
1fd9b7
1fe5ea
000931
0018a2
001ecc
002284
001edf
001b54
001fe1
000c38
00016c
1ff5dd
1ffe20
1ffefd
1ffdd5
1ffeb1
1ff820
0004a8
001bc4
002221
0024f1
00271f
0013bd
00173a
001a48
0009b4
1ffd5a
1ff72d
1ff27e
000416
000748
000de5
0018c2
0019ef
0011a6
001ebc
001176
1ffcbf
1ff900
1ff7e0
1ffd9a
1ffd7f
1ffd35
1ffab4
1fffa3
1ffe14
000dce
0020f4
0020e8
001cbe
001037
00114d
0005b9
1ffdb9
1ff839
00027e
1ffe9a
1ffdf6
1ffc34
000812
0002f2
000fd4
001973
000ecd
0005a9
1ffa44
1ff138
1ffb32
1ff9e7
1ff7f8
1ff879
1ffcaf
1ffdb1
1ffe77
000896
00108c
001687
001419
000b72
0000e4
000848
000a00
000c28
00035d
1ffb93
1ffb4a
1ff94d
00053d
0003ff
0003ef
001196
000888
1ffcf9
1ffc10
1ffadb
1ff4b2
1ff788
1ffe77
1fffc4
1ffda5
1ff9a6
1ffaba
0005a7
001213
001b4c
001457
00157a
000532
000dc1
0008be
1fffdd
1ff91c
00011a
0002cc
0006e1
00051f
000aa2
0010ee
1ffd24
1ff4ad
1ff4cb
1ffa18
1ff89b
1fff58
1ffe16
1ff8f9
1ff994
1ffaf1
0000cd
0000d9
00001b
000b9e
0012b6
00160b
001a04
001a6d
0015ad
001f96
00215b
00222a
001ae9
0017bc
00118e
0010c2
1ffe8b
1ff262
1fed28
1fef12
1ff5ab
1ff659
1ffd26
1ffb34
1fffe0
1ffb17
0000e2
1fff40
1ff7e4
00009f
000150
1ffdfe
00074e
000afe
000625
000ecf
000efa
001bfe
001fff
00225a
001ae6
00131f
0007ae
1ffcea
1ff3e2
1ff3d2
1ff605
1ff618
1ffb03
1ffb02
1fff76
1ff9f2
0000c5
1ff80f
1ffee2
1ffa41
1ff7d1
1ff832
1ffe00
1ffe1d
1ffa9b
1ff9b8
1ffdd2
1ffe01
1ffd61
1ffc55
1ffcf0
1ffb75
1ffd8d
1ffb6a
1ff726
1ffa92
1ffd6c
1ffc70
1ffdae
1ff85b
1ff87e
1ffedb
1ffba2
000034
1ffa1f
1fff5b
0000e9
1ffc18
1ff9e3
1ffd4d
1ff855
000065
1ffdea
1fff9b
1ffd90
1ffec0
1ff83c
1ff9a2
1ffe53
1ff999
1ffecd
1ffb3a
1ffd31
1ffb71
1fffda
1ff8a8
1ff9ee
1fff7d
1ffd57
1ff9df
1ffe18
1ff8c3
1ff826
1fff8e
1ffc59
