000485
0003f6
1ffec8
0002c6
00028f
000424
1ffe73
0000c5
0004c6
1ffe0d
1fff6c
000216
000607
0003ed
1ffd8a
1ffedd
1ffec0
00025f
00045b
000052
00006f
1fffaf
1ffe12
0000ad
0004e4
00017a
1ffdc5
00026d
00040d
000363
0001a2
1fff0e
1ffda6
1ffe15
1fff9c
000610
1ffdb7
0004eb
0001e5
000309
000260
000371
000018
1ffd55
1ffea3
0003be
1fffd6
000110
0004bf
1fffa4
0000d5
00006e
00029e
000516
1ffff0
000116
00055b
00057f
00006a
0003be
00048a
1fffca
1fff77
0001a1
00048e
1fff58
1ffe9c
00037c
00020e
00045a
1ffd6f
000498
1ffe59
1ffe3e
00006b
1ffdcf
000546
1ffe9e
1ffe1c
00053f
0000f2
0000ea
00012c
000256
00068a
000039
1fff67
0001ef
00020d
1ffdd6
00055b
0002ee
1ffef2
000568
0001b2
000443
1fff90
1ffb21
1fff90
1ff899
1fff17
1ffc24
000148
0000c6
0001a7
1fff96
00043f
1fff75
1fff5f
0005d9
00022d
0003b7
0000b7
000135
00004c
1ffebd
1ffdec
0003c5
00029b
1fff85
1ffcaf
000143
1ffa85
1ff849
1ff528
1fec53
1fe6f4
1fde85
1fe742
1fe72f
1fed8b
1ff7e3
1ffc33
1ffd44
0000e9
0004aa
0003a7
000363
000006
00002a
000486
000336
0003c1
000261
0002df
1ffc6f
1ffcd4
1ffc7b
1ff4a3
1ff4dd
1ff3f8
1ff029
1fec27
1fe885
1fdc29
1fd94d
1fcf18
1fdfc3
1febaf
1ff628
1ff59d
1ff27a
1ff369
1ff706
1ffc6d
1ffe58
00008c
00032b
000410
00042e
1ffd61
000437
0002af
1ff3e9
1ff149
1feeaa
1fec76
1fe807
1fee65
1ffa5f
00016a
0015a4
00204a
0019af
0011ff
000ef4
0012f6
1ffcce
1ffb6f
1ff193
1fe625
1fe7ef
1ff238
1ff94b
1ffefc
000230
00063c
1fffc6
1ffdf9
1ffdc1
1ff22e
1feafc
1fe741
1fe28d
1fe425
1ff62e
1fff33
0007a2
001d54
002303
003000
00303f
003232
0016c0
001121
0001da
000473
00050a
1feeb6
1fe107
1fedbe
1ffb70
1ffb53
000418
00060d
000617
000318
1ffe23
1ff19d
1fea3a
1fe6a6
1fdc8e
1ff6a2
1ffbaa
1ffafa
1ff5ea
1fff3b
000e0d
002922
0016b4
00171e
0004bc
0001d3
00013a
1ff866
0003f2
1ff642
1fe74b
1feb21
1ff5fe
1ffba1
0005a4
0001d6
000119
000069
1ff5b6
1fe991
1feecb
1ffb21
1ff623
1ffa22
1ffd57
000a8c
00065b
0001dd
0010fd
001c73
00195e
1fff03
1ff8ba
000048
1ff0db
1ff993
1ff01f
1fef00
1feddd
1ff3a2
1ffa99
1ffc14
000502
000116
1fffc8
1ffd96
1ffc0f
1feeb8
1ff6f6
00086e
000b0a
001667
00163f
001327
001cd8
000e85
00036b
0003b5
1ff166
1ff74c
1ffe47
000a2c
1fffc8
00082e
1ffb1d
1ff5f6
1ff686
1ff3f8
1ffc91
1ffb74
0002e0
1fff0d
000127
1ffd66
1ffe59
1ffb43
000fe6
0024c9
001b74
002b23
00114b
0011ee
001ecd
1ff634
1ff7ac
1ffb80
00022d
000be8
0029b1
0013b2
0013f7
0020bd
0017b1
000dd7
0002dd
1ffdbc
1ffa5c
1fffc1
000006
00029b
00055e
1ffc4c
1ffa18
000d6c
0022e1
00285b
0017f0
001deb
002496
00175d
000046
1fe890
00144e
002bde
0022b5
001dac
002d5f
002db2
002f6b
0030c0
002094
000fab
00006a
1ff8bf
00012f
0002a2
0002d9
000608
0003b4
1ffaed
0001e8
00144c
001e85
001cc3
0012e1
0017b5
000f38
000dc1
1ff8e1
1ff3b1
001fea
002bc6
001fb8
00248e
0020c5
002cf5
002dbd
0023c0
0014e1
000132
1ff1c7
1ff7b7
1ffd6d
0002b3
0002bd
000137
00009a
000426
0002a3
000949
0008c0
0017d5
0010ac
00081b
1fffea
0002f7
1ffe86
1ff701
000a59
0005e1
001bfe
001db0
001dbb
00143f
000d04
00103d
00004c
1fef9c
1fe82e
1ff626
0001a5
0000f0
00011c
000490
000429
0002c1
1ffcac
0000ae
000a9a
000a27
0006b4
0006d7
1ff36f
1ffa2a
1ffa1f
1ff73a
1ff936
1ff7c6
001e94
002cc5
002ae9
00157c
000213
1ff6ab
1fe765
1fe14e
1fea13
1ff63e
00002e
000282
1fffa5
000541
000070
1ffc3c
1fff09
000055
00032e
1ff7cc
00067b
001267
1ffbb0
000a71
000ece
1ffdfb
1fef29
1ffd2e
0010fa
001e8d
001e5a
000794
1feebd
1fe35b
1fd865
1fe432
1fe969
1ff10d
00007f
1ffcbd
0002d3
0001bc
1ffed7
1ffbe4
1ff9fe
1ff4bf
1ff24f
1ff4b7
000517
0009ea
000b4a
001136
00190c
000f46
000719
0009b4
0018ea
000766
1ffaf3
1ff4fd
1fe6b4
1fe707
1fe51e
1fe6b8
1fed63
1ff272
00015a
000165
1ffece
0004da
1ffffc
1ffd2b
1ffee0
1ff61a
1fe947
1fe8d7
1fe947
1ff674
0003ca
001b72
00162f
1ff276
1ff242
0000da
00107e
1ff5e4
1ff478
1fea68
1ff301
1ff3d1
1fecfb
1febfc
1feb0b
1ff12d
1ffda4
00004c
000470
000326
000649
00011e
1ffa90
1ff6ea
1fefec
1fe696
1fe5eb
1fe4fe
1fe536
1fe205
1fe6ad
1fdf37
1fe915
1fecb0
1fea07
1fed09
1ff9ce
1ff192
1ffbf9
1ff659
1ff491
1ff534
1ff666
1ff9f6
0001bd
1ffe1a
0000ac
1ffed1
0000e1
0002ac
000034
1ff698
1ff079
1fe874
1fdb1e
1fd5c2
1fd09e
1fbfda
1fcee7
1fd029
1ff058
1fea0b
1ff5b0
1ff3a2
1ffcab
1feaf9
1ff913
1ff7a8
1ff299
1ffc39
1ff994
0000a5
00055a
00033a
000103
00006e
000001
00055a
1ffa54
1ff9ac
1ff0b1
1fea60
1fdea0
1fda1d
1fd652
1fd44f
1fd8b5
1fe6f8
1fe74b
1fe6e3
1ff197
1ff064
1fe881
1fe3a6
1ff3fc
1ff94d
1ffc23
0001e4
1fff77
000267
000349
00002f
000065
00041b
000106
000129
0003ee
1ffd79
1ff3a2
1fec36
1fe515
1febf8
1feb13
1fe926
1ff092
1feea8
1fe8ec
1fec9a
1fe4d0
1fe1ed
1fe285
1fe77c
1fea34
1ffa04
000756
000414
00050f
000846
0001bc
0001ee
000304
0004d2
0003c8
00016a
1ffe1c
1ffc87
1ff55d
1ff3a2
1fefa7
1ffec4
1ff964
1ffab4
1fec2f
1fefda
1feba1
1feec7
1fe298
1fe042
1fe40f
1fee98
1ffe4d
0006d1
000fd2
0016cd
001319
0008f0
1fff64
000669
1fff41
1ffffb
1ffd79
1fff52
000566
0003e2
000615
00046b
00066b
000911
0004e5
1ffcc5
1ff5d7
1fff48
1ff068
1fec4a
1feb30
1ff690
0006d9
000bb0
000c15
001b96
001daf
001116
000a72
00083f
1ffe62
0003af
1fffc1
000158
00055b
00055e
1fff6f
000081
00092b
0006f2
00140a
0015f6
00165c
001359
0007ae
00145a
001227
001161
001056
001e85
00212a
00247a
002612
002a7f
001e27
000bc4
000594
1fff41
1fff8d
000190
000150
00003a
0004e1
00014f
1ffe39
0004e8
00079a
000aa9
000ecf
0010dc
001992
001a62
001da2
002318
002367
002b59
001901
001121
000e77
001555
001707
0010b8
000ba5
0004d8
0001bf
000116
0001ee
1ffe2b
000111
1ffed4
00023b
1ffdfd
0005e9
000364
0001e0
1fff29
0005bf
0004db
000352
1ffeee
1ffecd
000124
1ffeef
00013d
0003b0
000057
000203
00068f
0005d7
00034a
000203
1ffe5f
00067b
000386
1ffecd
000073
1fff58
