1ffc68
1ffd22
1ffc86
1ffe58
1ffde7
0000b7
1ff8a9
1ffe6d
1ffb10
1ffbd1
1ffa1a
00009d
1ffda8
1fff9b
1ff9e2
1fffab
1ffe1c
1ff96a
0000a8
1ffd1b
1ffc8a
1ffc53
1ffcd7
00015c
000009
1ffbca
1ffac1
1ffcb4
1ffc88
1ff8b1
00013b
000002
1ff956
1ff988
1ff8ef
1ff98c
0000e9
1ffd4c
1ffd03
1ff8bd
0000cc
1ffed8
1ffb0c
1ffc3e
1ffee0
1ffda5
1ffa5e
1ffddb
0000b3
1ff92d
1ffec7
1ffa6e
1fff79
000183
1ffb0c
1ffa63
1ff9e4
1fffe3
1ffd8e
1ffcf6
1ffa2c
1ff8d5
1ffd98
1ff8a1
00014f
1ff89a
1ff8f2
1ffe8d
1ffd87
1ff86e
1ffe7a
1ffdf7
1ff7f9
1ffb46
1ffb4e
1ffeff
1fffc3
1fff9f
1ffe3a
1ffcc0
0000b2
1ffb08
1ffedf
0000f1
1ffa85
1ffcd6
1ffce7
1ff9a3
000148
1ff9fd
1ff91d
1ffbda
1ff8ca
1ffd7d
1ffa95
1ff5f2
1ff4d1
1ff271
1ff4c0
1ff954
1ff4b6
1ff73c
1ff9e4
1ffc41
1ff776
000088
1ffb87
1fff8e
1ffb21
1ffe71
1ffdb8
1ff94c
1ffd12
1fff28
1ffbca
1ff950
1fffa2
1fff7d
1ffd16
1ff9ef
1ff9e8
1ffc6c
1ffcd6
1ffe41
0009bb
000648
001531
001014
00074f
000400
000600
1ffaaa
1ff980
1ffc9f
1ff632
1ff8f9
1fffc7
000078
1ffc36
1ffd15
1ffd36
1ffeaf
1fff2c
1fffc0
1ffa39
1ffc96
1ffb04
1ff28b
1ffa98
0004ce
1ff4e2
000ece
001bd6
001729
00181a
000b80
00097d
00164d
00011d
1ffefc
0007f5
00041e
1ff27c
1ff4a8
1ff826
0005fc
1ffd8f
000107
1ffa82
1ffa0e
1ff8c6
1ff8f2
1ff7e8
1ff816
1ff349
1ff33d
0000e4
0003c2
1fff04
00072a
000b57
000917
000cd0
0017fa
000b9b
000da5
0002e1
000f93
0005f2
000750
000918
00087d
00072a
000303
1ffd13
1fff45
00010e
1ffa91
1ff99f
1ffb07
1ff78e
1ffcec
1ff754
1fff7d
000892
000381
00044f
1ffd4d
1ff50a
1ff7c9
1ff3e6
000742
00091c
1fff70
000634
1ff939
00094a
000e7b
00029b
001e04
001263
1fff4c
000071
1ffebd
1ffeb9
000067
1ffe84
1ffa13
1ffe6d
1ffd36
000c70
0007af
0002c6
001593
00013c
0000ba
000e6a
0012ac
1ff143
1ff37a
000a35
1ff8c4
000365
0009c6
000673
0013e6
000d57
0016ad
0014a1
1ffd8b
1ffe3f
00020a
00001f
000068
1ffcc5
1ffc03
1ffdd3
000c99
000959
001341
0019d4
0015c7
000dcd
001840
000694
000704
1fe3a2
1fd88c
1ff23e
00021a
000446
0007a8
000a1d
0008ba
0014d7
001567
1ffc84
1ffd10
0004c4
1ff976
1ffad0
000035
1ffa7a
00008d
0004db
000f7b
000f62
001c32
0014ed
001874
0023bc
001121
0011e7
000e99
1ffb42
1fda71
1fe139
1ff69e
000ab5
000aa8
000aed
00196a
001c1f
0016f1
00004b
1ffe54
1ffd05
1ffb0c
1ffa7a
000140
1fff80
1ff74a
000761
001115
002088
002a39
002130
0029f0
001cb7
000d93
00117d
0029c0
0032d8
1ff9c0
1fe1be
1ff598
1ff617
00042a
0016ff
001b8e
002499
00228b
00180a
0003e7
00021d
1ffe07
1ffb33
1ffe61
1ffbf1
1ffe1d
1ffe74
00146e
0010ef
0019de
001869
001eab
000539
000752
00040e
00326b
0032ab
000b5c
0001ed
1ffb92
1ffc5a
000cb1
00158f
00250e
002b26
0023ff
001698
00090b
00047b
1ff9a2
1ff8fb
1ffd76
00016e
1ff9fb
1ffb71
1fffe4
1ffcba
1ffcea
0002c8
1ffc46
1ff4f3
000436
001285
002f3b
000e22
0022bc
000dd3
1ff738
0000d3
000128
000f62
000df6
0007ea
000b41
0005fc
000154
00015d
1ffed7
1ffbb8
1ff8dc
1fff07
1ffd07
1ff9b3
1ff247
1fe781
1fe098
1fdaec
1fe24d
1ffbda
0012fd
001244
00269b
001ee0
0014e1
1ffd76
000299
1ffa94
1ff369
1feb81
1fedaa
1ff03b
1fed5c
1ff78e
1ffec6
1ff875
000038
000098
1ffb6c
1ffabe
1ffdce
1ff91a
1ff25f
1fe17b
1fda99
1fdde6
1ff7af
000149
0000d6
001a5f
001f2d
001b46
000fba
1ff81d
1ff921
1ffb2f
1fe462
1fdd9a
1fe59e
1fef46
1ff012
1ff3fc
1ffdec
1ff7b2
0000ad
1ffc50
1ff930
1ffb4a
1ffd86
1ff4f8
1fec47
1fe04d
1fed49
000c92
000df6
0005b6
000ccd
00197f
001658
000804
000d55
000485
1ff58f
1fe9b6
1fe026
1fe026
1fdfa3
1fe60b
1ff764
1ff4a7
1ffc1f
1ffbf9
1ff900
00018e
000114
1ffa8a
1ff950
1ff8b3
1feb95
1fe403
0004f3
001a04
00203c
000a51
001864
0027b2
001814
000209
1ff98d
0002e3
1ff3a3
1fdf45
1ff07f
1ff09d
1fea41
1fefe5
1ff5db
1ffa39
1ff7c0
1ffea2
1ffbba
1ffb0c
000050
1ff8ec
1ff6ed
1ff38d
1ff33e
1ff81d
0007b0
001564
00269b
001afa
0024ce
0017f7
000dcf
1fef44
1ffbae
1ff692
1fe6e1
1ff9f2
1ffb45
0001da
1ff22b
1ffde6
1ff441
1ff007
1ff7cb
1ffeaf
000103
1ffb27
1ffd9a
1ffe33
1ff52f
1ff233
1ffa71
0003af
000a33
000a9e
001a25
000d6e
1ffe25
000662
1fee7f
1feb81
1ff82a
1ff991
1ff79a
000672
0001da
00084b
0000b3
000562
1ffb6a
1ff3d1
1ff8b8
1ff9ce
0000bd
1ffa0c
1ffeb5
1ffa8c
1ff80e
1ff00e
1ffd50
00028b
00169f
0006be
1ffd15
1fffdf
1fecdf
000136
1fff7f
1fedd8
1ffcb3
1feacc
1ff94a
0003c0
000252
0006b6
000b65
000b5c
1ffd32
1ff886
1ff62d
1ffd17
1ffa44
000084
1ffcd4
00011f
1ff37a
1fed67
1ffe25
0009cc
0014ee
000461
0008f8
1ffe5a
1ff22e
1ff844
0004c4
1fff93
1ffdd0
1fefc3
1ff930
1ffb7a
1fff59
1fff9f
0003e4
00035e
1ffb1e
1ffa1d
1fffa2
1ffec8
1ffc3b
1ffe1c
1ff8e3
1ffb75
1ff80a
1ff129
1fe9dd
0002a0
0005f5
1ffea3
1ff8ec
00047c
000199
001a6f
001bb8
001398
000f50
1ffeaf
1ffe8e
00069f
1ff7c4
1ff719
0003cb
1ffe68
1ffa53
1ffe94
1ffe8a
1ffe5b
1ffa83
1ffa71
1fff4d
1ffd7c
1ff8ea
1ff079
1fdafa
1fe2f9
1ff161
00050d
0004fd
000abc
000e04
001f4d
002d01
00264e
001e89
0018ba
0011b6
000e10
0011fb
000d44
00032f
1ffe53
1ffbd0
1ff7d2
1fff3b
1ff8c1
1ffe90
1fff1d
1ffe92
000161
1ff9a3
1ff991
1fe782
1fde02
1fe376
1ffe3e
0006ab
1ffd78
000c1f
0008ef
0005e4
000ed7
00203f
00223c
0016fe
002032
001e38
0009f6
000093
1ff929
0000b1
1ffd32
1ffb4d
00011b
1ffe21
00017e
1ffeeb
0000b7
1ff993
1ffb25
1ff6e8
1ff32d
1ff00e
1fee37
1fee2a
1ff954
1ff363
1ff888
1ff86b
1fff3e
000b53
000812
000a3e
000bae
0001d9
1ffd84
1fffae
1ff844
1ff891
1fff5e
1ffdf0
1ffb37
1ffdc8
1ffece
00002b
1ffc71
1ffad0
1ff870
1ff9a8
1ff647
1ffd43
1ff733
1ff87f
1ff6f1
1ffad4
1ffa4c
1ffb24
1ff8d0
1ffacc
1ff9b8
1ff7a9
1ff6b2
1ffa26
1ffbf3
1ffebc
1ffc57
0001a8
000182
1ff902
1ffdc9
1ffd0d
1ffe6b
1ffa9e
1ffca3
1ffddf
1ffe2a
1ff8d2
1fffbe
1ffb2a
00012f
1ffc74
1ff9cd
1fff58
1ffaf5
1ff9e9
1ffc36
1ffe61
1ffdbd
000021
0000fe
000169
1ffecc
1ffdf6
1ffeb6
1ffa77
1ffd71
00010a
1ff95d
1ffd7e
