1ffb91
1fff60
1fff5d
1ffa09
1ffd31
1ffc70
1ffffb
1ffc2a
1ffe6a
000149
1ffe6a
1ffe46
1ffb73
1fffba
1ff9ef
1ffb00
1ff921
1ffa6b
1fff2e
1ffe77
1ff90c
1ffd5c
1ffe16
1ffc93
1ff973
1ffd87
1ffe13
1ffbc1
1fff98
1ff8b6
1ffff3
1ff9bf
1fffbb
1ffbfe
1ffdf1
1ffbd3
1ffac5
1ffe16
0000a5
1ff9ea
1ffbc5
1ffa92
1ff902
1ffed5
1ffb43
1ffa76
1ffb67
1ffb18
1ffe72
1ff9a6
1fffe6
1ffa16
000016
1fff84
1ffa55
1ffcde
1ffcf1
1ffea8
1ffbcc
1ff90d
1ffa46
1ffd94
1fffc4
1ffe1d
1ffaf8
1ffc25
0000f6
1ff89b
1fffa7
1ffacb
1ff938
1ffa7b
1ffb93
1ffd70
1ffc28
1ffc36
0001b2
000030
0000b6
1ffaa4
1ff907
1ffc87
1fff93
1ffe19
1ffeb1
1ffdfe
1ffa58
1fffa3
1ff9c6
1ffbe1
1ff898
1ffb2a
1ff91f
1ffb16
1ff40a
1ff0ba
1ff747
1ff7d2
1ff5f3
1ffcac
1ffe8f
1ff81b
1ffb43
1ffe83
1ffeed
1ffcb7
1ff7fd
1ffa9f
1ff656
00011d
0000b2
1ff9af
1ff943
1ffbd3
0000af
000060
0000ee
1ffb2b
1ffacd
1ff532
1fedc7
1fe7ce
1fdcac
1fe96e
1fe93f
1fe17a
1fef30
1fffec
1ffe01
0005b1
1ffe46
1ff756
1ff4ab
1ffa02
1ffb17
1ffc90
1ffbbe
000198
0000e8
1ffce0
1ffd6e
000195
1ffa89
1ff9b9
1ffb5b
1ff4f7
1fef54
1fefe3
1ff572
1ffe07
00038e
0003d8
1ffa49
1ff7d3
1ffb12
1ffdb1
00082b
00085a
000fd5
0009dd
000990
000c46
0016a7
001345
000d85
000779
0004a6
0001bd
1ff9fa
1ff96e
0000d6
1ff9ac
1ff7da
1fec8a
1ff742
1ffefa
1fff50
0007e5
001064
000da3
000251
000506
1ffdbf
1ff83b
1ffb4d
1ffc09
00002d
000f8f
0008e7
000a1e
001eed
00252f
0029d4
001620
000aee
0002ab
1ffc95
1ffe28
1ffd54
1ff7fb
1fe963
1fe576
1fefd8
000216
000a95
0014c6
00143a
0011a9
00051c
1ffe54
1ffa5a
000062
0008c0
0007ea
000a05
001667
00135e
001729
002062
002b70
003507
002649
0005e6
1fff17
1ffe7d
000166
1fffe0
1ff513
1fdf6e
1fe427
1febd9
00013f
000fc0
0004a0
000877
00106e
000a05
1ff4ba
1fe748
1ff107
1ff6d0
0000e1
000285
0012ab
0013b4
001c12
002c5e
003a0d
004d72
003209
00091e
1fff12
1ff997
1ffc3e
1ff901
1ff0cb
1fee87
1fefdb
0001f7
1ffedf
000d71
000bad
000cb5
0021e8
0015de
1ff6ef
1fe234
1fd549
1fd81a
1fe8c8
1ffaad
1fffdb
001223
0026c8
003820
004cc5
00607b
003f64
000b5a
1ffb87
1ffea0
1ffb92
1ffa06
1ffb2f
1ffae8
1ffcb9
000ad3
00142c
001f7b
0022d7
00214d
00284e
002183
0019c1
1ffa7b
1feaf3
1fdcdd
1fddfb
1fdcc9
1fd7d9
1fe484
1ff777
0004ac
0019c3
003369
0026a4
000d25
1ffb8c
1ff9fb
00000b
1ffb19
1ffcca
1ffb06
1fff4c
001133
0014ff
001e5c
001c0a
001486
00169d
00256b
0022f2
00008f
1fea3b
1fe503
1fe2ee
1fd934
1fc9de
1fb169
1fb7d9
1fc4df
1fd4e2
1ff0a8
0001b0
000453
1ffd62
1ffd4e
1ffdc7
1ffcc2
1ffb79
1ffc90
0008b6
0013bd
00119c
000cf2
00076a
0015de
002d45
002a49
002b59
000478
1fea04
1fd71c
1fdee7
1fe98a
1fdfc1
1fdb44
1fc305
1fba6e
1fc38e
1fd795
1ff486
000099
1ffff6
1ffd99
1ffa48
1ff9e9
1ffbc1
1ffeb5
000490
000d39
0009b2
000b35
000942
001e74
002207
001950
0017a5
1ffb40
1fe5d3
1fd567
1fe97e
1ff802
1ff6c0
1ffb98
1feeba
1fe0c5
1fd25d
1fdda1
1ffa09
1ff982
1fff0d
1ffdb1
1ff9cf
1ffcf1
1ff855
1ffd6d
1ffd38
1fffdc
1ffe89
000dff
001624
001a91
000516
0008fd
1ffe56
1fecfe
1fea1c
1fe19e
1fe524
1fe6d6
1ff3dd
1ff57f
1ff676
1ffa37
1fe6ee
1fef20
1ff78b
1ffcfe
1ff884
1ff94a
000108
1ff8c7
1ffd0c
1ff547
1fefe4
1fe974
1ff110
00056f
0018f0
000bd8
000aeb
00096a
1ff77d
1fe3ca
1fdf8d
1fe2b7
1fe1fd
1feade
1ffeee
1ff8d2
1ff9f0
1ff8be
1ff7a8
1ffa26
1fffd2
000129
1ffb82
1ffbf7
1ffd61
1ffe40
1ff8cc
1ffbce
1fedae
1fdb4d
1fd499
1fe2a5
1fefc3
1ff98e
1ff6bb
1ff9f4
1febff
1fd979
1fe0b8
1fe946
1ff7d0
1ff84c
00013f
000655
000101
0006e1
000191
000113
0000f8
1ffbb0
1ffc05
1ffb38
1fffae
1ffffa
000087
1ffb5a
000157
0002ae
1fe356
1fcc26
1fcf7a
1fdd3c
1feb16
1fdf4e
1fd5cf
1fd6fb
1fed52
1ff7cb
000c66
0012f5
000c63
000c7f
0003a2
000068
0006e7
000704
1ffa15
1fffc2
00002a
0000b2
1ffaf7
1ffcd2
1ffbe9
000a42
000d8e
002035
0005aa
1fe0fd
1fd2de
1fc49c
1fcaf4
1fd9f5
1fea47
1ff528
1ffb76
1fff2f
000e8f
000752
000cfc
0008ba
000caa
000a6f
000e6d
00077f
00008f
1ffa84
1ffe3d
000009
1ffaed
1ffd47
000117
000f92
001a9a
0023d1
00181c
000f45
0004f5
1ff499
1ff3d4
000108
000e98
000574
0007c0
0007de
1ffd85
0005a6
000585
00012d
000975
00103e
000be0
0000fd
1fffce
1ffff2
1ff99e
1fffad
1ff88e
1ffc74
1ffa71
000216
00117f
001451
0018c1
0022b0
001d4b
0019bd
002584
00175b
001184
1ffb11
1ffb78
000ce8
00069a
000ac8
000e45
000c7f
0009d0
001778
00118a
1ffdb7
1ff8b4
1ffd6c
1ffb5f
1ffab2
00002b
1ff842
1ffd18
0006e7
1ffdcb
00085e
0016a4
0020b1
001562
001223
0009c7
000ca7
0007dc
00082f
0009fa
000298
00080a
00041e
000cf5
000cb9
001557
001a3f
0005ac
000039
1ff9c4
1ffb73
1ffb79
1ffe76
1ff8e8
1ffc51
1ffb73
00027e
1ffc81
1ff857
1ffea2
000cb5
001294
000339
001072
001a99
0020d8
0010b8
000286
0001d8
00041a
00089b
000890
000eac
000d41
000dd7
0004de
1fff4a
0000c6
1ffd52
1ffe35
1ffa28
1ffd26
1ffe59
1ffdb8
1ffa74
1ffc57
1ff4e1
1ffaf1
000a10
0009da
0009d5
001188
0010d3
000b85
000d3d
000c1f
000bdc
000574
1ff9bd
1fff20
0005d0
00025c
0007ca
1ffb20
00014e
1ffc03
1ffbec
000138
1fff71
1ffc2b
1ffb96
00015d
1ff863
1ff7ea
1ffd18
1ffe86
1fff8c
000d05
0010e6
000d02
000872
000bc2
0015b0
0011f1
000ab4
000534
0009f0
000671
1fffa1
1fff12
1ffda4
000068
1ffac2
1ffe1e
0000c9
1ff997
1ffd22
000045
0000c1
1ff946
1ffff4
1ffdeb
1ff803
1ffd0d
1ff8d4
00043b
000327
0008cd
0008c1
000f5a
0000d8
000492
0003dd
000784
1ffaf7
1fffc8
1ff79d
0000b8
1ffcdf
1ffa5f
1fff56
000062
1ff8db
1ffc3a
1ffdc4
1ffd8a
1ffac0
1ffc05
1ffb93
1ffc5e
1ffeb2
1ffacb
1ff920
1ffc6d
1ffb4e
1fff1c
000024
1ffe33
1ffafd
1ffd70
1ffeda
1ffac4
1ff5e4
1ff7d1
1ffe45
1ffe3b
1ffb63
1ffea6
1ffc90
1ffda6
1ffbbf
1ff8d9
1ffe6c
1fff08
1fff52
1ffdfd
1ff9e4
1fff9e
1ffbe3
1ffb7f
00017c
1ffbb4
1ffb1a
1fff6b
1ffd5e
1ff881
00002a
1ffdb2
1ff933
1ff876
1ffa5c
1ff859
1fffe4
1ffbc8
000168
1ff97e
1ffe0b
1ffcbc
1ff9fa
1fff0f
