1ffe94
0002e7
1ffcb8
1fffbf
1fffe4
1fff8e
000187
00049c
1ffcf9
1ffdfe
1ffe1f
1ffd1c
00017e
000436
00025e
1ffc26
1fff79
00049b
0000c8
1fff98
1ffc74
1ffda2
000116
00040a
00022e
0002a8
1ffc66
1ffc8c
0002f7
000259
0002fc
1fff3d
1ffbf6
1ffd97
000210
0006b5
00048c
00015e
000581
0005e0
000642
0005e6
0003b7
0003f9
1ffbc2
0003c8
000521
0002eb
1fff2d
1ffd65
000571
00041c
1ffe4f
000496
1fff36
000365
1ffd53
1ffcc8
1ffbf4
1fff9b
000248
000168
000255
000690
0004aa
0009f1
000c82
000e22
000e2a
000ee2
00078b
000559
000c6c
00057b
000555
0005d7
0005b6
0002e4
0003ce
0000b6
000218
1ffece
1ffbca
00014a
1ffc6d
00006c
00035e
0001f2
00046b
1ffc28
0004cb
000541
000641
000cad
000b3b
000e10
000db8
000d35
00136e
001254
000b65
000e62
00171c
00170c
001895
0015c7
00160d
000ccf
000b5e
0002c7
1ffe0c
000283
0000aa
1fff29
1fffb4
0003e8
00035d
00013a
00013f
0007da
1fff20
1ffe5c
000798
0002dc
000386
000146
0002fe
00047f
000f68
000f41
0017e3
001849
001ea5
0021ff
001d3f
0013a4
0002c9
000537
0000b9
1fffff
0000c9
000260
00015b
1ffe31
1ffcc1
1fffa5
1ffd48
1ffa9e
000408
1fface
0001e0
1fee29
1ff68e
1ff97a
1ffd9a
1ff793
1ff793
00019f
000b76
00157c
0012a4
0010aa
000d25
000905
1ffef4
000074
1ffb78
000448
1fff6a
0003da
000398
1ffb5c
0001a5
1fff44
00017c
00001d
1ff95f
1ff7ec
1feb74
1fe524
1ff064
1fe160
1ff27d
1ff614
1ff1df
1ff384
1ffc88
1ff7a0
1ff26d
1ff310
1febe2
1ff2e1
1ff51d
1ff486
1ffe4a
0003bd
00017c
000239
000022
1fff44
000040
1ffc05
1ff7ee
1ffeb4
1ff48c
1ff1c7
1feb4c
1fefba
1fe2c3
1fdf3b
1feed1
1fefb3
1fe674
1fe7d1
1fe203
1fd751
1fd67b
1fdd47
1fdbad
1fe350
1ff509
1ff614
1ffc16
1ffd03
1ffe8f
1ffec7
000463
1ffa64
1ffb55
1ff9ca
1ff068
1ffc94
1ffa3e
1fefb1
1fecf5
1fea2c
1fe5b9
1fe187
1fe24f
1fe047
1fda64
1fd4ad
1fc2c7
1fc704
1fcd0c
1fcd8b
1fdcbd
1fe0f2
1fec9d
1ff3c9
1ff73c
00014c
1fff5e
1ffc96
1ffe0b
1ffc1d
00001e
1ffc6c
1ffa8f
1ffcda
0003ba
1ff628
1fed63
1ff1b9
1ff6ce
1feea9
1ff01e
1fdd40
1fd783
1fc559
1fc170
1fcce8
1fd617
1fdeaa
1fd963
1fe72f
1fed11
1ff1f3
1ffa38
00030a
1ffd0f
0003d6
000299
1ffb80
1ff973
0001aa
000566
000530
001300
1fff9b
0003c7
000193
1ff482
1ff830
1feedb
1fdc08
1fdb6d
1fd51d
1fd359
1fdc59
1fe7cb
1feeaa
1fe930
1ffd9d
1ff12a
1ff5b0
1ffcf0
1ffe85
1ffd9d
00018f
1ffd62
1fffa0
1ffd67
0000ad
1ffe97
000fe5
000b5f
000578
0006e0
0004dd
0004e0
0000c8
1ff7b7
1fe379
1fe53f
1fe93b
1fe922
1fee33
1ff7b0
000334
000ae9
0010fa
1ffff5
1ff6f8
1ffc3b
1ffe9f
1ffd9a
1ffeb8
1ffc1b
1ffe23
000245
000771
000b5e
000ee8
0006e9
0009af
0006d6
0011f7
001149
000c5e
1ff566
1fecdc
1fff32
1ffe3c
1fed44
1fee0c
1ffdc5
000a24
001880
002b78
001761
1ff955
1ff858
1ffdb0
1ffdb9
00040a
000316
1ffb9c
1ff9ff
00026b
0012dd
000a27
0008b9
000450
001250
000f48
000e05
00027a
1ffd68
1fff8e
00016b
1ffbe1
1fefb1
1ffddb
1ff828
000d0a
0021ec
0035be
001d08
1ffdaf
000017
0002a3
1ffe12
00006d
00030c
000029
1ff9a7
0006c2
00114d
000ee9
001486
001339
0014ce
001686
000796
1ff503
0000bb
00092e
000458
1ff8db
1ff90f
1fff01
000eb8
000e8d
002669
002cb2
001d4e
1fff97
1ff79d
1ffbdf
000323
1ffe68
00009d
1ffc8a
1ff3e0
1ffe79
00120a
0017fa
000f70
00183c
001e8b
002544
0009bc
1ffd4c
000e61
000d3a
00020c
1ff939
00015e
00076c
001138
0017a3
0015b8
001ae9
000e5c
1ff8a3
1ffb6b
1ffb50
0000d6
1ffc94
1ffc73
1ffc13
1feff9
1ff74e
001ab9
001b4d
001211
001bdf
002f46
002ee3
000e4d
000880
001461
000ac0
1ffa60
1ff4db
0003db
000be9
00058a
00002a
000b20
0006aa
1ffcc3
1ff756
1ffab0
1fff46
0000c9
0002a2
0003a1
1fff5d
1fe924
1ff40b
000b2c
00153b
001829
001e79
003497
003571
001b9d
000f8d
000fbe
0009f0
1ffffe
0002df
0015e7
000790
000323
1ffa6a
000502
1ffeef
1ff9c7
1ff3e1
1ffe43
0001fa
1ffe36
1ffd87
1fffee
1ff954
1fea8e
1feb11
1ff5dd
000e9a
001766
001545
0024d4
002d6d
003587
0018dd
0006ba
000dd6
0017e1
000f7e
00134b
000a28
00014f
000363
0003bf
1ffde1
1ff85d
1ffa5d
1ffba3
1ffb5c
000125
1ffcc3
00020c
1ff789
1ff21c
1fe9b8
1feeb1
000139
000f31
0017dc
001fc6
0032a4
0038fa
001d60
001a3e
001b6f
001387
00100d
00190b
00110f
000b0a
000260
1ffc02
1ffb11
1ffad6
1fff2b
1ffd86
0003a5
1ffdc2
1ffcbe
1ffedc
1ffc29
1fee3a
1feac0
1fed99
1ff87b
000507
000ff9
001a4e
001188
002285
002963
003120
0029d2
0016ac
000e80
001c28
0013da
000d77
1ffd3c
1ff591
0000ae
1ffd79
1ffebd
1ffcd7
0000ab
1fff98
00006a
000155
1ffea5
1ff944
1ff15e
1fe726
1ff4c0
1ff943
000c05
0015d4
001f0c
0027ef
00288e
00220b
001d59
001250
00190b
001759
000eec
0001fc
1ff818
1ff4ec
1ff98f
000060
1ffbd4
1fff19
1ffdaf
1ffdaa
1fff9a
0003fb
000114
1ffda6
1ff340
1ff0dc
1febb0
1ff274
1ff9da
1ffaf2
000274
000bad
00050e
000441
000c9a
000962
000015
1ffcdd
1ff1ea
1ff273
1ff4ba
1ff576
1ffefc
1ffe28
1ffc13
00044d
0001a8
000374
1ffea4
1ffe12
000066
000137
1ffabb
1ff7c3
1fedea
1fe922
1fdf1a
1fdf43
1fd9d9
1fe87d
1fed7a
1ff18f
1fea86
1fe3c7
1fdffe
1fe6c5
1ff47f
1ff44b
1ff5c0
1ffc58
000082
1ffbbb
1ffc7b
1ffe7f
1fff91
000279
0001fe
00015c
1ffbf1
1ffcc7
1ffe7c
1ffc1b
1ff9b2
1ffb03
1ff807
1ff40e
1ff0e2
1fee6c
1feecd
1febec
1febf1
1feb06
1feffe
1ffa72
1ffad5
1ffe32
1ffd25
00021f
1fff12
1ffbd0
1ffeae
1ffce2
1ffcf6
0003e9
1ffc5d
000112
1ffe24
1ffd26
1fff76
00029a
1fffcb
1ffb90
00019c
1ffbac
1fff55
000037
1ffb6b
1ffd7a
1ffe75
1fff96
1ffc02
1ffda9
1ffb97
1ffc86
00008d
1ffe55
00032d
00047e
0003f8
00002e
0002fa
000437
1fffce
0000c5
1fff32
1ffda0
00038e
0002ad
1ffdb2
1ffea0
000202
1ffe56
0000e2
1ffe3f
00029e
0002c1
1ffc70
1ffd4a
00039a
0002d4
1ffe9e
000289
1fff0a
1ffefe
000193
0001ce
1fff1e
1ffde2
1ffec9
000412
1fffcc
00024c
1ffdaa
00016c
1fffe3
0003d4
00008b
1fff7e
1ffb7f
1ffcf3
000163
1ffbee
1ffc99
1ffd6b
1ffbd8
1ffd2e
1ffe9c
1ffc46
1ffd30
1ffd91
1ffe04
0003c5
1ffc52
1ffd99
1ffc71
1ffd7f
0000b2
