1ffbdc
00025e
1ffeb6
1fff66
0002c8
1fffb6
1ffd5f
1ffd32
1fff5b
1ffe9e
00031a
1fffc1
00016c
1ffbf7
1fffc6
1ffa75
1ffb63
1ffec4
1ffb41
000316
1ffb5c
1ffe85
1ffb01
1fff80
00018b
1ffee5
1fffc5
1fffd8
0001c2
000229
0000b6
1ffb22
1ffae4
000044
1ffbf6
1ffedf
1ffcdf
1ffa4a
1ffc5b
00004c
000379
1ffb3d
1ffd6c
000182
1ffc0d
1ffa9e
000102
000269
1ffbda
000121
1ffc7e
1ffb8c
1fff1e
00004b
1ffe97
0002ff
1ffad1
1ffcd1
1ffc85
000178
000067
1ffaa7
1ffeb9
0002dc
1ffe45
1ffc29
1ffc4f
1ff9ae
1ff945
1ffdad
1ff908
1ff70e
1ff979
1ffe4b
1ffa74
1ff8db
1ffec5
000227
000065
1ffc0e
0002b1
1ffa50
1ffe9e
00014c
1ffaae
1ffec0
000301
1ffad3
1ffc49
00026f
0000fb
00001c
000064
1ffea3
1ffe33
1ff8f4
1ff659
1ffa89
1ff872
1ff773
00016c
0000af
1ff679
1ff7d9
1ff455
1ff7b6
1ff600
1ff90e
1ffb2e
0001d4
0001c5
1ffd3e
0000b1
1ffa99
1ffc33
1ffab9
1ffa09
1fff38
1ffe61
1ffaa8
1ffe32
1ffed8
1ff758
1ff771
1ff793
1ff7f6
1ffdcf
1fff24
1ff95e
1ff9c6
1ff995
1ff70a
1ffc5b
1ff47a
1ffb84
1fff60
1ffafb
1ffdbd
1ffd0d
1fff84
00016a
1ffd75
1fffe0
1ffb43
1ffeb7
1ffdb0
1ffe4f
1ffc6a
1ffe60
1ff98a
1ffd16
0001e7
000790
001055
0013bc
001383
0015f2
00179e
0018fd
0008cf
000190
000410
1ffdfc
1fffb7
1ff555
1ff841
1fff74
1ffbe0
1ffddb
1fff00
000094
1ffe3b
000015
000044
00009c
1fffc2
1ffaa6
1ff6e7
0004fa
1fff38
000d89
000bfb
000b70
0010f9
0014b1
001d52
001b47
001742
001670
00199c
000e83
000530
1ff4e2
1ff46d
1ff82b
00012c
0002ae
00006f
1fff73
1ff92d
1ff56e
1fff11
1ffbbe
000014
1ffb0a
1ffe8a
0000f2
0009aa
00141e
001286
000798
000bd0
0010de
001f7c
00172b
001446
000849
000fe8
00117c
0008f1
1ff937
1ff4de
1ff600
1fff63
000305
00011b
1ffeb8
1ffff3
1ff83e
1ff9fb
1ffb0d
1ff9ea
1ffcc9
1ffca0
00098c
000a0a
000525
000228
000391
000e2a
00294c
0020df
001e85
000998
000812
000763
00121a
001f8b
1ffc87
1ff581
1ffef5
1ffa7e
1fff25
1fff7a
0000ed
0000b0
1ff641
1ff90e
1ff60a
1ffa49
1ffa5e
1ffd1d
0006dd
1ffa23
000368
000a57
000931
0007d8
00169f
001e25
0022a8
00140c
00061a
1ffedf
000ede
002016
00095c
1ff81a
00001d
1fff07
1ffaf0
00027a
1ffbbc
1ff83f
1ff8e4
1ffa5f
1ffb3b
0000a0
000347
1fff3d
1ffa8c
0001c5
000239
1ffeb6
1ff51e
1fed48
1ff4c3
000adc
001b91
001c90
001947
001251
001b28
002523
0011ae
1ff8b6
1ff8af
1ffa68
1ffc36
1ffaef
000221
1ffe6d
1ff211
1ffd07
00022d
000a84
0007e6
1ffcf9
0002c4
000048
00056e
1ffc4d
1fe278
1fc949
1fcc86
1febe4
1ffd52
000e87
00173f
001585
001d59
00214e
0017f3
1ffb65
1fffb1
1ffa13
1ffc01
1ffebb
1ffe2d
1ffe7c
1ff825
000143
000b75
000bf8
0005ca
1ffe65
000837
0005d4
000abf
1ff72b
1fc60c
1fb837
1fb887
1fd8ed
1ff915
1ffd22
000383
000a01
002611
0022d0
001830
0000dd
1ffc32
1ffc25
1ffa53
1fffdf
0001ff
1ffa92
1ffdec
00071c
000de2
0011ec
000d8f
00097f
000cf6
000a13
000744
1fdcb6
1fc5f2
1fb63b
1fc36c
1fe1ed
1ff14c
1fec45
1ff0ea
0006a0
0018f8
002736
001643
000396
000006
000229
1fff30
0001b6
1ffba5
1ffcd9
1ff93c
001257
0017d2
001cec
000de1
0010ad
001888
000e16
000371
1fe149
1fbb8c
1fb606
1fc524
1fdfcd
1ff1d4
1feedd
000188
000df3
0010a8
00279e
00149d
1ffbd5
1ffdee
1ffb8d
00024e
000148
1ffc3b
1fff22
1fffb1
0019e7
0012ca
0019dc
0011db
0017ac
001def
000842
1fe976
1fc68f
1fb348
1fb6f4
1fcea8
1fe7eb
1ff703
1ff74d
00077c
000693
001929
001d94
000f50
1ffe7d
000070
1ffbf4
0000ab
0002e6
1ffa24
1ffcd4
00045f
00177f
001d32
001695
000fae
000fcf
001aa8
1ffc80
1fd439
1fb3dd
1fb5d9
1fc52e
1fe07f
1ff149
1fffce
0004d3
000b16
00107a
0016a9
0015a2
00083a
000067
1ffd50
1ffc61
1ffde5
0000b6
1ffb0c
1ff660
0000d1
0010b1
0014f0
00145b
00065a
001058
0019d4
1ffc0c
1fcb8d
1fb4e5
1fbde0
1fd896
1ffad3
000a0c
000e7b
000d58
001106
000cfa
000a42
000ba6
1fff60
1ffe45
0000e8
1ffbf0
1ffd31
0000e8
1ffe09
1ffc50
1ffdfb
000aa6
0015b5
000c88
0007b3
001596
002965
0001a1
1fde95
1fca17
1fda69
1ff48b
000c22
000cf3
000d8c
00070e
000384
0005de
000b49
00070a
1fff23
1ffc8b
00006b
1ffe0c
1ffe45
1ffd95
1ffdd5
1ff69e
000405
000bae
001be3
001957
0013d1
001a4c
00297d
001d2e
00062b
1ff296
1ffa23
1ffc3f
000658
1ffd14
1ffa9d
1ffcba
000686
0005f0
000ba7
1ffe75
0001ab
1ffd73
1ff9fe
000214
00020b
0002b7
1ffe0f
1ffb8a
1ffd58
000bf8
00166a
001082
001476
001922
00272f
002722
001399
0005fb
1ffbef
0002d0
0002aa
1ffa49
1ffbaa
1ff9ea
00033d
000402
00062a
000224
1ffc8e
1fff37
1ffb28
1ffd7b
1ffc67
1ffaad
1ffe1a
1ffc7c
1ffdc3
00031a
000dd9
001688
000fce
001124
00218b
0025ec
001926
000984
00038b
0000bd
1fff61
1ff5a0
1ff815
1ffb72
0003f4
1fffb6
1ffb4d
1ff879
1ffe27
1ffd87
1ffc58
1ffcdf
1ffb87
000044
00006b
1ffd5b
1ffb46
0001be
000a12
0008bf
001947
00148d
0016a7
001af1
0016fb
001d88
000cca
000d17
000728
1ff9ec
1ffb29
1fffa8
1ff929
1ff8d5
1ffc8f
1ffc45
1ffeac
1ffdb3
1ffd06
1ffe6f
1ffb80
1ffec9
1fffe1
1ffa93
1ffa70
1ffe65
1fff56
0006fe
0009e2
001770
001c09
00224b
0021f2
00145a
001093
000929
0003df
1fff9f
1ff317
1fefcd
1ff373
1ff9cd
1ffaf8
1fff5a
1ffe14
000191
1ffd4e
1ffa5c
1ffd7d
1ffee4
1ffa70
1fffc7
1ffe7c
1ffe8d
1ff952
1ff718
1ffb0c
1ffb8e
00052f
0003e9
00097a
000dde
000752
1ffa6e
1ff75a
1ff5ab
1ff733
1ff3a7
1ff439
1ff4e0
1ffdd2
1ffd16
1ffb53
1ffc8f
000046
1ffbf1
1ffc99
00032d
1ffe50
0002a5
000303
1fffda
1ff9fc
1ffd5e
1ff449
1ff4e8
1ff237
1fee1a
1feb8a
1fed60
1fea4d
1fec6e
1fed80
1ff4df
1ff6c7
1ff832
1ff75a
1ff807
1ffd54
0002ff
000178
1ffddd
1ffd25
1ffeea
000285
000243
1ffdb4
000025
1ffcdc
1ffd78
1ffa94
000113
1ffd1f
1ff62f
1ff628
1ff717
1ffc68
1ff71b
1ff78f
1ffcdb
1ff702
1ff8b0
1ffa8d
1ff923
1ffc94
1ff7c3
1ff90b
0002b4
1ffbbf
0000ca
00023e
1fff7e
1ffb5c
0001dd
1fff36
1ffd7f
000260
000077
0000d5
1ffa50
0002c9
0002b8
0000f1
0001f5
1ffea6
1ffca3
0001da
1ffb1d
1ffe33
1ffc91
1fff2a
1ffcf7
1ffa33
1ffacd
1ff898
1ffe48
000132
1ffb4d
1ffa17
00018e
