0007fb
0003ce
000440
0001bf
0006c4
000696
000745
0001ce
000656
0001f1
000606
0004dc
0006c8
00090d
0007f5
000575
00058a
0001f3
00094a
00093d
000546
0006c4
00053a
00081b
000315
000891
00053a
00078e
0000fa
000806
00025e
0005b6
000519
000205
0002d8
000789
00073c
0005e1
0005d2
000449
0006ed
0007cf
000a19
000506
000410
00081d
000576
0003b4
0008ca
000875
000377
000912
0009b7
000525
000847
0006a7
00082b
000623
0009c9
0001e5
0001d3
000670
0004c2
000495
000314
000564
000023
0002b5
000059
00025e
0004f6
0007f8
000609
000001
0005f5
000393
0007d6
000367
0008a0
000646
0006c1
000127
000757
000784
0002e8
000343
000580
000484
000930
0004d7
00010f
0008ff
1fff02
1ffe2f
1ffe41
1ffaff
1ffe3b
0000ab
0003bf
00077e
1ffc49
1ffea5
1fffcf
1ffa3a
1fff67
000260
0005fc
0005da
1ffeed
00084d
00031f
0008c4
0006c0
000418
00094c
000937
000107
0001d5
00081e
00052a
0001f5
1ff784
0000c8
0002f8
00049e
000842
0009af
0013cd
000569
1ffbd7
1ffb77
000313
000af4
000c46
000c37
000e4f
00077b
00038b
00031a
00036a
000139
0007fd
000190
00059f
000168
000563
00019e
1ffde9
1fee2e
1fee07
1ff7c4
00001c
0006c0
000799
000d34
000a42
000611
1ff605
1ffeff
000217
0009c1
000fb5
001a23
00104f
000d5b
1ffc90
0003b1
00020a
0001b4
0005cc
000110
000484
00010e
1ffd57
1ff631
1ff64f
1fe9b8
1fe513
1fef22
1ffc0b
1ffbe1
1ff788
1ffc1a
1fecab
1feb36
1feb0d
1ff73d
1ff986
0009cd
001024
000ef7
000c98
000348
1ffd53
000038
0004b9
0003d2
000227
0002ac
000099
000653
1ffea6
1ff699
1fecc3
1fe1ee
1fd9b6
1fe601
1ff4a3
1ff599
1ff109
1fed81
1fe33d
1fe6e2
1fe86d
1feac1
1fff47
000475
0002c4
0002a3
1ff7e9
1ff4f7
1ffb97
000396
000430
0004a4
0003ed
0003da
000830
00029e
1fffbc
1ff4d1
1fef0c
1fdcf4
1fd9f3
1fdbc7
1fec82
1ff70d
1ff4fe
1ff704
0003ee
1ff011
1ffa99
1fff19
000210
1ff403
1ff469
1fed72
1fe7a5
1feca0
1ffb3e
000737
000980
000998
000237
0003ef
00035c
1fff65
1ffef0
1ff1c2
1ff283
1fe7e2
1fdb3c
1fde50
1ff2b0
1ff60f
00078e
0017ca
002213
000ca0
1fff1e
1ffa4f
1fe8e4
1fe393
1fe3f5
1fdcab
1fe163
1fef93
0001e8
0007ed
0005bf
0008be
0009af
000804
00010c
00068a
1ff86b
1ff288
1ff9c1
1fed4b
1fed06
1ff224
1ff6bc
1ff9c3
001300
003d7e
0040ec
001ed4
1fff55
1fed8c
1fe9c1
1fe512
1fe7b6
1fe91f
1ff1cb
1ffb3d
1fff2d
00083c
000361
0001a6
00017c
0006aa
000718
000007
1ffddb
1ffee2
1ff44e
1ff871
1ff454
1feed4
1fe610
1ffd07
00207f
004a23
004e8c
001d18
1ff9a3
1ffa26
1ff085
1fef9f
1ff0c9
1ff1ec
1ff969
1ffd36
000686
000926
00066e
000103
0008c1
000432
0002d7
0008f3
1ffe49
1ffd44
1ffc1f
1ff4db
1ff163
1fe10c
1fd495
1ffe9a
0020fc
005743
003c87
000bfc
000658
1ffc46
1fee51
1ff4d6
1ffa94
1ffcf3
1ffc3e
000092
0008e4
000156
000640
0000e5
0005f0
00058b
0005ea
0009dc
00000f
0000d5
1ffb96
1ffa0c
1fe7a6
1fcc59
1fcb9b
000012
001b84
0047e9
0028a3
000abe
000538
1fef97
1fe828
1ff758
1ffcf4
1ffcd3
1ffeda
000405
000602
0008ac
00059c
000461
00095c
000545
00077f
000787
1ffff8
00014a
1ffd1f
1fefe4
1fe458
1fcc89
1fd8f1
1fff21
001bee
003d55
00277f
000bce
1fea16
1fe250
1fe974
1ff2a9
1ffc24
1ffbce
1ffd22
0006af
000106
0001da
000554
0009ed
0001a1
00065d
000409
000247
0005c6
1ffa5f
1ff998
1ff5d9
1fe1c0
1fde15
1ff775
000c71
002743
0041a3
001736
000440
1fd6af
1fdb64
1fe998
1ff283
1ff651
1ffd8e
0000bd
00037f
00047b
00093d
00018a
00099c
0004b3
0008c8
00055a
0002d6
1ffc19
1ff715
1ff66b
1fe892
1ff1f9
1ff4d3
1ff9cd
1ffe6d
0033a4
003df6
00038d
1fecd2
1fd34e
1fdb06
1fe832
1fedeb
1ff84a
1ff82b
000018
1ffc8b
000089
00025b
0004fb
0003fc
00097c
00021b
00095b
0006eb
1ffa90
1fec60
1feabf
1ff0ca
1ff645
0006fc
000014
0010e0
003b25
0032ba
1ff5b3
1fdcc1
1fd324
1fdb41
1fe8c6
1ff744
1ffb9c
1ffcd9
1ffbc8
1ff8c3
000213
000587
000677
0005dd
000568
000353
0007d0
000455
1ff840
1feb12
1feb3c
1ff837
0007f6
000692
000a86
001b72
002c2e
001e8d
1febea
1fdf01
1fe3bb
1fe7dc
1fefd2
1ff80c
1ff28d
1ffa08
1ff6d6
1ffa66
000512
0008cb
0008fc
00093c
000682
0006c6
000780
0000e0
1ff45f
1fe608
1fee7a
1ff8d9
00041f
000211
000170
0003a3
001459
00047c
1fef64
1ff22b
1ff3f5
1ff0e0
1ff446
1feed5
1ff1b2
1ff75f
1ff865
00006a
0002ea
000333
000146
000179
0009b5
00053b
00035a
1ffd66
1ff7b9
1ffe72
1ffa4f
1fffdc
00026e
1ff99d
1ffdb3
1ff594
1ffc70
1ffd67
0000aa
0009e5
00038f
1ffc43
1ff21a
1feeed
1ff031
1ff396
1ffd34
000150
0007ee
00032a
0009c2
0006f0
0003a7
0005ac
0006ca
000565
000e8e
000bf7
0005a1
0000f0
1ffbdb
00002c
1ff79a
1fecec
1fea3a
1ffe0b
00068b
000a72
000be6
000835
1ff22e
1ff268
1ff07c
1ff553
1ff9d7
000161
000438
0000d4
000132
000564
000580
000633
000145
000c9d
001c27
001d29
001199
000265
1ffe0b
1ff951
1fe436
1fd2e2
1fdd82
00001b
0006c3
0019db
002a65
00128c
0003de
1ff673
1ff890
1fff56
000141
000099
00041c
000961
000484
0008ba
000575
0006fc
0003e3
000b43
001836
0019cc
000bd7
000343
1ff9ff
1ffbe9
1ff049
1ff508
1ff633
1ff2e7
000520
001e13
002446
00104c
1ffd1a
1ff912
1ff547
1ffc4e
1ffc98
000222
000113
000201
0000fd
000220
000159
00038a
00011c
00057f
000ab4
000b0e
1ffc6f
1feff6
1fefe2
1fe3a9
1fe4de
1fe7a8
1feb26
1feb3d
1feb31
1ff9fb
000285
000497
0006a7
000593
000158
0002e4
0007b9
000257
0003ce
000754
00026b
00097a
000305
00039d
00051e
000751
0006ac
00001a
1ffbdd
1ffe5c
1ffc30
1ff029
1fecb7
1ff1be
1fec01
1ff3c7
1ff086
1ff717
1ffe65
000315
000665
00009c
0005cf
000373
00084a
000216
000279
00038b
00030f
00037c
0006b6
0005f9
0001d3
000676
000898
0005d4
00055f
0007ad
00067f
0000e7
000549
0004d0
0002c9
1fffd6
000280
0005a2
0008b7
00066e
000107
0005fa
00059c
00055a
00028d
000240
00067b
0008dd
000732
00073b
000926
000172
000510
00099a
0007a1
0008a6
0007fb
0008a7
000416
000795
0007e0
0000ca
0001a5
00096b
000625
0005a9
0000d2
00041b
0001cf
0001af
000314
00058d
0007fe
0008de
0008a7
000887
0002d9
